
/* Copyright 2019 The TensorFlow Authors. All Rights Reserved.

Licensed under the Apache License, Version 2.0 (the "License");
you may not use this file except in compliance with the License.
You may obtain a copy of the License at

    http://www.apache.org/licenses/LICENSE-2.0

Unless required by applicable law or agreed to in writing, software
distributed under the License is distributed on an "AS IS" BASIS,
WITHOUT WARRANTIES OR CONDITIONS OF ANY KIND, either express or implied.
See the License for the specific language governing permissions and
limitations under the License.
==============================================================================*/

// This is a TensorFlow Lite model file that has been converted into a C data
// array using the tensorflow.lite.util.convert_bytes_to_c_source() function.
// This form is useful for compiling into a binary for devices that don't have a
// file system.

#include "model_data.h"

// Keep model aligned to 8 bytes to guarantee aligned 64-bit accesses.
// just switch between { }
// change model len far below too
alignas(8) const unsigned char g_model[] = {
  0x20, 0x00, 0x00, 0x00, 0x54, 0x46, 0x4c, 0x33, 0x00, 0x00, 0x00, 0x00,
  0x14, 0x00, 0x20, 0x00, 0x1c, 0x00, 0x18, 0x00, 0x14, 0x00, 0x10, 0x00,
  0x0c, 0x00, 0x00, 0x00, 0x08, 0x00, 0x04, 0x00, 0x14, 0x00, 0x00, 0x00,
  0x1c, 0x00, 0x00, 0x00, 0x88, 0x00, 0x00, 0x00, 0xe0, 0x00, 0x00, 0x00,
  0x8c, 0x0c, 0x00, 0x00, 0x9c, 0x0c, 0x00, 0x00, 0x00, 0x24, 0x00, 0x00,
  0x03, 0x00, 0x00, 0x00, 0x01, 0x00, 0x00, 0x00, 0x04, 0x00, 0x00, 0x00,
  0xaa, 0xf2, 0xff, 0xff, 0x0c, 0x00, 0x00, 0x00, 0x1c, 0x00, 0x00, 0x00,
  0x38, 0x00, 0x00, 0x00, 0x0f, 0x00, 0x00, 0x00, 0x73, 0x65, 0x72, 0x76,
  0x69, 0x6e, 0x67, 0x5f, 0x64, 0x65, 0x66, 0x61, 0x75, 0x6c, 0x74, 0x00,
  0x01, 0x00, 0x00, 0x00, 0x04, 0x00, 0x00, 0x00, 0x94, 0xff, 0xff, 0xff,
  0x1b, 0x00, 0x00, 0x00, 0x04, 0x00, 0x00, 0x00, 0x07, 0x00, 0x00, 0x00,
  0x64, 0x65, 0x6e, 0x73, 0x65, 0x5f, 0x37, 0x00, 0x01, 0x00, 0x00, 0x00,
  0x04, 0x00, 0x00, 0x00, 0xfa, 0xf3, 0xff, 0xff, 0x04, 0x00, 0x00, 0x00,
  0x0f, 0x00, 0x00, 0x00, 0x63, 0x6f, 0x6e, 0x76, 0x32, 0x64, 0x5f, 0x34,
  0x39, 0x5f, 0x69, 0x6e, 0x70, 0x75, 0x74, 0x00, 0x02, 0x00, 0x00, 0x00,
  0x34, 0x00, 0x00, 0x00, 0x04, 0x00, 0x00, 0x00, 0xdc, 0xff, 0xff, 0xff,
  0x1e, 0x00, 0x00, 0x00, 0x04, 0x00, 0x00, 0x00, 0x13, 0x00, 0x00, 0x00,
  0x43, 0x4f, 0x4e, 0x56, 0x45, 0x52, 0x53, 0x49, 0x4f, 0x4e, 0x5f, 0x4d,
  0x45, 0x54, 0x41, 0x44, 0x41, 0x54, 0x41, 0x00, 0x08, 0x00, 0x0c, 0x00,
  0x08, 0x00, 0x04, 0x00, 0x08, 0x00, 0x00, 0x00, 0x1d, 0x00, 0x00, 0x00,
  0x04, 0x00, 0x00, 0x00, 0x13, 0x00, 0x00, 0x00, 0x6d, 0x69, 0x6e, 0x5f,
  0x72, 0x75, 0x6e, 0x74, 0x69, 0x6d, 0x65, 0x5f, 0x76, 0x65, 0x72, 0x73,
  0x69, 0x6f, 0x6e, 0x00, 0x1f, 0x00, 0x00, 0x00, 0xa8, 0x0b, 0x00, 0x00,
  0xa0, 0x0b, 0x00, 0x00, 0x88, 0x0b, 0x00, 0x00, 0x60, 0x0b, 0x00, 0x00,
  0x48, 0x0b, 0x00, 0x00, 0xf0, 0x0a, 0x00, 0x00, 0xd0, 0x0a, 0x00, 0x00,
  0x78, 0x0a, 0x00, 0x00, 0x60, 0x0a, 0x00, 0x00, 0xc0, 0x08, 0x00, 0x00,
  0x90, 0x08, 0x00, 0x00, 0x60, 0x07, 0x00, 0x00, 0x40, 0x07, 0x00, 0x00,
  0x10, 0x06, 0x00, 0x00, 0xe0, 0x05, 0x00, 0x00, 0x50, 0x05, 0x00, 0x00,
  0x00, 0x05, 0x00, 0x00, 0xf0, 0x00, 0x00, 0x00, 0xdc, 0x00, 0x00, 0x00,
  0xd4, 0x00, 0x00, 0x00, 0xcc, 0x00, 0x00, 0x00, 0xc4, 0x00, 0x00, 0x00,
  0xbc, 0x00, 0x00, 0x00, 0xb4, 0x00, 0x00, 0x00, 0xac, 0x00, 0x00, 0x00,
  0xa4, 0x00, 0x00, 0x00, 0x9c, 0x00, 0x00, 0x00, 0x94, 0x00, 0x00, 0x00,
  0x8c, 0x00, 0x00, 0x00, 0x6c, 0x00, 0x00, 0x00, 0x04, 0x00, 0x00, 0x00,
  0xf2, 0xf4, 0xff, 0xff, 0x04, 0x00, 0x00, 0x00, 0x58, 0x00, 0x00, 0x00,
  0x0c, 0x00, 0x00, 0x00, 0x08, 0x00, 0x0e, 0x00, 0x08, 0x00, 0x04, 0x00,
  0x08, 0x00, 0x00, 0x00, 0x10, 0x00, 0x00, 0x00, 0x28, 0x00, 0x00, 0x00,
  0x00, 0x00, 0x06, 0x00, 0x08, 0x00, 0x04, 0x00, 0x06, 0x00, 0x00, 0x00,
  0x04, 0x00, 0x00, 0x00, 0x01, 0x00, 0x00, 0x00, 0xeb, 0x03, 0x00, 0x00,
  0x00, 0x00, 0x0a, 0x00, 0x10, 0x00, 0x0c, 0x00, 0x08, 0x00, 0x04, 0x00,
  0x0a, 0x00, 0x00, 0x00, 0x01, 0x00, 0x00, 0x00, 0x02, 0x00, 0x00, 0x00,
  0x04, 0x00, 0x00, 0x00, 0x05, 0x00, 0x00, 0x00, 0x32, 0x2e, 0x39, 0x2e,
  0x32, 0x00, 0x00, 0x00, 0x56, 0xf5, 0xff, 0xff, 0x04, 0x00, 0x00, 0x00,
  0x10, 0x00, 0x00, 0x00, 0x31, 0x2e, 0x31, 0x34, 0x2e, 0x30, 0x00, 0x00,
  0x00, 0x00, 0x00, 0x00, 0x00, 0x00, 0x00, 0x00, 0xb8, 0xde, 0xff, 0xff,
  0xbc, 0xde, 0xff, 0xff, 0xc0, 0xde, 0xff, 0xff, 0xc4, 0xde, 0xff, 0xff,
  0xc8, 0xde, 0xff, 0xff, 0xcc, 0xde, 0xff, 0xff, 0xd0, 0xde, 0xff, 0xff,
  0xd4, 0xde, 0xff, 0xff, 0xd8, 0xde, 0xff, 0xff, 0xdc, 0xde, 0xff, 0xff,
  0x9a, 0xf5, 0xff, 0xff, 0x04, 0x00, 0x00, 0x00, 0x04, 0x00, 0x00, 0x00,
  0x1c, 0x00, 0x00, 0x00, 0xaa, 0xf5, 0xff, 0xff, 0x04, 0x00, 0x00, 0x00,
  0x00, 0x04, 0x00, 0x00, 0x1e, 0x05, 0x11, 0x0d, 0x1b, 0x20, 0x17, 0x13,
  0x22, 0xcb, 0x07, 0x03, 0x41, 0x0d, 0x06, 0xf5, 0x23, 0x05, 0xf8, 0x17,
  0xf3, 0xfd, 0xef, 0xf1, 0xea, 0xcd, 0xfa, 0x1b, 0x0a, 0x0c, 0x05, 0xfa,
  0x13, 0xe1, 0xf7, 0xf6, 0xb4, 0xe9, 0xde, 0x1b, 0xd9, 0xe5, 0x0c, 0x29,
  0x09, 0x1a, 0xdb, 0xf3, 0x2f, 0x19, 0xf3, 0x07, 0xf7, 0xcf, 0x37, 0x19,
  0x0c, 0x30, 0x37, 0x32, 0x41, 0x09, 0xf0, 0x2b, 0x4d, 0x1b, 0xf1, 0xcd,
  0xff, 0x24, 0x27, 0xf3, 0xf2, 0x16, 0x2d, 0x2f, 0x3b, 0x2b, 0xc5, 0x2f,
  0x1c, 0x4a, 0x19, 0xef, 0xe2, 0xa7, 0xf7, 0x19, 0x2a, 0x15, 0xfa, 0xe2,
  0x23, 0x22, 0x03, 0x19, 0xf1, 0x24, 0x15, 0x23, 0x29, 0x18, 0xf9, 0x42,
  0x55, 0x00, 0x04, 0x0c, 0x1c, 0x11, 0x14, 0x07, 0xf9, 0x0f, 0xfd, 0xfe,
  0xdf, 0xe8, 0xfd, 0xfe, 0x0c, 0xf2, 0xfd, 0x0e, 0xf4, 0xf5, 0xff, 0x04,
  0x20, 0x24, 0x1b, 0xf4, 0x36, 0x03, 0xfb, 0xfc, 0x62, 0xdd, 0x14, 0xfa,
  0x1a, 0x0b, 0xfe, 0x01, 0x04, 0x01, 0xff, 0xe7, 0xd6, 0xf2, 0x17, 0xfb,
  0xf4, 0x27, 0x0a, 0x07, 0xc0, 0x11, 0xef, 0xf7, 0x0d, 0xe4, 0xf9, 0x10,
  0xd1, 0xfe, 0x39, 0x0b, 0xf0, 0xb9, 0x07, 0x16, 0xfe, 0xff, 0xdd, 0xe0,
  0xf6, 0xf5, 0x01, 0xf1, 0xe9, 0x2a, 0xeb, 0x00, 0xf6, 0x2c, 0xf6, 0x23,
  0x1b, 0x0e, 0x01, 0xfe, 0x39, 0x15, 0x0d, 0xff, 0x14, 0x1d, 0x25, 0x02,
  0xf8, 0xfe, 0x02, 0xee, 0xf0, 0x08, 0x16, 0x22, 0x2a, 0x03, 0x02, 0x1a,
  0xf6, 0xdb, 0x07, 0xe0, 0xf7, 0x0b, 0x23, 0x11, 0xe9, 0x18, 0x11, 0xf1,
  0x58, 0x52, 0x20, 0x48, 0x16, 0x0c, 0x0f, 0x64, 0x55, 0xf1, 0x5d, 0x37,
  0x02, 0x46, 0x1c, 0x2e, 0xe4, 0x35, 0xf3, 0x18, 0xf8, 0xeb, 0xf0, 0x41,
  0x07, 0xec, 0xfa, 0x1c, 0x0c, 0xfa, 0xe7, 0x19, 0x15, 0x1b, 0xea, 0x02,
  0x27, 0x15, 0x04, 0x0d, 0x04, 0x0f, 0x12, 0x06, 0x1e, 0x05, 0xfb, 0x05,
  0x0b, 0x12, 0x01, 0xf7, 0x0b, 0x18, 0x00, 0x01, 0x1c, 0x01, 0x05, 0xf2,
  0x32, 0xfc, 0xe2, 0xe2, 0xf7, 0xf1, 0xf8, 0x19, 0x22, 0xc2, 0xeb, 0x06,
  0xf4, 0xde, 0x0b, 0x04, 0xf3, 0xfb, 0x0c, 0xff, 0x07, 0x02, 0xfb, 0x15,
  0x26, 0x4e, 0x23, 0xff, 0x07, 0xef, 0xf5, 0xd9, 0x1c, 0xf3, 0xe8, 0x0d,
  0xf9, 0x12, 0xec, 0x0f, 0x1f, 0x27, 0x0e, 0x10, 0x12, 0xe3, 0xe5, 0xf4,
  0x0b, 0xe1, 0x09, 0x1c, 0x1f, 0xf4, 0xe0, 0xec, 0x07, 0x22, 0xe6, 0xc9,
  0x09, 0xea, 0xc3, 0x08, 0xdd, 0xe8, 0x31, 0xf3, 0x2a, 0x45, 0x03, 0xfa,
  0x0d, 0xf5, 0xdd, 0x03, 0x30, 0xcf, 0x01, 0x02, 0xe7, 0x1d, 0xe7, 0xe3,
  0x0b, 0x30, 0x0e, 0x2e, 0xf1, 0x04, 0xf7, 0x1e, 0x4f, 0xed, 0x07, 0x26,
  0xff, 0x06, 0xf2, 0x24, 0x0b, 0xff, 0xde, 0xf5, 0xdd, 0x25, 0xf2, 0xfd,
  0x13, 0x29, 0x03, 0x19, 0xf3, 0x03, 0xfb, 0xf9, 0xef, 0xe3, 0x18, 0xf4,
  0xf3, 0xdd, 0xfd, 0xe3, 0xcc, 0xf0, 0x05, 0x09, 0x18, 0xf2, 0xfb, 0x1b,
  0xf3, 0xf8, 0xf6, 0xde, 0x0a, 0x03, 0xf0, 0x02, 0x27, 0xf6, 0x04, 0x0a,
  0x2b, 0xe5, 0x17, 0x03, 0x03, 0xf4, 0x10, 0xee, 0xfd, 0xf5, 0xec, 0xee,
  0xef, 0xdc, 0xc8, 0xc7, 0xe5, 0xfa, 0xfe, 0xeb, 0x12, 0xed, 0xfd, 0x1c,
  0xfc, 0xeb, 0x0c, 0x0b, 0x08, 0xe8, 0x00, 0xfe, 0xe7, 0xfa, 0xd9, 0x12,
  0xc8, 0x17, 0x00, 0xfc, 0x07, 0x09, 0x0d, 0xef, 0xf8, 0x01, 0xdd, 0xf7,
  0x07, 0x07, 0x09, 0xf1, 0xfc, 0x07, 0x06, 0xf3, 0xd9, 0xa9, 0xd4, 0x09,
  0x07, 0xf4, 0x14, 0xe0, 0x2a, 0xfc, 0xfa, 0xf9, 0xec, 0x18, 0xfe, 0x06,
  0xbb, 0xfe, 0xf5, 0x0a, 0x36, 0xf9, 0xff, 0x12, 0x02, 0xfe, 0x2a, 0x0d,
  0x12, 0xfa, 0xd6, 0x05, 0xd4, 0x17, 0xf4, 0xd3, 0x05, 0xb9, 0x14, 0x3b,
  0x0a, 0x1b, 0xca, 0x09, 0x06, 0xc8, 0x1f, 0x18, 0xff, 0xf8, 0x00, 0x0e,
  0xf2, 0x1e, 0x06, 0xfb, 0x15, 0xf9, 0x17, 0x13, 0x0d, 0x09, 0x20, 0x24,
  0x06, 0xf1, 0x24, 0x2a, 0xf5, 0x08, 0x17, 0xd4, 0x2d, 0x1e, 0xe8, 0x01,
  0xf6, 0xc2, 0xef, 0xff, 0x18, 0x09, 0x15, 0xf9, 0xbf, 0xf7, 0x01, 0xf9,
  0x36, 0xec, 0x20, 0xfc, 0xf9, 0x13, 0xf1, 0xfd, 0x03, 0xf7, 0xfd, 0x1a,
  0xe9, 0xe9, 0xf0, 0x19, 0xf1, 0xf7, 0xe7, 0x0c, 0xf6, 0x1d, 0xfa, 0x01,
  0xfc, 0xe9, 0xe2, 0x01, 0xde, 0xe9, 0xee, 0x1a, 0x00, 0xfe, 0xf3, 0xfd,
  0xfd, 0xfc, 0xfe, 0xf9, 0x09, 0x35, 0x03, 0xfd, 0x0a, 0x0d, 0x17, 0x18,
  0xf4, 0x13, 0x0f, 0x05, 0x01, 0x1b, 0x02, 0xdc, 0x2c, 0x01, 0x08, 0x00,
  0xfc, 0x07, 0x0d, 0x03, 0xfd, 0xfc, 0x25, 0x0b, 0x21, 0xe6, 0x26, 0x0b,
  0x6a, 0x44, 0x38, 0x07, 0x13, 0x0b, 0x06, 0x0c, 0xe4, 0x13, 0x19, 0x24,
  0x04, 0xef, 0x52, 0x10, 0xea, 0x00, 0x1d, 0x2f, 0x4f, 0xe8, 0x44, 0x3c,
  0x03, 0x28, 0xca, 0x0d, 0xfb, 0x2a, 0x23, 0xe8, 0x2d, 0x0c, 0x0e, 0xc3,
  0xdb, 0x16, 0x0e, 0x07, 0xf5, 0x1c, 0x06, 0x2a, 0x0e, 0x07, 0xff, 0xf3,
  0x1e, 0xf9, 0x1f, 0x26, 0xaa, 0x46, 0x0a, 0x0e, 0x0b, 0xff, 0xed, 0x1d,
  0xda, 0xe7, 0xf1, 0xfe, 0xe7, 0xe6, 0xea, 0xe8, 0x05, 0x00, 0xe9, 0xe0,
  0xc7, 0xfb, 0x0a, 0x09, 0xe5, 0xf6, 0x36, 0xe9, 0x17, 0xd6, 0xf9, 0xfa,
  0xf5, 0x25, 0x15, 0x0c, 0x1a, 0x0f, 0x04, 0xf5, 0x02, 0x08, 0x0e, 0x00,
  0xd3, 0xfd, 0x07, 0x1d, 0xfa, 0xf8, 0x05, 0x16, 0x13, 0x08, 0xfd, 0x0e,
  0x0c, 0x0d, 0xf8, 0xe1, 0xf6, 0xfb, 0xf7, 0x17, 0x0e, 0x1f, 0xf8, 0x21,
  0x20, 0xf2, 0xec, 0x1a, 0x5a, 0xe3, 0xd6, 0xde, 0xf5, 0x11, 0x2f, 0xd4,
  0x0b, 0x20, 0x05, 0xeb, 0x47, 0xee, 0x0c, 0xf8, 0x4e, 0x13, 0xf8, 0xef,
  0x13, 0x3e, 0x7f, 0xfe, 0x24, 0x0f, 0x0f, 0xd9, 0x38, 0x16, 0x1b, 0x10,
  0xff, 0xff, 0x1f, 0xeb, 0xe9, 0x16, 0x2a, 0x01, 0x2a, 0x14, 0x11, 0xe3,
  0xfb, 0x14, 0x11, 0x23, 0x14, 0x46, 0x0e, 0xb9, 0xea, 0xd8, 0xeb, 0x13,
  0x67, 0xcb, 0xfc, 0xf1, 0x3c, 0x05, 0x05, 0x2d, 0xfc, 0xef, 0x00, 0x0a,
  0xee, 0x01, 0xeb, 0xd8, 0x05, 0x0f, 0x12, 0xec, 0xc7, 0xff, 0x20, 0x2b,
  0x0f, 0x19, 0xfc, 0xf8, 0xbb, 0x07, 0xfb, 0xf0, 0x0b, 0xff, 0xfb, 0xf1,
  0xfb, 0x00, 0x13, 0x08, 0x0f, 0xf5, 0xfe, 0x16, 0xf5, 0x04, 0x08, 0x0a,
  0xff, 0x04, 0x15, 0x16, 0xef, 0x12, 0x0e, 0x05, 0xf9, 0x2b, 0x07, 0xee,
  0x01, 0xe6, 0x08, 0xf8, 0x18, 0xef, 0xef, 0xfa, 0x0e, 0xec, 0xf5, 0x15,
  0xfd, 0xee, 0xf1, 0xf1, 0xef, 0xe8, 0xfe, 0x05, 0x13, 0xf7, 0xf8, 0xfb,
  0x0d, 0xfa, 0x09, 0xfc, 0xf9, 0xe6, 0xf0, 0xe2, 0xe9, 0xfa, 0x01, 0x0e,
  0x14, 0x15, 0xf9, 0xd8, 0x27, 0xfb, 0x02, 0xea, 0x07, 0xea, 0xe1, 0x1a,
  0x0c, 0x11, 0x1c, 0xfb, 0x05, 0x02, 0xf6, 0xff, 0x04, 0x0b, 0xf6, 0xda,
  0xfc, 0xf1, 0xf7, 0xd6, 0x37, 0xfe, 0x0c, 0x03, 0x30, 0x0c, 0x11, 0xdf,
  0x0e, 0x09, 0x0e, 0x0b, 0x11, 0x25, 0x17, 0xe0, 0x40, 0xf4, 0x04, 0x0e,
  0x6a, 0xf2, 0xf4, 0x08, 0xf3, 0x19, 0x14, 0x09, 0x0a, 0x01, 0x09, 0xff,
  0x0e, 0x14, 0xf4, 0x09, 0x0c, 0x18, 0xff, 0xc3, 0xd5, 0x07, 0xfa, 0xfd,
  0xf5, 0xec, 0xff, 0xf2, 0x51, 0x02, 0x00, 0x06, 0x35, 0xe5, 0xe5, 0x1a,
  0xf6, 0xf5, 0x14, 0x01, 0xf1, 0xef, 0xe8, 0xfa, 0xec, 0xe6, 0xf7, 0xf1,
  0xd5, 0xe7, 0xf1, 0x06, 0xe8, 0xee, 0xf7, 0xf3, 0xb6, 0xf9, 0xff, 0xff,
  0x04, 0x00, 0x00, 0x00, 0x40, 0x00, 0x00, 0x00, 0x2e, 0x00, 0x00, 0x00,
  0xde, 0x00, 0x00, 0x00, 0x0b, 0x00, 0x00, 0x00, 0x88, 0xff, 0xff, 0xff,
  0x86, 0x00, 0x00, 0x00, 0xdd, 0x00, 0x00, 0x00, 0xe3, 0xff, 0xff, 0xff,
  0xb9, 0x00, 0x00, 0x00, 0xf2, 0x00, 0x00, 0x00, 0xc7, 0x00, 0x00, 0x00,
  0x3d, 0x00, 0x00, 0x00, 0xf2, 0x00, 0x00, 0x00, 0x97, 0x00, 0x00, 0x00,
  0x84, 0xff, 0xff, 0xff, 0xed, 0xff, 0xff, 0xff, 0x28, 0x00, 0x00, 0x00,
  0x02, 0xfa, 0xff, 0xff, 0x04, 0x00, 0x00, 0x00, 0x80, 0x00, 0x00, 0x00,
  0x57, 0xbb, 0x7f, 0x24, 0x37, 0x8c, 0xec, 0x83, 0x53, 0x08, 0x02, 0x81,
  0x7b, 0xca, 0xfc, 0xa0, 0xdb, 0x7e, 0x9d, 0xa6, 0x43, 0x7f, 0x24, 0x54,
  0x69, 0xb3, 0x9c, 0x81, 0x17, 0x25, 0x84, 0x71, 0x7f, 0x11, 0xbe, 0xec,
  0x2e, 0xee, 0xb7, 0x02, 0x73, 0x4c, 0x81, 0x44, 0xdf, 0xfe, 0x9d, 0xf1,
  0x69, 0x1d, 0x19, 0x7f, 0xcd, 0x63, 0xed, 0xc3, 0x89, 0xae, 0xd9, 0xbf,
  0x3f, 0x79, 0x81, 0x41, 0xaf, 0xd3, 0xc4, 0x45, 0x7f, 0x47, 0x96, 0xc5,
  0x6f, 0xb2, 0xa5, 0xb8, 0x81, 0x68, 0x7f, 0xa2, 0x9b, 0x81, 0x67, 0xe7,
  0xcf, 0x29, 0xdd, 0x58, 0xf5, 0x91, 0xf5, 0xc1, 0x13, 0x81, 0xe3, 0x50,
  0x15, 0xec, 0xce, 0x4d, 0x84, 0x7f, 0xe7, 0xb5, 0xcd, 0x49, 0x7a, 0x86,
  0x4f, 0xd3, 0x81, 0x5e, 0x1d, 0xa4, 0x8e, 0x43, 0x26, 0x17, 0x7f, 0x13,
  0x4e, 0x8d, 0x0a, 0xc8, 0x38, 0x2f, 0x7f, 0xfb, 0x8e, 0xfa, 0xff, 0xff,
  0x04, 0x00, 0x00, 0x00, 0x20, 0x00, 0x00, 0x00, 0xc5, 0x00, 0x00, 0x00,
  0x80, 0xff, 0xff, 0xff, 0x15, 0xff, 0xff, 0xff, 0x0f, 0x01, 0x00, 0x00,
  0x8f, 0x00, 0x00, 0x00, 0x5a, 0x00, 0x00, 0x00, 0x0e, 0x00, 0x00, 0x00,
  0xd4, 0xff, 0xff, 0xff, 0xba, 0xfa, 0xff, 0xff, 0x04, 0x00, 0x00, 0x00,
  0x20, 0x01, 0x00, 0x00, 0x15, 0x49, 0x26, 0x25, 0x05, 0xbc, 0xf6, 0xc1,
  0x3d, 0x27, 0xdf, 0xd4, 0xe9, 0x05, 0x45, 0x3c, 0xda, 0xf7, 0x0d, 0xb1,
  0x27, 0x27, 0xe8, 0xd6, 0x87, 0xeb, 0x09, 0x81, 0xc0, 0x86, 0x0a, 0xf3,
  0xc8, 0xa1, 0x1f, 0x4f, 0xcc, 0xc3, 0x5e, 0x15, 0xf9, 0x54, 0xe3, 0xf0,
  0x0c, 0xfb, 0x24, 0xda, 0x04, 0x83, 0xf0, 0xe3, 0xef, 0x24, 0xa7, 0xd8,
  0xe0, 0xe0, 0x7f, 0x37, 0xc7, 0xf1, 0xd9, 0x1b, 0xfd, 0x19, 0x10, 0xb9,
  0xfd, 0x57, 0x26, 0x3f, 0xd1, 0xee, 0xfe, 0x3d, 0x7f, 0x66, 0x23, 0x01,
  0x47, 0x01, 0x46, 0xd2, 0xc4, 0x1a, 0x1c, 0x1d, 0x1f, 0x4d, 0xc2, 0x11,
  0x1c, 0x40, 0x06, 0xc7, 0xa2, 0x05, 0x88, 0xbb, 0x14, 0x14, 0xc2, 0x36,
  0xfb, 0xe2, 0xf0, 0x27, 0xea, 0x39, 0x70, 0x49, 0x19, 0x3d, 0x48, 0x81,
  0xa8, 0xce, 0x4e, 0x46, 0x1e, 0xd7, 0xe5, 0xc5, 0x32, 0xdd, 0xf0, 0x1b,
  0xf1, 0xc5, 0x21, 0x37, 0x45, 0xeb, 0x21, 0xed, 0x3f, 0xa0, 0xbe, 0x07,
  0x41, 0xe5, 0xd5, 0xc2, 0x20, 0x55, 0x2a, 0xb2, 0x1a, 0xc1, 0x35, 0x00,
  0x23, 0x81, 0xe6, 0xcd, 0xf3, 0x43, 0x25, 0x09, 0xe7, 0xca, 0x0a, 0x3c,
  0x3b, 0xb0, 0x13, 0xd3, 0xc9, 0x1d, 0x15, 0xcb, 0x50, 0x09, 0xe2, 0xf5,
  0x03, 0x4f, 0xd5, 0x3f, 0xf0, 0x18, 0xf3, 0xed, 0x12, 0xca, 0xef, 0xfa,
  0x2e, 0x81, 0xe4, 0xc8, 0xea, 0x2e, 0x27, 0x0c, 0x46, 0x21, 0xdf, 0xb3,
  0xcd, 0xd7, 0x1d, 0xf8, 0xfb, 0x22, 0x22, 0xff, 0x3b, 0x37, 0xfa, 0xc3,
  0xd6, 0x84, 0x3d, 0x9f, 0x30, 0x01, 0x9d, 0x32, 0xb6, 0xee, 0xe6, 0xa2,
  0x26, 0x18, 0x1a, 0x08, 0xea, 0x56, 0x10, 0x03, 0x13, 0xbf, 0xcc, 0xdc,
  0xf6, 0x11, 0x2a, 0x54, 0xb3, 0x10, 0xd6, 0x0f, 0x22, 0x81, 0xf5, 0x2a,
  0x13, 0xff, 0x3a, 0x4b, 0x09, 0xae, 0xf5, 0x16, 0x59, 0xe3, 0x83, 0xd6,
  0x51, 0x16, 0xc6, 0x49, 0x08, 0x1e, 0x94, 0x1e, 0xee, 0x1a, 0x1f, 0xee,
  0x7f, 0x1b, 0xfe, 0xe2, 0x33, 0x4d, 0xbd, 0xfb, 0xb6, 0x3e, 0xdb, 0x7d,
  0xf2, 0x39, 0x21, 0xe5, 0xe6, 0xfb, 0xff, 0xff, 0x04, 0x00, 0x00, 0x00,
  0x10, 0x00, 0x00, 0x00, 0x42, 0x00, 0x00, 0x00, 0x9c, 0xff, 0xff, 0xff,
  0xf4, 0xff, 0xff, 0xff, 0xdb, 0xfe, 0xff, 0xff, 0x02, 0xfc, 0xff, 0xff,
  0x04, 0x00, 0x00, 0x00, 0x20, 0x01, 0x00, 0x00, 0x11, 0xc5, 0x14, 0xe9,
  0xfc, 0xaf, 0xd7, 0xb5, 0xfc, 0xe0, 0x39, 0xcf, 0xec, 0xe0, 0xe0, 0x0c,
  0xf4, 0xe7, 0xe8, 0xfb, 0xf4, 0xcc, 0x04, 0xd6, 0xff, 0xdd, 0x05, 0x34,
  0x0f, 0xe8, 0x46, 0xc0, 0xc9, 0x7f, 0x1b, 0x11, 0x06, 0xa8, 0xb7, 0xff,
  0x29, 0x11, 0x08, 0x06, 0x1c, 0xca, 0xfd, 0xf8, 0xe9, 0xf7, 0xf6, 0xf6,
  0x11, 0x20, 0xee, 0x31, 0xe0, 0x46, 0xf3, 0x22, 0xfa, 0xc5, 0xfb, 0xcf,
  0x32, 0xe2, 0xea, 0xf3, 0x30, 0x15, 0x37, 0xe6, 0x1a, 0x20, 0x01, 0x27,
  0x16, 0x8c, 0xee, 0xc3, 0x0f, 0x25, 0x12, 0x37, 0x26, 0x81, 0xec, 0x11,
  0x0f, 0xd4, 0x5c, 0xfa, 0x22, 0xa1, 0x08, 0xc1, 0x22, 0x07, 0x11, 0x44,
  0x29, 0xca, 0xe0, 0x1c, 0x23, 0xe4, 0x42, 0x2c, 0x2d, 0x98, 0xfc, 0xb7,
  0x2d, 0x2b, 0x3c, 0x0b, 0x38, 0xb9, 0x00, 0xe1, 0x26, 0xd6, 0x09, 0x17,
  0x25, 0xd5, 0x3f, 0xe2, 0x31, 0xe8, 0x3b, 0x2e, 0x2a, 0xb6, 0xda, 0x87,
  0x25, 0xfb, 0x32, 0x23, 0x1d, 0x0e, 0x25, 0xf9, 0x0c, 0x2e, 0x1e, 0xfa,
  0x1b, 0x39, 0x19, 0xf5, 0x16, 0xbf, 0xf5, 0x25, 0xee, 0xfa, 0x0e, 0x47,
  0x3b, 0xf7, 0xfc, 0xf8, 0x00, 0xf6, 0xd0, 0xcc, 0x1b, 0x35, 0x17, 0xdd,
  0x1d, 0x00, 0x7f, 0x39, 0x09, 0xfa, 0xf9, 0x2e, 0xf4, 0x5c, 0x57, 0x0c,
  0x22, 0xf8, 0x03, 0xdd, 0xee, 0xfc, 0x57, 0x4d, 0xf2, 0xbf, 0x15, 0x04,
  0xda, 0x3a, 0x37, 0x1c, 0xfe, 0x04, 0xf5, 0xe6, 0xf4, 0x51, 0x33, 0x20,
  0x23, 0xb9, 0x15, 0xf3, 0xed, 0x20, 0x29, 0x20, 0x88, 0x8f, 0x32, 0xdd,
  0x2e, 0x24, 0x14, 0x70, 0xd6, 0x96, 0x3a, 0xd7, 0xfa, 0xed, 0xe3, 0x2a,
  0x3e, 0x81, 0x62, 0xf6, 0x02, 0xe7, 0x08, 0x2b, 0xe9, 0xca, 0xf4, 0xa0,
  0x07, 0x9d, 0x3a, 0x45, 0x47, 0xe1, 0xec, 0xeb, 0xfc, 0x02, 0x0e, 0xc4,
  0x48, 0x33, 0x2f, 0x2d, 0x04, 0xfb, 0xce, 0x52, 0x43, 0x05, 0xaa, 0xf5,
  0xfd, 0x1f, 0x44, 0x23, 0x14, 0x9a, 0xc4, 0x5f, 0xca, 0x1d, 0xcf, 0x78,
  0x39, 0xcf, 0x02, 0xee, 0x2c, 0x00, 0xf7, 0x33, 0x2e, 0xfd, 0xff, 0xff,
  0x04, 0x00, 0x00, 0x00, 0x20, 0x00, 0x00, 0x00, 0x41, 0xfd, 0xff, 0xff,
  0xf5, 0xff, 0xff, 0xff, 0x19, 0xff, 0xff, 0xff, 0x11, 0xff, 0xff, 0xff,
  0x91, 0xfe, 0xff, 0xff, 0x0e, 0x01, 0x00, 0x00, 0x01, 0x00, 0x00, 0x00,
  0xc2, 0xff, 0xff, 0xff, 0x5a, 0xfd, 0xff, 0xff, 0x04, 0x00, 0x00, 0x00,
  0x90, 0x01, 0x00, 0x00, 0xf6, 0xfa, 0x81, 0x29, 0x50, 0x71, 0x2a, 0x16,
  0x35, 0xf1, 0x9d, 0x05, 0x81, 0x5e, 0x6f, 0x42, 0x05, 0x99, 0x34, 0xe0,
  0x8f, 0xce, 0x12, 0x0c, 0xf5, 0x43, 0x84, 0x0e, 0xd8, 0xfb, 0xe5, 0xfe,
  0xd2, 0x20, 0xb5, 0x20, 0x1d, 0x48, 0x76, 0x04, 0x06, 0x4a, 0x00, 0xc2,
  0xdd, 0x3e, 0x1a, 0x5d, 0x27, 0xaf, 0xeb, 0xe1, 0x01, 0xe2, 0xc7, 0x28,
  0xa8, 0xa9, 0xc3, 0x07, 0xe3, 0x39, 0xdc, 0x0f, 0x31, 0x0d, 0xe1, 0x81,
  0x16, 0xe1, 0xf7, 0x0b, 0x0a, 0xf7, 0x00, 0xe2, 0x0a, 0xf5, 0xed, 0xf4,
  0xe8, 0xe7, 0x24, 0x09, 0x06, 0x06, 0x24, 0x13, 0xdb, 0x28, 0xfc, 0xf3,
  0x3b, 0x53, 0x15, 0xec, 0x26, 0xa5, 0x1e, 0xe0, 0xc5, 0xc9, 0xae, 0xd9,
  0xf8, 0xef, 0xf4, 0xef, 0xd4, 0xb2, 0xaa, 0x1c, 0xfa, 0xfd, 0x1d, 0x5a,
  0xf0, 0x52, 0x4a, 0xb2, 0xfa, 0x21, 0x77, 0x6f, 0xff, 0x27, 0x08, 0xf1,
  0xf1, 0x9c, 0x5c, 0x47, 0xc5, 0x33, 0x55, 0x34, 0x16, 0x02, 0xa1, 0xe7,
  0xb0, 0x29, 0xcd, 0xb3, 0x15, 0x39, 0x7f, 0xe1, 0xdf, 0x60, 0x81, 0xfb,
  0x16, 0x14, 0x14, 0x02, 0xee, 0x07, 0xed, 0xe8, 0x07, 0x29, 0x3f, 0xff,
  0x4f, 0xec, 0xfd, 0x09, 0x0e, 0x02, 0x22, 0x09, 0xe9, 0xbd, 0x0c, 0xe4,
  0x1c, 0x0f, 0xe8, 0x2f, 0x08, 0x07, 0x03, 0x1b, 0xf9, 0x12, 0x0e, 0x19,
  0x33, 0xc1, 0x14, 0x07, 0xf0, 0x3d, 0xf3, 0x06, 0x21, 0x1c, 0xf5, 0xe2,
  0xc8, 0x20, 0xe3, 0x0e, 0xdc, 0x0c, 0x9e, 0xd2, 0xf8, 0xee, 0x1b, 0xde,
  0x44, 0x61, 0xf9, 0x24, 0x7f, 0xfc, 0x32, 0x12, 0xda, 0x26, 0xd2, 0x5c,
  0x59, 0x63, 0xf3, 0x39, 0x33, 0xaf, 0x11, 0xc3, 0x19, 0x3a, 0x68, 0x0a,
  0x55, 0x08, 0xd1, 0x19, 0x42, 0x07, 0x15, 0x1c, 0x23, 0x11, 0x18, 0xea,
  0x12, 0x02, 0x0b, 0x18, 0x1d, 0x1a, 0x2f, 0x13, 0xf5, 0x0c, 0xd2, 0xee,
  0x04, 0x0d, 0xfa, 0x01, 0xf6, 0xe4, 0x0e, 0xeb, 0xf3, 0x1a, 0xf0, 0x04,
  0xea, 0xcb, 0x81, 0xf5, 0xff, 0xc2, 0x07, 0x09, 0x0f, 0xf8, 0xd1, 0xee,
  0xb6, 0x83, 0xde, 0xf2, 0x17, 0xfc, 0xfd, 0xd7, 0xd9, 0xd7, 0x02, 0xd2,
  0x30, 0xf1, 0x07, 0x1e, 0x2c, 0x57, 0xc4, 0x4f, 0x1f, 0x22, 0xff, 0x2b,
  0x7d, 0x4a, 0xc5, 0xc6, 0x2f, 0x3b, 0x06, 0xfe, 0xff, 0xc8, 0x57, 0x43,
  0xf5, 0x0f, 0x52, 0x03, 0x0f, 0x01, 0xd4, 0xf1, 0x18, 0x09, 0x2a, 0xac,
  0x85, 0xe4, 0xd7, 0xbc, 0x8a, 0xa7, 0xd7, 0x81, 0xc0, 0xca, 0x08, 0x43,
  0xbf, 0xdd, 0xea, 0xa8, 0x3a, 0xb0, 0xba, 0x2c, 0x15, 0xfa, 0x26, 0xf3,
  0xfc, 0x0c, 0x3c, 0xdb, 0xfb, 0xdb, 0xe8, 0xce, 0xe1, 0xd0, 0xef, 0x20,
  0xc9, 0x19, 0xbc, 0xc2, 0x98, 0x81, 0xee, 0xa7, 0x33, 0x15, 0x1b, 0xe9,
  0xd6, 0xc1, 0x17, 0x97, 0xaa, 0xfd, 0x00, 0x05, 0xef, 0xfb, 0x2d, 0xe6,
  0xe1, 0xc5, 0x03, 0x2d, 0x0c, 0xfa, 0x3d, 0x2a, 0xf6, 0xfe, 0xff, 0xff,
  0x04, 0x00, 0x00, 0x00, 0x08, 0x00, 0x00, 0x00, 0x87, 0xff, 0xff, 0xff,
  0xc9, 0xfe, 0xff, 0xff, 0x0a, 0xff, 0xff, 0xff, 0x04, 0x00, 0x00, 0x00,
  0x48, 0x00, 0x00, 0x00, 0x4a, 0x3d, 0x3b, 0xf3, 0x0b, 0xc5, 0x59, 0x8c,
  0xfc, 0x72, 0x00, 0xe3, 0xec, 0x3d, 0xb9, 0xd5, 0x9b, 0x0f, 0x30, 0xaa,
  0xba, 0xe2, 0x57, 0x0e, 0x0b, 0x1d, 0x44, 0xd5, 0x1e, 0x7f, 0x3c, 0x01,
  0x28, 0x06, 0x3e, 0x37, 0x43, 0x28, 0xe6, 0x61, 0x4e, 0x58, 0xf8, 0x46,
  0xd9, 0xf6, 0x65, 0xc3, 0x57, 0xb7, 0x5c, 0x4f, 0x1c, 0xe0, 0x7f, 0x02,
  0xde, 0x7e, 0x6c, 0x9c, 0x35, 0x97, 0x46, 0x03, 0xd3, 0xb1, 0x3a, 0xba,
  0x88, 0x33, 0x3b, 0xb0, 0x5e, 0xff, 0xff, 0xff, 0x04, 0x00, 0x00, 0x00,
  0x10, 0x00, 0x00, 0x00, 0xc6, 0xfc, 0xff, 0xff, 0xf3, 0xff, 0xff, 0xff,
  0x1e, 0x00, 0x00, 0x00, 0x80, 0xff, 0xff, 0xff, 0x7a, 0xff, 0xff, 0xff,
  0x04, 0x00, 0x00, 0x00, 0x48, 0x00, 0x00, 0x00, 0xc0, 0xcf, 0x34, 0x49,
  0xb1, 0x44, 0x4c, 0xd8, 0xa3, 0x4b, 0x65, 0xdf, 0x81, 0x3e, 0x60, 0x3a,
  0x5e, 0xf8, 0x67, 0x8f, 0xc9, 0xdd, 0xca, 0x86, 0x5e, 0xf6, 0xc4, 0x0a,
  0x1a, 0x8b, 0x81, 0xb1, 0x2c, 0x6d, 0x17, 0xec, 0x10, 0x0b, 0x21, 0xf7,
  0x05, 0xf2, 0xb1, 0x6b, 0xbc, 0xdb, 0x13, 0x81, 0x99, 0xc4, 0x8b, 0xeb,
  0xaa, 0x46, 0x9d, 0xe5, 0x05, 0xce, 0xb8, 0x15, 0x8f, 0xf4, 0x8c, 0x07,
  0x14, 0x7f, 0xa9, 0xff, 0xc9, 0x5a, 0xa3, 0x02, 0xce, 0xff, 0xff, 0xff,
  0x04, 0x00, 0x00, 0x00, 0x08, 0x00, 0x00, 0x00, 0x06, 0x00, 0x00, 0x00,
  0x57, 0xff, 0xff, 0xff, 0xe2, 0xff, 0xff, 0xff, 0x04, 0x00, 0x00, 0x00,
  0x12, 0x00, 0x00, 0x00, 0x42, 0x7f, 0xad, 0xc2, 0xbc, 0xf8, 0xd5, 0xf4,
  0x9d, 0x7f, 0x1c, 0xe5, 0x07, 0x08, 0xc5, 0x0b, 0xa9, 0x09, 0x06, 0x00,
  0x08, 0x00, 0x04, 0x00, 0x06, 0x00, 0x00, 0x00, 0x04, 0x00, 0x00, 0x00,
  0x08, 0x00, 0x00, 0x00, 0xff, 0xff, 0xff, 0xff, 0x00, 0x04, 0x00, 0x00,
  0x60, 0xe9, 0xff, 0xff, 0x64, 0xe9, 0xff, 0xff, 0x0f, 0x00, 0x00, 0x00,
  0x4d, 0x4c, 0x49, 0x52, 0x20, 0x43, 0x6f, 0x6e, 0x76, 0x65, 0x72, 0x74,
  0x65, 0x64, 0x2e, 0x00, 0x01, 0x00, 0x00, 0x00, 0x14, 0x00, 0x00, 0x00,
  0x00, 0x00, 0x0e, 0x00, 0x18, 0x00, 0x14, 0x00, 0x10, 0x00, 0x0c, 0x00,
  0x08, 0x00, 0x04, 0x00, 0x0e, 0x00, 0x00, 0x00, 0x14, 0x00, 0x00, 0x00,
  0x1c, 0x00, 0x00, 0x00, 0x98, 0x02, 0x00, 0x00, 0x9c, 0x02, 0x00, 0x00,
  0xa0, 0x02, 0x00, 0x00, 0x04, 0x00, 0x00, 0x00, 0x6d, 0x61, 0x69, 0x6e,
  0x00, 0x00, 0x00, 0x00, 0x0a, 0x00, 0x00, 0x00, 0x34, 0x02, 0x00, 0x00,
  0xe4, 0x01, 0x00, 0x00, 0xa4, 0x01, 0x00, 0x00, 0x64, 0x01, 0x00, 0x00,
  0x24, 0x01, 0x00, 0x00, 0xe4, 0x00, 0x00, 0x00, 0xa4, 0x00, 0x00, 0x00,
  0x7c, 0x00, 0x00, 0x00, 0x38, 0x00, 0x00, 0x00, 0x04, 0x00, 0x00, 0x00,
  0x9a, 0xff, 0xff, 0xff, 0x0c, 0x00, 0x00, 0x00, 0x10, 0x00, 0x00, 0x00,
  0x03, 0x00, 0x00, 0x00, 0x01, 0x00, 0x00, 0x00, 0x1b, 0x00, 0x00, 0x00,
  0x01, 0x00, 0x00, 0x00, 0x1a, 0x00, 0x00, 0x00, 0x00, 0x00, 0x0e, 0x00,
  0x18, 0x00, 0x14, 0x00, 0x10, 0x00, 0x0c, 0x00, 0x0b, 0x00, 0x04, 0x00,
  0x0e, 0x00, 0x00, 0x00, 0x14, 0x00, 0x00, 0x00, 0x00, 0x00, 0x00, 0x08,
  0x10, 0x00, 0x00, 0x00, 0x14, 0x00, 0x00, 0x00, 0x02, 0x00, 0x00, 0x00,
  0x2c, 0xea, 0xff, 0xff, 0x01, 0x00, 0x00, 0x00, 0x1a, 0x00, 0x00, 0x00,
  0x03, 0x00, 0x00, 0x00, 0x19, 0x00, 0x00, 0x00, 0x10, 0x00, 0x00, 0x00,
  0x11, 0x00, 0x00, 0x00, 0x00, 0x00, 0x0a, 0x00, 0x10, 0x00, 0x0c, 0x00,
  0x08, 0x00, 0x04, 0x00, 0x0a, 0x00, 0x00, 0x00, 0x0c, 0x00, 0x00, 0x00,
  0x10, 0x00, 0x00, 0x00, 0x01, 0x00, 0x00, 0x00, 0x01, 0x00, 0x00, 0x00,
  0x19, 0x00, 0x00, 0x00, 0x02, 0x00, 0x00, 0x00, 0x18, 0x00, 0x00, 0x00,
  0x01, 0x00, 0x00, 0x00, 0x96, 0xfe, 0xff, 0xff, 0x10, 0x00, 0x00, 0x00,
  0x00, 0x00, 0x00, 0x01, 0x18, 0x00, 0x00, 0x00, 0x1c, 0x00, 0x00, 0x00,
  0x88, 0xfe, 0xff, 0xff, 0x00, 0x00, 0x00, 0x01, 0x01, 0x00, 0x00, 0x00,
  0x01, 0x00, 0x00, 0x00, 0x01, 0x00, 0x00, 0x00, 0x18, 0x00, 0x00, 0x00,
  0x03, 0x00, 0x00, 0x00, 0x17, 0x00, 0x00, 0x00, 0x0e, 0x00, 0x00, 0x00,
  0x0f, 0x00, 0x00, 0x00, 0xd2, 0xfe, 0xff, 0xff, 0x10, 0x00, 0x00, 0x00,
  0x00, 0x00, 0x00, 0x01, 0x18, 0x00, 0x00, 0x00, 0x1c, 0x00, 0x00, 0x00,
  0xc4, 0xfe, 0xff, 0xff, 0x00, 0x00, 0x00, 0x01, 0x02, 0x00, 0x00, 0x00,
  0x02, 0x00, 0x00, 0x00, 0x01, 0x00, 0x00, 0x00, 0x17, 0x00, 0x00, 0x00,
  0x03, 0x00, 0x00, 0x00, 0x16, 0x00, 0x00, 0x00, 0x0c, 0x00, 0x00, 0x00,
  0x0d, 0x00, 0x00, 0x00, 0x0e, 0xff, 0xff, 0xff, 0x10, 0x00, 0x00, 0x00,
  0x00, 0x00, 0x00, 0x01, 0x18, 0x00, 0x00, 0x00, 0x1c, 0x00, 0x00, 0x00,
  0x00, 0xff, 0xff, 0xff, 0x00, 0x00, 0x00, 0x01, 0x02, 0x00, 0x00, 0x00,
  0x02, 0x00, 0x00, 0x00, 0x01, 0x00, 0x00, 0x00, 0x16, 0x00, 0x00, 0x00,
  0x03, 0x00, 0x00, 0x00, 0x15, 0x00, 0x00, 0x00, 0x0a, 0x00, 0x00, 0x00,
  0x0b, 0x00, 0x00, 0x00, 0x4a, 0xff, 0xff, 0xff, 0x10, 0x00, 0x00, 0x00,
  0x00, 0x00, 0x00, 0x01, 0x18, 0x00, 0x00, 0x00, 0x1c, 0x00, 0x00, 0x00,
  0x3c, 0xff, 0xff, 0xff, 0x00, 0x00, 0x00, 0x01, 0x01, 0x00, 0x00, 0x00,
  0x01, 0x00, 0x00, 0x00, 0x01, 0x00, 0x00, 0x00, 0x15, 0x00, 0x00, 0x00,
  0x03, 0x00, 0x00, 0x00, 0x14, 0x00, 0x00, 0x00, 0x08, 0x00, 0x00, 0x00,
  0x09, 0x00, 0x00, 0x00, 0x86, 0xff, 0xff, 0xff, 0x10, 0x00, 0x00, 0x00,
  0x00, 0x00, 0x00, 0x01, 0x18, 0x00, 0x00, 0x00, 0x1c, 0x00, 0x00, 0x00,
  0x78, 0xff, 0xff, 0xff, 0x00, 0x00, 0x00, 0x01, 0x02, 0x00, 0x00, 0x00,
  0x02, 0x00, 0x00, 0x00, 0x01, 0x00, 0x00, 0x00, 0x14, 0x00, 0x00, 0x00,
  0x03, 0x00, 0x00, 0x00, 0x13, 0x00, 0x00, 0x00, 0x06, 0x00, 0x00, 0x00,
  0x07, 0x00, 0x00, 0x00, 0xc2, 0xff, 0xff, 0xff, 0x10, 0x00, 0x00, 0x00,
  0x00, 0x00, 0x00, 0x01, 0x18, 0x00, 0x00, 0x00, 0x1c, 0x00, 0x00, 0x00,
  0xb4, 0xff, 0xff, 0xff, 0x00, 0x00, 0x00, 0x01, 0x01, 0x00, 0x00, 0x00,
  0x01, 0x00, 0x00, 0x00, 0x01, 0x00, 0x00, 0x00, 0x13, 0x00, 0x00, 0x00,
  0x03, 0x00, 0x00, 0x00, 0x12, 0x00, 0x00, 0x00, 0x04, 0x00, 0x00, 0x00,
  0x05, 0x00, 0x00, 0x00, 0x00, 0x00, 0x0e, 0x00, 0x14, 0x00, 0x00, 0x00,
  0x10, 0x00, 0x0c, 0x00, 0x0b, 0x00, 0x04, 0x00, 0x0e, 0x00, 0x00, 0x00,
  0x1c, 0x00, 0x00, 0x00, 0x00, 0x00, 0x00, 0x01, 0x24, 0x00, 0x00, 0x00,
  0x28, 0x00, 0x00, 0x00, 0x0c, 0x00, 0x10, 0x00, 0x00, 0x00, 0x0c, 0x00,
  0x08, 0x00, 0x07, 0x00, 0x0c, 0x00, 0x00, 0x00, 0x00, 0x00, 0x00, 0x01,
  0x02, 0x00, 0x00, 0x00, 0x02, 0x00, 0x00, 0x00, 0x01, 0x00, 0x00, 0x00,
  0x12, 0x00, 0x00, 0x00, 0x03, 0x00, 0x00, 0x00, 0x00, 0x00, 0x00, 0x00,
  0x02, 0x00, 0x00, 0x00, 0x03, 0x00, 0x00, 0x00, 0x01, 0x00, 0x00, 0x00,
  0x1b, 0x00, 0x00, 0x00, 0x01, 0x00, 0x00, 0x00, 0x00, 0x00, 0x00, 0x00,
  0x1c, 0x00, 0x00, 0x00, 0xfc, 0x13, 0x00, 0x00, 0x98, 0x13, 0x00, 0x00,
  0x08, 0x13, 0x00, 0x00, 0x84, 0x12, 0x00, 0x00, 0xe8, 0x11, 0x00, 0x00,
  0x4c, 0x11, 0x00, 0x00, 0xc8, 0x10, 0x00, 0x00, 0x44, 0x10, 0x00, 0x00,
  0x78, 0x0f, 0x00, 0x00, 0xac, 0x0e, 0x00, 0x00, 0x10, 0x0e, 0x00, 0x00,
  0x74, 0x0d, 0x00, 0x00, 0xa8, 0x0c, 0x00, 0x00, 0xdc, 0x0b, 0x00, 0x00,
  0xb0, 0x0a, 0x00, 0x00, 0x84, 0x09, 0x00, 0x00, 0x18, 0x09, 0x00, 0x00,
  0xa4, 0x08, 0x00, 0x00, 0x90, 0x07, 0x00, 0x00, 0x7c, 0x06, 0x00, 0x00,
  0x88, 0x05, 0x00, 0x00, 0x74, 0x04, 0x00, 0x00, 0x80, 0x03, 0x00, 0x00,
  0x8c, 0x02, 0x00, 0x00, 0x98, 0x01, 0x00, 0x00, 0x1c, 0x01, 0x00, 0x00,
  0x80, 0x00, 0x00, 0x00, 0x04, 0x00, 0x00, 0x00, 0x88, 0xec, 0xff, 0xff,
  0x18, 0x00, 0x00, 0x00, 0x20, 0x00, 0x00, 0x00, 0x40, 0x00, 0x00, 0x00,
  0x1c, 0x00, 0x00, 0x00, 0x00, 0x00, 0x00, 0x09, 0x54, 0x00, 0x00, 0x00,
  0x02, 0x00, 0x00, 0x00, 0xff, 0xff, 0xff, 0xff, 0x01, 0x00, 0x00, 0x00,
  0x6c, 0xec, 0xff, 0xff, 0x08, 0x00, 0x00, 0x00, 0x14, 0x00, 0x00, 0x00,
  0x01, 0x00, 0x00, 0x00, 0x80, 0xff, 0xff, 0xff, 0xff, 0xff, 0xff, 0xff,
  0x00, 0x00, 0x00, 0x00, 0x01, 0x00, 0x00, 0x00, 0x00, 0x00, 0x80, 0x3b,
  0x19, 0x00, 0x00, 0x00, 0x53, 0x74, 0x61, 0x74, 0x65, 0x66, 0x75, 0x6c,
  0x50, 0x61, 0x72, 0x74, 0x69, 0x74, 0x69, 0x6f, 0x6e, 0x65, 0x64, 0x43,
  0x61, 0x6c, 0x6c, 0x3a, 0x30, 0x00, 0x00, 0x00, 0x02, 0x00, 0x00, 0x00,
  0x01, 0x00, 0x00, 0x00, 0x01, 0x00, 0x00, 0x00, 0x00, 0xed, 0xff, 0xff,
  0x18, 0x00, 0x00, 0x00, 0x20, 0x00, 0x00, 0x00, 0x40, 0x00, 0x00, 0x00,
  0x1b, 0x00, 0x00, 0x00, 0x00, 0x00, 0x00, 0x09, 0x74, 0x00, 0x00, 0x00,
  0x02, 0x00, 0x00, 0x00, 0xff, 0xff, 0xff, 0xff, 0x01, 0x00, 0x00, 0x00,
  0xe4, 0xec, 0xff, 0xff, 0x08, 0x00, 0x00, 0x00, 0x14, 0x00, 0x00, 0x00,
  0x01, 0x00, 0x00, 0x00, 0xcb, 0xff, 0xff, 0xff, 0xff, 0xff, 0xff, 0xff,
  0x00, 0x00, 0x00, 0x00, 0x01, 0x00, 0x00, 0x00, 0x74, 0x01, 0x8b, 0x3e,
  0x38, 0x00, 0x00, 0x00, 0x73, 0x65, 0x71, 0x75, 0x65, 0x6e, 0x74, 0x69,
  0x61, 0x6c, 0x5f, 0x37, 0x2f, 0x64, 0x65, 0x6e, 0x73, 0x65, 0x5f, 0x37,
  0x2f, 0x4d, 0x61, 0x74, 0x4d, 0x75, 0x6c, 0x3b, 0x73, 0x65, 0x71, 0x75,
  0x65, 0x6e, 0x74, 0x69, 0x61, 0x6c, 0x5f, 0x37, 0x2f, 0x64, 0x65, 0x6e,
  0x73, 0x65, 0x5f, 0x37, 0x2f, 0x42, 0x69, 0x61, 0x73, 0x41, 0x64, 0x64,
  0x00, 0x00, 0x00, 0x00, 0x02, 0x00, 0x00, 0x00, 0x01, 0x00, 0x00, 0x00,
  0x01, 0x00, 0x00, 0x00, 0x98, 0xed, 0xff, 0xff, 0x18, 0x00, 0x00, 0x00,
  0x20, 0x00, 0x00, 0x00, 0x3c, 0x00, 0x00, 0x00, 0x1a, 0x00, 0x00, 0x00,
  0x00, 0x00, 0x00, 0x09, 0x54, 0x00, 0x00, 0x00, 0x02, 0x00, 0x00, 0x00,
  0xff, 0xff, 0xff, 0xff, 0x00, 0x04, 0x00, 0x00, 0x7c, 0xed, 0xff, 0xff,
  0x08, 0x00, 0x00, 0x00, 0x10, 0x00, 0x00, 0x00, 0x01, 0x00, 0x00, 0x00,
  0x80, 0xff, 0xff, 0xff, 0xff, 0xff, 0xff, 0xff, 0x01, 0x00, 0x00, 0x00,
  0x36, 0xa9, 0x4b, 0x3e, 0x1e, 0x00, 0x00, 0x00, 0x73, 0x65, 0x71, 0x75,
  0x65, 0x6e, 0x74, 0x69, 0x61, 0x6c, 0x5f, 0x37, 0x2f, 0x66, 0x6c, 0x61,
  0x74, 0x74, 0x65, 0x6e, 0x5f, 0x37, 0x2f, 0x52, 0x65, 0x73, 0x68, 0x61,
  0x70, 0x65, 0x00, 0x00, 0x02, 0x00, 0x00, 0x00, 0x01, 0x00, 0x00, 0x00,
  0x00, 0x04, 0x00, 0x00, 0x10, 0xee, 0xff, 0xff, 0x18, 0x00, 0x00, 0x00,
  0x28, 0x00, 0x00, 0x00, 0x44, 0x00, 0x00, 0x00, 0x19, 0x00, 0x00, 0x00,
  0x00, 0x00, 0x00, 0x09, 0xc4, 0x00, 0x00, 0x00, 0x04, 0x00, 0x00, 0x00,
  0xff, 0xff, 0xff, 0xff, 0x08, 0x00, 0x00, 0x00, 0x08, 0x00, 0x00, 0x00,
  0x10, 0x00, 0x00, 0x00, 0xfc, 0xed, 0xff, 0xff, 0x08, 0x00, 0x00, 0x00,
  0x10, 0x00, 0x00, 0x00, 0x01, 0x00, 0x00, 0x00, 0x80, 0xff, 0xff, 0xff,
  0xff, 0xff, 0xff, 0xff, 0x01, 0x00, 0x00, 0x00, 0x36, 0xa9, 0x4b, 0x3e,
  0x86, 0x00, 0x00, 0x00, 0x73, 0x65, 0x71, 0x75, 0x65, 0x6e, 0x74, 0x69,
  0x61, 0x6c, 0x5f, 0x37, 0x2f, 0x63, 0x6f, 0x6e, 0x76, 0x32, 0x64, 0x5f,
  0x35, 0x35, 0x2f, 0x52, 0x65, 0x6c, 0x75, 0x3b, 0x73, 0x65, 0x71, 0x75,
  0x65, 0x6e, 0x74, 0x69, 0x61, 0x6c, 0x5f, 0x37, 0x2f, 0x63, 0x6f, 0x6e,
  0x76, 0x32, 0x64, 0x5f, 0x35, 0x35, 0x2f, 0x42, 0x69, 0x61, 0x73, 0x41,
  0x64, 0x64, 0x3b, 0x73, 0x65, 0x71, 0x75, 0x65, 0x6e, 0x74, 0x69, 0x61,
  0x6c, 0x5f, 0x37, 0x2f, 0x63, 0x6f, 0x6e, 0x76, 0x32, 0x64, 0x5f, 0x35,
  0x35, 0x2f, 0x43, 0x6f, 0x6e, 0x76, 0x32, 0x44, 0x3b, 0x73, 0x65, 0x71,
  0x75, 0x65, 0x6e, 0x74, 0x69, 0x61, 0x6c, 0x5f, 0x37, 0x2f, 0x63, 0x6f,
  0x6e, 0x76, 0x32, 0x64, 0x5f, 0x35, 0x35, 0x2f, 0x42, 0x69, 0x61, 0x73,
  0x41, 0x64, 0x64, 0x2f, 0x52, 0x65, 0x61, 0x64, 0x56, 0x61, 0x72, 0x69,
  0x61, 0x62, 0x6c, 0x65, 0x4f, 0x70, 0x00, 0x00, 0x04, 0x00, 0x00, 0x00,
  0x01, 0x00, 0x00, 0x00, 0x08, 0x00, 0x00, 0x00, 0x08, 0x00, 0x00, 0x00,
  0x10, 0x00, 0x00, 0x00, 0x00, 0xef, 0xff, 0xff, 0x18, 0x00, 0x00, 0x00,
  0x28, 0x00, 0x00, 0x00, 0x44, 0x00, 0x00, 0x00, 0x18, 0x00, 0x00, 0x00,
  0x00, 0x00, 0x00, 0x09, 0xc4, 0x00, 0x00, 0x00, 0x04, 0x00, 0x00, 0x00,
  0xff, 0xff, 0xff, 0xff, 0x08, 0x00, 0x00, 0x00, 0x08, 0x00, 0x00, 0x00,
  0x08, 0x00, 0x00, 0x00, 0xec, 0xee, 0xff, 0xff, 0x08, 0x00, 0x00, 0x00,
  0x10, 0x00, 0x00, 0x00, 0x01, 0x00, 0x00, 0x00, 0x80, 0xff, 0xff, 0xff,
  0xff, 0xff, 0xff, 0xff, 0x01, 0x00, 0x00, 0x00, 0x45, 0xdc, 0x9a, 0x3e,
  0x86, 0x00, 0x00, 0x00, 0x73, 0x65, 0x71, 0x75, 0x65, 0x6e, 0x74, 0x69,
  0x61, 0x6c, 0x5f, 0x37, 0x2f, 0x63, 0x6f, 0x6e, 0x76, 0x32, 0x64, 0x5f,
  0x35, 0x34, 0x2f, 0x52, 0x65, 0x6c, 0x75, 0x3b, 0x73, 0x65, 0x71, 0x75,
  0x65, 0x6e, 0x74, 0x69, 0x61, 0x6c, 0x5f, 0x37, 0x2f, 0x63, 0x6f, 0x6e,
  0x76, 0x32, 0x64, 0x5f, 0x35, 0x34, 0x2f, 0x42, 0x69, 0x61, 0x73, 0x41,
  0x64, 0x64, 0x3b, 0x73, 0x65, 0x71, 0x75, 0x65, 0x6e, 0x74, 0x69, 0x61,
  0x6c, 0x5f, 0x37, 0x2f, 0x63, 0x6f, 0x6e, 0x76, 0x32, 0x64, 0x5f, 0x35,
  0x34, 0x2f, 0x43, 0x6f, 0x6e, 0x76, 0x32, 0x44, 0x3b, 0x73, 0x65, 0x71,
  0x75, 0x65, 0x6e, 0x74, 0x69, 0x61, 0x6c, 0x5f, 0x37, 0x2f, 0x63, 0x6f,
  0x6e, 0x76, 0x32, 0x64, 0x5f, 0x35, 0x34, 0x2f, 0x42, 0x69, 0x61, 0x73,
  0x41, 0x64, 0x64, 0x2f, 0x52, 0x65, 0x61, 0x64, 0x56, 0x61, 0x72, 0x69,
  0x61, 0x62, 0x6c, 0x65, 0x4f, 0x70, 0x00, 0x00, 0x04, 0x00, 0x00, 0x00,
  0x01, 0x00, 0x00, 0x00, 0x08, 0x00, 0x00, 0x00, 0x08, 0x00, 0x00, 0x00,
  0x08, 0x00, 0x00, 0x00, 0xf0, 0xef, 0xff, 0xff, 0x18, 0x00, 0x00, 0x00,
  0x28, 0x00, 0x00, 0x00, 0x44, 0x00, 0x00, 0x00, 0x17, 0x00, 0x00, 0x00,
  0x00, 0x00, 0x00, 0x09, 0xc4, 0x00, 0x00, 0x00, 0x04, 0x00, 0x00, 0x00,
  0xff, 0xff, 0xff, 0xff, 0x10, 0x00, 0x00, 0x00, 0x10, 0x00, 0x00, 0x00,
  0x04, 0x00, 0x00, 0x00, 0xdc, 0xef, 0xff, 0xff, 0x08, 0x00, 0x00, 0x00,
  0x10, 0x00, 0x00, 0x00, 0x01, 0x00, 0x00, 0x00, 0x80, 0xff, 0xff, 0xff,
  0xff, 0xff, 0xff, 0xff, 0x01, 0x00, 0x00, 0x00, 0x2e, 0x04, 0x07, 0x3f,
  0x86, 0x00, 0x00, 0x00, 0x73, 0x65, 0x71, 0x75, 0x65, 0x6e, 0x74, 0x69,
  0x61, 0x6c, 0x5f, 0x37, 0x2f, 0x63, 0x6f, 0x6e, 0x76, 0x32, 0x64, 0x5f,
  0x35, 0x33, 0x2f, 0x52, 0x65, 0x6c, 0x75, 0x3b, 0x73, 0x65, 0x71, 0x75,
  0x65, 0x6e, 0x74, 0x69, 0x61, 0x6c, 0x5f, 0x37, 0x2f, 0x63, 0x6f, 0x6e,
  0x76, 0x32, 0x64, 0x5f, 0x35, 0x33, 0x2f, 0x42, 0x69, 0x61, 0x73, 0x41,
  0x64, 0x64, 0x3b, 0x73, 0x65, 0x71, 0x75, 0x65, 0x6e, 0x74, 0x69, 0x61,
  0x6c, 0x5f, 0x37, 0x2f, 0x63, 0x6f, 0x6e, 0x76, 0x32, 0x64, 0x5f, 0x35,
  0x33, 0x2f, 0x43, 0x6f, 0x6e, 0x76, 0x32, 0x44, 0x3b, 0x73, 0x65, 0x71,
  0x75, 0x65, 0x6e, 0x74, 0x69, 0x61, 0x6c, 0x5f, 0x37, 0x2f, 0x63, 0x6f,
  0x6e, 0x76, 0x32, 0x64, 0x5f, 0x35, 0x33, 0x2f, 0x42, 0x69, 0x61, 0x73,
  0x41, 0x64, 0x64, 0x2f, 0x52, 0x65, 0x61, 0x64, 0x56, 0x61, 0x72, 0x69,
  0x61, 0x62, 0x6c, 0x65, 0x4f, 0x70, 0x00, 0x00, 0x04, 0x00, 0x00, 0x00,
  0x01, 0x00, 0x00, 0x00, 0x10, 0x00, 0x00, 0x00, 0x10, 0x00, 0x00, 0x00,
  0x04, 0x00, 0x00, 0x00, 0xe0, 0xf0, 0xff, 0xff, 0x18, 0x00, 0x00, 0x00,
  0x28, 0x00, 0x00, 0x00, 0x44, 0x00, 0x00, 0x00, 0x16, 0x00, 0x00, 0x00,
  0x00, 0x00, 0x00, 0x09, 0xe4, 0x00, 0x00, 0x00, 0x04, 0x00, 0x00, 0x00,
  0xff, 0xff, 0xff, 0xff, 0x20, 0x00, 0x00, 0x00, 0x20, 0x00, 0x00, 0x00,
  0x08, 0x00, 0x00, 0x00, 0xcc, 0xf0, 0xff, 0xff, 0x08, 0x00, 0x00, 0x00,
  0x10, 0x00, 0x00, 0x00, 0x01, 0x00, 0x00, 0x00, 0x80, 0xff, 0xff, 0xff,
  0xff, 0xff, 0xff, 0xff, 0x01, 0x00, 0x00, 0x00, 0xce, 0xed, 0x78, 0x3e,
  0xa4, 0x00, 0x00, 0x00, 0x73, 0x65, 0x71, 0x75, 0x65, 0x6e, 0x74, 0x69,
  0x61, 0x6c, 0x5f, 0x37, 0x2f, 0x63, 0x6f, 0x6e, 0x76, 0x32, 0x64, 0x5f,
  0x35, 0x32, 0x2f, 0x52, 0x65, 0x6c, 0x75, 0x3b, 0x73, 0x65, 0x71, 0x75,
  0x65, 0x6e, 0x74, 0x69, 0x61, 0x6c, 0x5f, 0x37, 0x2f, 0x63, 0x6f, 0x6e,
  0x76, 0x32, 0x64, 0x5f, 0x35, 0x32, 0x2f, 0x42, 0x69, 0x61, 0x73, 0x41,
  0x64, 0x64, 0x3b, 0x73, 0x65, 0x71, 0x75, 0x65, 0x6e, 0x74, 0x69, 0x61,
  0x6c, 0x5f, 0x37, 0x2f, 0x63, 0x6f, 0x6e, 0x76, 0x32, 0x64, 0x5f, 0x35,
  0x34, 0x2f, 0x43, 0x6f, 0x6e, 0x76, 0x32, 0x44, 0x3b, 0x73, 0x65, 0x71,
  0x75, 0x65, 0x6e, 0x74, 0x69, 0x61, 0x6c, 0x5f, 0x37, 0x2f, 0x63, 0x6f,
  0x6e, 0x76, 0x32, 0x64, 0x5f, 0x35, 0x32, 0x2f, 0x43, 0x6f, 0x6e, 0x76,
  0x32, 0x44, 0x3b, 0x73, 0x65, 0x71, 0x75, 0x65, 0x6e, 0x74, 0x69, 0x61,
  0x6c, 0x5f, 0x37, 0x2f, 0x63, 0x6f, 0x6e, 0x76, 0x32, 0x64, 0x5f, 0x35,
  0x32, 0x2f, 0x42, 0x69, 0x61, 0x73, 0x41, 0x64, 0x64, 0x2f, 0x52, 0x65,
  0x61, 0x64, 0x56, 0x61, 0x72, 0x69, 0x61, 0x62, 0x6c, 0x65, 0x4f, 0x70,
  0x00, 0x00, 0x00, 0x00, 0x04, 0x00, 0x00, 0x00, 0x01, 0x00, 0x00, 0x00,
  0x20, 0x00, 0x00, 0x00, 0x20, 0x00, 0x00, 0x00, 0x08, 0x00, 0x00, 0x00,
  0xf0, 0xf1, 0xff, 0xff, 0x18, 0x00, 0x00, 0x00, 0x28, 0x00, 0x00, 0x00,
  0x44, 0x00, 0x00, 0x00, 0x15, 0x00, 0x00, 0x00, 0x00, 0x00, 0x00, 0x09,
  0xc4, 0x00, 0x00, 0x00, 0x04, 0x00, 0x00, 0x00, 0xff, 0xff, 0xff, 0xff,
  0x20, 0x00, 0x00, 0x00, 0x20, 0x00, 0x00, 0x00, 0x02, 0x00, 0x00, 0x00,
  0xdc, 0xf1, 0xff, 0xff, 0x08, 0x00, 0x00, 0x00, 0x10, 0x00, 0x00, 0x00,
  0x01, 0x00, 0x00, 0x00, 0x80, 0xff, 0xff, 0xff, 0xff, 0xff, 0xff, 0xff,
  0x01, 0x00, 0x00, 0x00, 0xf6, 0xbf, 0xe5, 0x3e, 0x86, 0x00, 0x00, 0x00,
  0x73, 0x65, 0x71, 0x75, 0x65, 0x6e, 0x74, 0x69, 0x61, 0x6c, 0x5f, 0x37,
  0x2f, 0x63, 0x6f, 0x6e, 0x76, 0x32, 0x64, 0x5f, 0x35, 0x31, 0x2f, 0x52,
  0x65, 0x6c, 0x75, 0x3b, 0x73, 0x65, 0x71, 0x75, 0x65, 0x6e, 0x74, 0x69,
  0x61, 0x6c, 0x5f, 0x37, 0x2f, 0x63, 0x6f, 0x6e, 0x76, 0x32, 0x64, 0x5f,
  0x35, 0x31, 0x2f, 0x42, 0x69, 0x61, 0x73, 0x41, 0x64, 0x64, 0x3b, 0x73,
  0x65, 0x71, 0x75, 0x65, 0x6e, 0x74, 0x69, 0x61, 0x6c, 0x5f, 0x37, 0x2f,
  0x63, 0x6f, 0x6e, 0x76, 0x32, 0x64, 0x5f, 0x35, 0x31, 0x2f, 0x43, 0x6f,
  0x6e, 0x76, 0x32, 0x44, 0x3b, 0x73, 0x65, 0x71, 0x75, 0x65, 0x6e, 0x74,
  0x69, 0x61, 0x6c, 0x5f, 0x37, 0x2f, 0x63, 0x6f, 0x6e, 0x76, 0x32, 0x64,
  0x5f, 0x35, 0x31, 0x2f, 0x42, 0x69, 0x61, 0x73, 0x41, 0x64, 0x64, 0x2f,
  0x52, 0x65, 0x61, 0x64, 0x56, 0x61, 0x72, 0x69, 0x61, 0x62, 0x6c, 0x65,
  0x4f, 0x70, 0x00, 0x00, 0x04, 0x00, 0x00, 0x00, 0x01, 0x00, 0x00, 0x00,
  0x20, 0x00, 0x00, 0x00, 0x20, 0x00, 0x00, 0x00, 0x02, 0x00, 0x00, 0x00,
  0xe0, 0xf2, 0xff, 0xff, 0x18, 0x00, 0x00, 0x00, 0x28, 0x00, 0x00, 0x00,
  0x44, 0x00, 0x00, 0x00, 0x14, 0x00, 0x00, 0x00, 0x00, 0x00, 0x00, 0x09,
  0xe4, 0x00, 0x00, 0x00, 0x04, 0x00, 0x00, 0x00, 0xff, 0xff, 0xff, 0xff,
  0x40, 0x00, 0x00, 0x00, 0x40, 0x00, 0x00, 0x00, 0x04, 0x00, 0x00, 0x00,
  0xcc, 0xf2, 0xff, 0xff, 0x08, 0x00, 0x00, 0x00, 0x10, 0x00, 0x00, 0x00,
  0x01, 0x00, 0x00, 0x00, 0x80, 0xff, 0xff, 0xff, 0xff, 0xff, 0xff, 0xff,
  0x01, 0x00, 0x00, 0x00, 0x2d, 0xe3, 0xb5, 0x3e, 0xa4, 0x00, 0x00, 0x00,
  0x73, 0x65, 0x71, 0x75, 0x65, 0x6e, 0x74, 0x69, 0x61, 0x6c, 0x5f, 0x37,
  0x2f, 0x63, 0x6f, 0x6e, 0x76, 0x32, 0x64, 0x5f, 0x35, 0x30, 0x2f, 0x52,
  0x65, 0x6c, 0x75, 0x3b, 0x73, 0x65, 0x71, 0x75, 0x65, 0x6e, 0x74, 0x69,
  0x61, 0x6c, 0x5f, 0x37, 0x2f, 0x63, 0x6f, 0x6e, 0x76, 0x32, 0x64, 0x5f,
  0x35, 0x30, 0x2f, 0x42, 0x69, 0x61, 0x73, 0x41, 0x64, 0x64, 0x3b, 0x73,
  0x65, 0x71, 0x75, 0x65, 0x6e, 0x74, 0x69, 0x61, 0x6c, 0x5f, 0x37, 0x2f,
  0x63, 0x6f, 0x6e, 0x76, 0x32, 0x64, 0x5f, 0x35, 0x33, 0x2f, 0x43, 0x6f,
  0x6e, 0x76, 0x32, 0x44, 0x3b, 0x73, 0x65, 0x71, 0x75, 0x65, 0x6e, 0x74,
  0x69, 0x61, 0x6c, 0x5f, 0x37, 0x2f, 0x63, 0x6f, 0x6e, 0x76, 0x32, 0x64,
  0x5f, 0x35, 0x30, 0x2f, 0x43, 0x6f, 0x6e, 0x76, 0x32, 0x44, 0x3b, 0x73,
  0x65, 0x71, 0x75, 0x65, 0x6e, 0x74, 0x69, 0x61, 0x6c, 0x5f, 0x37, 0x2f,
  0x63, 0x6f, 0x6e, 0x76, 0x32, 0x64, 0x5f, 0x35, 0x30, 0x2f, 0x42, 0x69,
  0x61, 0x73, 0x41, 0x64, 0x64, 0x2f, 0x52, 0x65, 0x61, 0x64, 0x56, 0x61,
  0x72, 0x69, 0x61, 0x62, 0x6c, 0x65, 0x4f, 0x70, 0x00, 0x00, 0x00, 0x00,
  0x04, 0x00, 0x00, 0x00, 0x01, 0x00, 0x00, 0x00, 0x40, 0x00, 0x00, 0x00,
  0x40, 0x00, 0x00, 0x00, 0x04, 0x00, 0x00, 0x00, 0xf0, 0xf3, 0xff, 0xff,
  0x18, 0x00, 0x00, 0x00, 0x28, 0x00, 0x00, 0x00, 0x44, 0x00, 0x00, 0x00,
  0x13, 0x00, 0x00, 0x00, 0x00, 0x00, 0x00, 0x09, 0xe4, 0x00, 0x00, 0x00,
  0x04, 0x00, 0x00, 0x00, 0xff, 0xff, 0xff, 0xff, 0x40, 0x00, 0x00, 0x00,
  0x40, 0x00, 0x00, 0x00, 0x02, 0x00, 0x00, 0x00, 0xdc, 0xf3, 0xff, 0xff,
  0x08, 0x00, 0x00, 0x00, 0x10, 0x00, 0x00, 0x00, 0x01, 0x00, 0x00, 0x00,
  0x80, 0xff, 0xff, 0xff, 0xff, 0xff, 0xff, 0xff, 0x01, 0x00, 0x00, 0x00,
  0xd9, 0xca, 0x2d, 0x3f, 0xa4, 0x00, 0x00, 0x00, 0x73, 0x65, 0x71, 0x75,
  0x65, 0x6e, 0x74, 0x69, 0x61, 0x6c, 0x5f, 0x37, 0x2f, 0x63, 0x6f, 0x6e,
  0x76, 0x32, 0x64, 0x5f, 0x34, 0x39, 0x2f, 0x52, 0x65, 0x6c, 0x75, 0x3b,
  0x73, 0x65, 0x71, 0x75, 0x65, 0x6e, 0x74, 0x69, 0x61, 0x6c, 0x5f, 0x37,
  0x2f, 0x63, 0x6f, 0x6e, 0x76, 0x32, 0x64, 0x5f, 0x34, 0x39, 0x2f, 0x42,
  0x69, 0x61, 0x73, 0x41, 0x64, 0x64, 0x3b, 0x73, 0x65, 0x71, 0x75, 0x65,
  0x6e, 0x74, 0x69, 0x61, 0x6c, 0x5f, 0x37, 0x2f, 0x63, 0x6f, 0x6e, 0x76,
  0x32, 0x64, 0x5f, 0x35, 0x31, 0x2f, 0x43, 0x6f, 0x6e, 0x76, 0x32, 0x44,
  0x3b, 0x73, 0x65, 0x71, 0x75, 0x65, 0x6e, 0x74, 0x69, 0x61, 0x6c, 0x5f,
  0x37, 0x2f, 0x63, 0x6f, 0x6e, 0x76, 0x32, 0x64, 0x5f, 0x34, 0x39, 0x2f,
  0x43, 0x6f, 0x6e, 0x76, 0x32, 0x44, 0x3b, 0x73, 0x65, 0x71, 0x75, 0x65,
  0x6e, 0x74, 0x69, 0x61, 0x6c, 0x5f, 0x37, 0x2f, 0x63, 0x6f, 0x6e, 0x76,
  0x32, 0x64, 0x5f, 0x34, 0x39, 0x2f, 0x42, 0x69, 0x61, 0x73, 0x41, 0x64,
  0x64, 0x2f, 0x52, 0x65, 0x61, 0x64, 0x56, 0x61, 0x72, 0x69, 0x61, 0x62,
  0x6c, 0x65, 0x4f, 0x70, 0x00, 0x00, 0x00, 0x00, 0x04, 0x00, 0x00, 0x00,
  0x01, 0x00, 0x00, 0x00, 0x40, 0x00, 0x00, 0x00, 0x40, 0x00, 0x00, 0x00,
  0x02, 0x00, 0x00, 0x00, 0x5a, 0xf5, 0xff, 0xff, 0x14, 0x00, 0x00, 0x00,
  0x30, 0x00, 0x00, 0x00, 0x12, 0x00, 0x00, 0x00, 0x00, 0x00, 0x00, 0x02,
  0x54, 0x00, 0x00, 0x00, 0xd4, 0xf4, 0xff, 0xff, 0x08, 0x00, 0x00, 0x00,
  0x10, 0x00, 0x00, 0x00, 0x01, 0x00, 0x00, 0x00, 0x00, 0x00, 0x00, 0x00,
  0x00, 0x00, 0x00, 0x00, 0x01, 0x00, 0x00, 0x00, 0xac, 0x6f, 0x85, 0x3a,
  0x2b, 0x00, 0x00, 0x00, 0x73, 0x65, 0x71, 0x75, 0x65, 0x6e, 0x74, 0x69,
  0x61, 0x6c, 0x5f, 0x37, 0x2f, 0x64, 0x65, 0x6e, 0x73, 0x65, 0x5f, 0x37,
  0x2f, 0x42, 0x69, 0x61, 0x73, 0x41, 0x64, 0x64, 0x2f, 0x52, 0x65, 0x61,
  0x64, 0x56, 0x61, 0x72, 0x69, 0x61, 0x62, 0x6c, 0x65, 0x4f, 0x70, 0x00,
  0x01, 0x00, 0x00, 0x00, 0x01, 0x00, 0x00, 0x00, 0xca, 0xf5, 0xff, 0xff,
  0x14, 0x00, 0x00, 0x00, 0x34, 0x00, 0x00, 0x00, 0x11, 0x00, 0x00, 0x00,
  0x00, 0x00, 0x00, 0x09, 0x48, 0x00, 0x00, 0x00, 0x44, 0xf5, 0xff, 0xff,
  0x08, 0x00, 0x00, 0x00, 0x14, 0x00, 0x00, 0x00, 0x01, 0x00, 0x00, 0x00,
  0x00, 0x00, 0x00, 0x00, 0x00, 0x00, 0x00, 0x00, 0x00, 0x00, 0x00, 0x00,
  0x01, 0x00, 0x00, 0x00, 0x65, 0xba, 0xa7, 0x3b, 0x1b, 0x00, 0x00, 0x00,
  0x73, 0x65, 0x71, 0x75, 0x65, 0x6e, 0x74, 0x69, 0x61, 0x6c, 0x5f, 0x37,
  0x2f, 0x64, 0x65, 0x6e, 0x73, 0x65, 0x5f, 0x37, 0x2f, 0x4d, 0x61, 0x74,
  0x4d, 0x75, 0x6c, 0x00, 0x02, 0x00, 0x00, 0x00, 0x01, 0x00, 0x00, 0x00,
  0x00, 0x04, 0x00, 0x00, 0x32, 0xf6, 0xff, 0xff, 0x14, 0x00, 0x00, 0x00,
  0xe4, 0x00, 0x00, 0x00, 0x10, 0x00, 0x00, 0x00, 0x00, 0x00, 0x00, 0x02,
  0x0c, 0x01, 0x00, 0x00, 0xac, 0xf5, 0xff, 0xff, 0x08, 0x00, 0x00, 0x00,
  0x88, 0x00, 0x00, 0x00, 0x10, 0x00, 0x00, 0x00, 0x00, 0x00, 0x00, 0x00,
  0x00, 0x00, 0x00, 0x00, 0x00, 0x00, 0x00, 0x00, 0x00, 0x00, 0x00, 0x00,
  0x00, 0x00, 0x00, 0x00, 0x00, 0x00, 0x00, 0x00, 0x00, 0x00, 0x00, 0x00,
  0x00, 0x00, 0x00, 0x00, 0x00, 0x00, 0x00, 0x00, 0x00, 0x00, 0x00, 0x00,
  0x00, 0x00, 0x00, 0x00, 0x00, 0x00, 0x00, 0x00, 0x00, 0x00, 0x00, 0x00,
  0x00, 0x00, 0x00, 0x00, 0x00, 0x00, 0x00, 0x00, 0x00, 0x00, 0x00, 0x00,
  0x00, 0x00, 0x00, 0x00, 0x00, 0x00, 0x00, 0x00, 0x00, 0x00, 0x00, 0x00,
  0x00, 0x00, 0x00, 0x00, 0x00, 0x00, 0x00, 0x00, 0x00, 0x00, 0x00, 0x00,
  0x00, 0x00, 0x00, 0x00, 0x00, 0x00, 0x00, 0x00, 0x00, 0x00, 0x00, 0x00,
  0x00, 0x00, 0x00, 0x00, 0x00, 0x00, 0x00, 0x00, 0x00, 0x00, 0x00, 0x00,
  0x00, 0x00, 0x00, 0x00, 0x00, 0x00, 0x00, 0x00, 0x00, 0x00, 0x00, 0x00,
  0x00, 0x00, 0x00, 0x00, 0x10, 0x00, 0x00, 0x00, 0x9a, 0x20, 0x87, 0x3a,
  0x6e, 0xcf, 0x96, 0x3a, 0x8a, 0xb2, 0x90, 0x3a, 0x01, 0xa4, 0x92, 0x3a,
  0x95, 0xc1, 0xcd, 0x3a, 0x67, 0x2b, 0xb2, 0x3a, 0x60, 0x85, 0xa9, 0x3a,
  0x1c, 0x43, 0xc9, 0x3a, 0x02, 0x5c, 0xa3, 0x3a, 0x4b, 0x29, 0x8f, 0x3a,
  0xda, 0xa8, 0xac, 0x3a, 0xf6, 0xaa, 0xd6, 0x3a, 0xef, 0x79, 0x95, 0x3a,
  0xe4, 0xa2, 0x84, 0x3a, 0x4a, 0x64, 0xa5, 0x3a, 0x0e, 0xc3, 0x97, 0x3a,
  0x2d, 0x00, 0x00, 0x00, 0x73, 0x65, 0x71, 0x75, 0x65, 0x6e, 0x74, 0x69,
  0x61, 0x6c, 0x5f, 0x37, 0x2f, 0x63, 0x6f, 0x6e, 0x76, 0x32, 0x64, 0x5f,
  0x35, 0x35, 0x2f, 0x42, 0x69, 0x61, 0x73, 0x41, 0x64, 0x64, 0x2f, 0x52,
  0x65, 0x61, 0x64, 0x56, 0x61, 0x72, 0x69, 0x61, 0x62, 0x6c, 0x65, 0x4f,
  0x70, 0x00, 0x00, 0x00, 0x01, 0x00, 0x00, 0x00, 0x10, 0x00, 0x00, 0x00,
  0x5a, 0xf7, 0xff, 0xff, 0x14, 0x00, 0x00, 0x00, 0xe8, 0x00, 0x00, 0x00,
  0x0f, 0x00, 0x00, 0x00, 0x00, 0x00, 0x00, 0x09, 0x00, 0x01, 0x00, 0x00,
  0xd4, 0xf6, 0xff, 0xff, 0x08, 0x00, 0x00, 0x00, 0x8c, 0x00, 0x00, 0x00,
  0x10, 0x00, 0x00, 0x00, 0x00, 0x00, 0x00, 0x00, 0x00, 0x00, 0x00, 0x00,
  0x00, 0x00, 0x00, 0x00, 0x00, 0x00, 0x00, 0x00, 0x00, 0x00, 0x00, 0x00,
  0x00, 0x00, 0x00, 0x00, 0x00, 0x00, 0x00, 0x00, 0x00, 0x00, 0x00, 0x00,
  0x00, 0x00, 0x00, 0x00, 0x00, 0x00, 0x00, 0x00, 0x00, 0x00, 0x00, 0x00,
  0x00, 0x00, 0x00, 0x00, 0x00, 0x00, 0x00, 0x00, 0x00, 0x00, 0x00, 0x00,
  0x00, 0x00, 0x00, 0x00, 0x00, 0x00, 0x00, 0x00, 0x00, 0x00, 0x00, 0x00,
  0x00, 0x00, 0x00, 0x00, 0x00, 0x00, 0x00, 0x00, 0x00, 0x00, 0x00, 0x00,
  0x00, 0x00, 0x00, 0x00, 0x00, 0x00, 0x00, 0x00, 0x00, 0x00, 0x00, 0x00,
  0x00, 0x00, 0x00, 0x00, 0x00, 0x00, 0x00, 0x00, 0x00, 0x00, 0x00, 0x00,
  0x00, 0x00, 0x00, 0x00, 0x00, 0x00, 0x00, 0x00, 0x00, 0x00, 0x00, 0x00,
  0x00, 0x00, 0x00, 0x00, 0x00, 0x00, 0x00, 0x00, 0x00, 0x00, 0x00, 0x00,
  0x00, 0x00, 0x00, 0x00, 0x10, 0x00, 0x00, 0x00, 0x14, 0x61, 0x5f, 0x3b,
  0xff, 0x4d, 0x79, 0x3b, 0x13, 0x33, 0x6f, 0x3b, 0x70, 0x69, 0x72, 0x3b,
  0x63, 0x11, 0xaa, 0x3b, 0x23, 0x44, 0x93, 0x3b, 0x22, 0x1e, 0x8c, 0x3b,
  0x77, 0x5a, 0xa6, 0x3b, 0x5c, 0x06, 0x87, 0x3b, 0x00, 0xa9, 0x6c, 0x3b,
  0x3f, 0xb6, 0x8e, 0x3b, 0x10, 0x6f, 0xb1, 0x3b, 0x79, 0x19, 0x77, 0x3b,
  0xe1, 0x42, 0x5b, 0x3b, 0x66, 0xb4, 0x88, 0x3b, 0xbc, 0xe0, 0x7a, 0x3b,
  0x1d, 0x00, 0x00, 0x00, 0x73, 0x65, 0x71, 0x75, 0x65, 0x6e, 0x74, 0x69,
  0x61, 0x6c, 0x5f, 0x37, 0x2f, 0x63, 0x6f, 0x6e, 0x76, 0x32, 0x64, 0x5f,
  0x35, 0x35, 0x2f, 0x43, 0x6f, 0x6e, 0x76, 0x32, 0x44, 0x00, 0x00, 0x00,
  0x04, 0x00, 0x00, 0x00, 0x10, 0x00, 0x00, 0x00, 0x01, 0x00, 0x00, 0x00,
  0x01, 0x00, 0x00, 0x00, 0x08, 0x00, 0x00, 0x00, 0x82, 0xf8, 0xff, 0xff,
  0x14, 0x00, 0x00, 0x00, 0x84, 0x00, 0x00, 0x00, 0x0e, 0x00, 0x00, 0x00,
  0x00, 0x00, 0x00, 0x02, 0xac, 0x00, 0x00, 0x00, 0xfc, 0xf7, 0xff, 0xff,
  0x08, 0x00, 0x00, 0x00, 0x48, 0x00, 0x00, 0x00, 0x08, 0x00, 0x00, 0x00,
  0x00, 0x00, 0x00, 0x00, 0x00, 0x00, 0x00, 0x00, 0x00, 0x00, 0x00, 0x00,
  0x00, 0x00, 0x00, 0x00, 0x00, 0x00, 0x00, 0x00, 0x00, 0x00, 0x00, 0x00,
  0x00, 0x00, 0x00, 0x00, 0x00, 0x00, 0x00, 0x00, 0x00, 0x00, 0x00, 0x00,
  0x00, 0x00, 0x00, 0x00, 0x00, 0x00, 0x00, 0x00, 0x00, 0x00, 0x00, 0x00,
  0x00, 0x00, 0x00, 0x00, 0x00, 0x00, 0x00, 0x00, 0x00, 0x00, 0x00, 0x00,
  0x00, 0x00, 0x00, 0x00, 0x08, 0x00, 0x00, 0x00, 0xbc, 0x98, 0xcb, 0x3a,
  0x3f, 0xc9, 0xc8, 0x3a, 0x19, 0x37, 0xbc, 0x3a, 0x59, 0xb0, 0xda, 0x3a,
  0x60, 0x82, 0xb9, 0x3a, 0xd5, 0x00, 0xf6, 0x3a, 0x36, 0x0c, 0xf6, 0x3a,
  0x9f, 0xb8, 0xab, 0x3a, 0x2d, 0x00, 0x00, 0x00, 0x73, 0x65, 0x71, 0x75,
  0x65, 0x6e, 0x74, 0x69, 0x61, 0x6c, 0x5f, 0x37, 0x2f, 0x63, 0x6f, 0x6e,
  0x76, 0x32, 0x64, 0x5f, 0x35, 0x34, 0x2f, 0x42, 0x69, 0x61, 0x73, 0x41,
  0x64, 0x64, 0x2f, 0x52, 0x65, 0x61, 0x64, 0x56, 0x61, 0x72, 0x69, 0x61,
  0x62, 0x6c, 0x65, 0x4f, 0x70, 0x00, 0x00, 0x00, 0x01, 0x00, 0x00, 0x00,
  0x08, 0x00, 0x00, 0x00, 0x4a, 0xf9, 0xff, 0xff, 0x14, 0x00, 0x00, 0x00,
  0x88, 0x00, 0x00, 0x00, 0x0d, 0x00, 0x00, 0x00, 0x00, 0x00, 0x00, 0x09,
  0xa0, 0x00, 0x00, 0x00, 0xc4, 0xf8, 0xff, 0xff, 0x08, 0x00, 0x00, 0x00,
  0x4c, 0x00, 0x00, 0x00, 0x08, 0x00, 0x00, 0x00, 0x00, 0x00, 0x00, 0x00,
  0x00, 0x00, 0x00, 0x00, 0x00, 0x00, 0x00, 0x00, 0x00, 0x00, 0x00, 0x00,
  0x00, 0x00, 0x00, 0x00, 0x00, 0x00, 0x00, 0x00, 0x00, 0x00, 0x00, 0x00,
  0x00, 0x00, 0x00, 0x00, 0x00, 0x00, 0x00, 0x00, 0x00, 0x00, 0x00, 0x00,
  0x00, 0x00, 0x00, 0x00, 0x00, 0x00, 0x00, 0x00, 0x00, 0x00, 0x00, 0x00,
  0x00, 0x00, 0x00, 0x00, 0x00, 0x00, 0x00, 0x00, 0x00, 0x00, 0x00, 0x00,
  0x00, 0x00, 0x00, 0x00, 0x08, 0x00, 0x00, 0x00, 0x34, 0x04, 0x41, 0x3b,
  0x1a, 0x5a, 0x3e, 0x3b, 0x31, 0x6f, 0x32, 0x3b, 0x09, 0x53, 0x4f, 0x3b,
  0x77, 0xde, 0x2f, 0x3b, 0x25, 0x38, 0x69, 0x3b, 0xef, 0x42, 0x69, 0x3b,
  0x24, 0xcc, 0x22, 0x3b, 0x1d, 0x00, 0x00, 0x00, 0x73, 0x65, 0x71, 0x75,
  0x65, 0x6e, 0x74, 0x69, 0x61, 0x6c, 0x5f, 0x37, 0x2f, 0x63, 0x6f, 0x6e,
  0x76, 0x32, 0x64, 0x5f, 0x35, 0x34, 0x2f, 0x43, 0x6f, 0x6e, 0x76, 0x32,
  0x44, 0x00, 0x00, 0x00, 0x04, 0x00, 0x00, 0x00, 0x08, 0x00, 0x00, 0x00,
  0x03, 0x00, 0x00, 0x00, 0x03, 0x00, 0x00, 0x00, 0x04, 0x00, 0x00, 0x00,
  0x12, 0xfa, 0xff, 0xff, 0x14, 0x00, 0x00, 0x00, 0x54, 0x00, 0x00, 0x00,
  0x0c, 0x00, 0x00, 0x00, 0x00, 0x00, 0x00, 0x02, 0x7c, 0x00, 0x00, 0x00,
  0x8c, 0xf9, 0xff, 0xff, 0x08, 0x00, 0x00, 0x00, 0x28, 0x00, 0x00, 0x00,
  0x04, 0x00, 0x00, 0x00, 0x00, 0x00, 0x00, 0x00, 0x00, 0x00, 0x00, 0x00,
  0x00, 0x00, 0x00, 0x00, 0x00, 0x00, 0x00, 0x00, 0x00, 0x00, 0x00, 0x00,
  0x00, 0x00, 0x00, 0x00, 0x00, 0x00, 0x00, 0x00, 0x00, 0x00, 0x00, 0x00,
  0x04, 0x00, 0x00, 0x00, 0x1b, 0xdc, 0x89, 0x3a, 0x75, 0x08, 0x85, 0x3a,
  0x17, 0x9c, 0x80, 0x3a, 0x80, 0x46, 0x32, 0x3a, 0x2d, 0x00, 0x00, 0x00,
  0x73, 0x65, 0x71, 0x75, 0x65, 0x6e, 0x74, 0x69, 0x61, 0x6c, 0x5f, 0x37,
  0x2f, 0x63, 0x6f, 0x6e, 0x76, 0x32, 0x64, 0x5f, 0x35, 0x33, 0x2f, 0x42,
  0x69, 0x61, 0x73, 0x41, 0x64, 0x64, 0x2f, 0x52, 0x65, 0x61, 0x64, 0x56,
  0x61, 0x72, 0x69, 0x61, 0x62, 0x6c, 0x65, 0x4f, 0x70, 0x00, 0x00, 0x00,
  0x01, 0x00, 0x00, 0x00, 0x04, 0x00, 0x00, 0x00, 0xaa, 0xfa, 0xff, 0xff,
  0x14, 0x00, 0x00, 0x00, 0x58, 0x00, 0x00, 0x00, 0x0b, 0x00, 0x00, 0x00,
  0x00, 0x00, 0x00, 0x09, 0x70, 0x00, 0x00, 0x00, 0x24, 0xfa, 0xff, 0xff,
  0x08, 0x00, 0x00, 0x00, 0x2c, 0x00, 0x00, 0x00, 0x04, 0x00, 0x00, 0x00,
  0x00, 0x00, 0x00, 0x00, 0x00, 0x00, 0x00, 0x00, 0x00, 0x00, 0x00, 0x00,
  0x00, 0x00, 0x00, 0x00, 0x00, 0x00, 0x00, 0x00, 0x00, 0x00, 0x00, 0x00,
  0x00, 0x00, 0x00, 0x00, 0x00, 0x00, 0x00, 0x00, 0x00, 0x00, 0x00, 0x00,
  0x04, 0x00, 0x00, 0x00, 0x9d, 0xc6, 0x8d, 0x3b, 0xdd, 0xcf, 0x88, 0x3b,
  0x55, 0x43, 0x84, 0x3b, 0xe8, 0x56, 0x37, 0x3b, 0x1d, 0x00, 0x00, 0x00,
  0x73, 0x65, 0x71, 0x75, 0x65, 0x6e, 0x74, 0x69, 0x61, 0x6c, 0x5f, 0x37,
  0x2f, 0x63, 0x6f, 0x6e, 0x76, 0x32, 0x64, 0x5f, 0x35, 0x33, 0x2f, 0x43,
  0x6f, 0x6e, 0x76, 0x32, 0x44, 0x00, 0x00, 0x00, 0x04, 0x00, 0x00, 0x00,
  0x04, 0x00, 0x00, 0x00, 0x03, 0x00, 0x00, 0x00, 0x03, 0x00, 0x00, 0x00,
  0x08, 0x00, 0x00, 0x00, 0x42, 0xfb, 0xff, 0xff, 0x14, 0x00, 0x00, 0x00,
  0x84, 0x00, 0x00, 0x00, 0x0a, 0x00, 0x00, 0x00, 0x00, 0x00, 0x00, 0x02,
  0xac, 0x00, 0x00, 0x00, 0xbc, 0xfa, 0xff, 0xff, 0x08, 0x00, 0x00, 0x00,
  0x48, 0x00, 0x00, 0x00, 0x08, 0x00, 0x00, 0x00, 0x00, 0x00, 0x00, 0x00,
  0x00, 0x00, 0x00, 0x00, 0x00, 0x00, 0x00, 0x00, 0x00, 0x00, 0x00, 0x00,
  0x00, 0x00, 0x00, 0x00, 0x00, 0x00, 0x00, 0x00, 0x00, 0x00, 0x00, 0x00,
  0x00, 0x00, 0x00, 0x00, 0x00, 0x00, 0x00, 0x00, 0x00, 0x00, 0x00, 0x00,
  0x00, 0x00, 0x00, 0x00, 0x00, 0x00, 0x00, 0x00, 0x00, 0x00, 0x00, 0x00,
  0x00, 0x00, 0x00, 0x00, 0x00, 0x00, 0x00, 0x00, 0x00, 0x00, 0x00, 0x00,
  0x08, 0x00, 0x00, 0x00, 0xcd, 0x39, 0x53, 0x3a, 0x1b, 0x66, 0xd1, 0x3a,
  0x66, 0x68, 0x6b, 0x3a, 0x4a, 0x24, 0xc1, 0x3a, 0x37, 0x02, 0x56, 0x3a,
  0xbe, 0x61, 0x25, 0x3b, 0xb0, 0xe9, 0x94, 0x3a, 0xdf, 0xa4, 0x02, 0x3b,
  0x2d, 0x00, 0x00, 0x00, 0x73, 0x65, 0x71, 0x75, 0x65, 0x6e, 0x74, 0x69,
  0x61, 0x6c, 0x5f, 0x37, 0x2f, 0x63, 0x6f, 0x6e, 0x76, 0x32, 0x64, 0x5f,
  0x35, 0x32, 0x2f, 0x42, 0x69, 0x61, 0x73, 0x41, 0x64, 0x64, 0x2f, 0x52,
  0x65, 0x61, 0x64, 0x56, 0x61, 0x72, 0x69, 0x61, 0x62, 0x6c, 0x65, 0x4f,
  0x70, 0x00, 0x00, 0x00, 0x01, 0x00, 0x00, 0x00, 0x08, 0x00, 0x00, 0x00,
  0x0a, 0xfc, 0xff, 0xff, 0x14, 0x00, 0x00, 0x00, 0x88, 0x00, 0x00, 0x00,
  0x09, 0x00, 0x00, 0x00, 0x00, 0x00, 0x00, 0x09, 0xa0, 0x00, 0x00, 0x00,
  0x84, 0xfb, 0xff, 0xff, 0x08, 0x00, 0x00, 0x00, 0x4c, 0x00, 0x00, 0x00,
  0x08, 0x00, 0x00, 0x00, 0x00, 0x00, 0x00, 0x00, 0x00, 0x00, 0x00, 0x00,
  0x00, 0x00, 0x00, 0x00, 0x00, 0x00, 0x00, 0x00, 0x00, 0x00, 0x00, 0x00,
  0x00, 0x00, 0x00, 0x00, 0x00, 0x00, 0x00, 0x00, 0x00, 0x00, 0x00, 0x00,
  0x00, 0x00, 0x00, 0x00, 0x00, 0x00, 0x00, 0x00, 0x00, 0x00, 0x00, 0x00,
  0x00, 0x00, 0x00, 0x00, 0x00, 0x00, 0x00, 0x00, 0x00, 0x00, 0x00, 0x00,
  0x00, 0x00, 0x00, 0x00, 0x00, 0x00, 0x00, 0x00, 0x00, 0x00, 0x00, 0x00,
  0x08, 0x00, 0x00, 0x00, 0x06, 0x5c, 0xeb, 0x3a, 0xe4, 0x52, 0x69, 0x3b,
  0xf7, 0x26, 0x03, 0x3b, 0x90, 0x35, 0x57, 0x3b, 0xd5, 0x75, 0xee, 0x3a,
  0x0e, 0x47, 0xb8, 0x3b, 0x4b, 0xed, 0x25, 0x3b, 0x21, 0x92, 0x91, 0x3b,
  0x1d, 0x00, 0x00, 0x00, 0x73, 0x65, 0x71, 0x75, 0x65, 0x6e, 0x74, 0x69,
  0x61, 0x6c, 0x5f, 0x37, 0x2f, 0x63, 0x6f, 0x6e, 0x76, 0x32, 0x64, 0x5f,
  0x35, 0x32, 0x2f, 0x43, 0x6f, 0x6e, 0x76, 0x32, 0x44, 0x00, 0x00, 0x00,
  0x04, 0x00, 0x00, 0x00, 0x08, 0x00, 0x00, 0x00, 0x05, 0x00, 0x00, 0x00,
  0x05, 0x00, 0x00, 0x00, 0x02, 0x00, 0x00, 0x00, 0xd2, 0xfc, 0xff, 0xff,
  0x14, 0x00, 0x00, 0x00, 0x3c, 0x00, 0x00, 0x00, 0x08, 0x00, 0x00, 0x00,
  0x00, 0x00, 0x00, 0x02, 0x64, 0x00, 0x00, 0x00, 0x4c, 0xfc, 0xff, 0xff,
  0x08, 0x00, 0x00, 0x00, 0x18, 0x00, 0x00, 0x00, 0x02, 0x00, 0x00, 0x00,
  0x00, 0x00, 0x00, 0x00, 0x00, 0x00, 0x00, 0x00, 0x00, 0x00, 0x00, 0x00,
  0x00, 0x00, 0x00, 0x00, 0x02, 0x00, 0x00, 0x00, 0xbf, 0xdc, 0xd5, 0x3a,
  0xf4, 0x42, 0x87, 0x3a, 0x2d, 0x00, 0x00, 0x00, 0x73, 0x65, 0x71, 0x75,
  0x65, 0x6e, 0x74, 0x69, 0x61, 0x6c, 0x5f, 0x37, 0x2f, 0x63, 0x6f, 0x6e,
  0x76, 0x32, 0x64, 0x5f, 0x35, 0x31, 0x2f, 0x42, 0x69, 0x61, 0x73, 0x41,
  0x64, 0x64, 0x2f, 0x52, 0x65, 0x61, 0x64, 0x56, 0x61, 0x72, 0x69, 0x61,
  0x62, 0x6c, 0x65, 0x4f, 0x70, 0x00, 0x00, 0x00, 0x01, 0x00, 0x00, 0x00,
  0x02, 0x00, 0x00, 0x00, 0x52, 0xfd, 0xff, 0xff, 0x14, 0x00, 0x00, 0x00,
  0x40, 0x00, 0x00, 0x00, 0x07, 0x00, 0x00, 0x00, 0x00, 0x00, 0x00, 0x09,
  0x58, 0x00, 0x00, 0x00, 0xcc, 0xfc, 0xff, 0xff, 0x08, 0x00, 0x00, 0x00,
  0x1c, 0x00, 0x00, 0x00, 0x02, 0x00, 0x00, 0x00, 0x00, 0x00, 0x00, 0x00,
  0x00, 0x00, 0x00, 0x00, 0x00, 0x00, 0x00, 0x00, 0x00, 0x00, 0x00, 0x00,
  0x00, 0x00, 0x00, 0x00, 0x02, 0x00, 0x00, 0x00, 0x73, 0x80, 0x96, 0x3b,
  0x32, 0x60, 0x3e, 0x3b, 0x1d, 0x00, 0x00, 0x00, 0x73, 0x65, 0x71, 0x75,
  0x65, 0x6e, 0x74, 0x69, 0x61, 0x6c, 0x5f, 0x37, 0x2f, 0x63, 0x6f, 0x6e,
  0x76, 0x32, 0x64, 0x5f, 0x35, 0x31, 0x2f, 0x43, 0x6f, 0x6e, 0x76, 0x32,
  0x44, 0x00, 0x00, 0x00, 0x04, 0x00, 0x00, 0x00, 0x02, 0x00, 0x00, 0x00,
  0x03, 0x00, 0x00, 0x00, 0x03, 0x00, 0x00, 0x00, 0x04, 0x00, 0x00, 0x00,
  0xd2, 0xfd, 0xff, 0xff, 0x14, 0x00, 0x00, 0x00, 0x54, 0x00, 0x00, 0x00,
  0x06, 0x00, 0x00, 0x00, 0x00, 0x00, 0x00, 0x02, 0x7c, 0x00, 0x00, 0x00,
  0x4c, 0xfd, 0xff, 0xff, 0x08, 0x00, 0x00, 0x00, 0x28, 0x00, 0x00, 0x00,
  0x04, 0x00, 0x00, 0x00, 0x00, 0x00, 0x00, 0x00, 0x00, 0x00, 0x00, 0x00,
  0x00, 0x00, 0x00, 0x00, 0x00, 0x00, 0x00, 0x00, 0x00, 0x00, 0x00, 0x00,
  0x00, 0x00, 0x00, 0x00, 0x00, 0x00, 0x00, 0x00, 0x00, 0x00, 0x00, 0x00,
  0x04, 0x00, 0x00, 0x00, 0x30, 0x69, 0xe4, 0x3a, 0x39, 0x3a, 0x24, 0x3b,
  0x7d, 0xb3, 0x2c, 0x3b, 0x73, 0x1c, 0xfb, 0x3a, 0x2d, 0x00, 0x00, 0x00,
  0x73, 0x65, 0x71, 0x75, 0x65, 0x6e, 0x74, 0x69, 0x61, 0x6c, 0x5f, 0x37,
  0x2f, 0x63, 0x6f, 0x6e, 0x76, 0x32, 0x64, 0x5f, 0x35, 0x30, 0x2f, 0x42,
  0x69, 0x61, 0x73, 0x41, 0x64, 0x64, 0x2f, 0x52, 0x65, 0x61, 0x64, 0x56,
  0x61, 0x72, 0x69, 0x61, 0x62, 0x6c, 0x65, 0x4f, 0x70, 0x00, 0x00, 0x00,
  0x01, 0x00, 0x00, 0x00, 0x04, 0x00, 0x00, 0x00, 0x6a, 0xfe, 0xff, 0xff,
  0x14, 0x00, 0x00, 0x00, 0x58, 0x00, 0x00, 0x00, 0x05, 0x00, 0x00, 0x00,
  0x00, 0x00, 0x00, 0x09, 0x70, 0x00, 0x00, 0x00, 0xe4, 0xfd, 0xff, 0xff,
  0x08, 0x00, 0x00, 0x00, 0x2c, 0x00, 0x00, 0x00, 0x04, 0x00, 0x00, 0x00,
  0x00, 0x00, 0x00, 0x00, 0x00, 0x00, 0x00, 0x00, 0x00, 0x00, 0x00, 0x00,
  0x00, 0x00, 0x00, 0x00, 0x00, 0x00, 0x00, 0x00, 0x00, 0x00, 0x00, 0x00,
  0x00, 0x00, 0x00, 0x00, 0x00, 0x00, 0x00, 0x00, 0x00, 0x00, 0x00, 0x00,
  0x04, 0x00, 0x00, 0x00, 0x26, 0x3a, 0x28, 0x3b, 0x1f, 0xe9, 0x71, 0x3b,
  0x80, 0x64, 0x7e, 0x3b, 0x35, 0xf2, 0x38, 0x3b, 0x1d, 0x00, 0x00, 0x00,
  0x73, 0x65, 0x71, 0x75, 0x65, 0x6e, 0x74, 0x69, 0x61, 0x6c, 0x5f, 0x37,
  0x2f, 0x63, 0x6f, 0x6e, 0x76, 0x32, 0x64, 0x5f, 0x35, 0x30, 0x2f, 0x43,
  0x6f, 0x6e, 0x76, 0x32, 0x44, 0x00, 0x00, 0x00, 0x04, 0x00, 0x00, 0x00,
  0x04, 0x00, 0x00, 0x00, 0x03, 0x00, 0x00, 0x00, 0x03, 0x00, 0x00, 0x00,
  0x02, 0x00, 0x00, 0x00, 0x02, 0xff, 0xff, 0xff, 0x14, 0x00, 0x00, 0x00,
  0x3c, 0x00, 0x00, 0x00, 0x04, 0x00, 0x00, 0x00, 0x00, 0x00, 0x00, 0x02,
  0x64, 0x00, 0x00, 0x00, 0x7c, 0xfe, 0xff, 0xff, 0x08, 0x00, 0x00, 0x00,
  0x18, 0x00, 0x00, 0x00, 0x02, 0x00, 0x00, 0x00, 0x00, 0x00, 0x00, 0x00,
  0x00, 0x00, 0x00, 0x00, 0x00, 0x00, 0x00, 0x00, 0x00, 0x00, 0x00, 0x00,
  0x02, 0x00, 0x00, 0x00, 0xa7, 0x12, 0x8a, 0x3b, 0xf7, 0xd9, 0x82, 0x3b,
  0x2d, 0x00, 0x00, 0x00, 0x73, 0x65, 0x71, 0x75, 0x65, 0x6e, 0x74, 0x69,
  0x61, 0x6c, 0x5f, 0x37, 0x2f, 0x63, 0x6f, 0x6e, 0x76, 0x32, 0x64, 0x5f,
  0x34, 0x39, 0x2f, 0x42, 0x69, 0x61, 0x73, 0x41, 0x64, 0x64, 0x2f, 0x52,
  0x65, 0x61, 0x64, 0x56, 0x61, 0x72, 0x69, 0x61, 0x62, 0x6c, 0x65, 0x4f,
  0x70, 0x00, 0x00, 0x00, 0x01, 0x00, 0x00, 0x00, 0x02, 0x00, 0x00, 0x00,
  0x82, 0xff, 0xff, 0xff, 0x14, 0x00, 0x00, 0x00, 0x3c, 0x00, 0x00, 0x00,
  0x03, 0x00, 0x00, 0x00, 0x00, 0x00, 0x00, 0x09, 0x54, 0x00, 0x00, 0x00,
  0xfc, 0xfe, 0xff, 0xff, 0x08, 0x00, 0x00, 0x00, 0x18, 0x00, 0x00, 0x00,
  0x02, 0x00, 0x00, 0x00, 0x00, 0x00, 0x00, 0x00, 0x00, 0x00, 0x00, 0x00,
  0x00, 0x00, 0x00, 0x00, 0x00, 0x00, 0x00, 0x00, 0x02, 0x00, 0x00, 0x00,
  0xa7, 0x12, 0x8a, 0x3b, 0xf7, 0xd9, 0x82, 0x3b, 0x1d, 0x00, 0x00, 0x00,
  0x73, 0x65, 0x71, 0x75, 0x65, 0x6e, 0x74, 0x69, 0x61, 0x6c, 0x5f, 0x37,
  0x2f, 0x63, 0x6f, 0x6e, 0x76, 0x32, 0x64, 0x5f, 0x34, 0x39, 0x2f, 0x43,
  0x6f, 0x6e, 0x76, 0x32, 0x44, 0x00, 0x00, 0x00, 0x04, 0x00, 0x00, 0x00,
  0x02, 0x00, 0x00, 0x00, 0x03, 0x00, 0x00, 0x00, 0x03, 0x00, 0x00, 0x00,
  0x01, 0x00, 0x00, 0x00, 0x00, 0x00, 0x0e, 0x00, 0x18, 0x00, 0x14, 0x00,
  0x13, 0x00, 0x0c, 0x00, 0x08, 0x00, 0x04, 0x00, 0x0e, 0x00, 0x00, 0x00,
  0x18, 0x00, 0x00, 0x00, 0x18, 0x00, 0x00, 0x00, 0x02, 0x00, 0x00, 0x00,
  0x00, 0x00, 0x00, 0x02, 0x30, 0x00, 0x00, 0x00, 0x04, 0x00, 0x04, 0x00,
  0x04, 0x00, 0x00, 0x00, 0x1c, 0x00, 0x00, 0x00, 0x73, 0x65, 0x71, 0x75,
  0x65, 0x6e, 0x74, 0x69, 0x61, 0x6c, 0x5f, 0x37, 0x2f, 0x66, 0x6c, 0x61,
  0x74, 0x74, 0x65, 0x6e, 0x5f, 0x37, 0x2f, 0x43, 0x6f, 0x6e, 0x73, 0x74,
  0x00, 0x00, 0x00, 0x00, 0x01, 0x00, 0x00, 0x00, 0x02, 0x00, 0x00, 0x00,
  0x14, 0x00, 0x1c, 0x00, 0x18, 0x00, 0x17, 0x00, 0x10, 0x00, 0x0c, 0x00,
  0x08, 0x00, 0x00, 0x00, 0x00, 0x00, 0x04, 0x00, 0x14, 0x00, 0x00, 0x00,
  0x18, 0x00, 0x00, 0x00, 0x34, 0x00, 0x00, 0x00, 0x54, 0x00, 0x00, 0x00,
  0x01, 0x00, 0x00, 0x00, 0x00, 0x00, 0x00, 0x09, 0x70, 0x00, 0x00, 0x00,
  0x04, 0x00, 0x00, 0x00, 0xff, 0xff, 0xff, 0xff, 0x80, 0x00, 0x00, 0x00,
  0x80, 0x00, 0x00, 0x00, 0x01, 0x00, 0x00, 0x00, 0x0c, 0x00, 0x0c, 0x00,
  0x00, 0x00, 0x00, 0x00, 0x08, 0x00, 0x04, 0x00, 0x0c, 0x00, 0x00, 0x00,
  0x08, 0x00, 0x00, 0x00, 0x14, 0x00, 0x00, 0x00, 0x01, 0x00, 0x00, 0x00,
  0x80, 0xff, 0xff, 0xff, 0xff, 0xff, 0xff, 0xff, 0x00, 0x00, 0x00, 0x00,
  0x01, 0x00, 0x00, 0x00, 0x00, 0x00, 0x80, 0x3f, 0x21, 0x00, 0x00, 0x00,
  0x73, 0x65, 0x72, 0x76, 0x69, 0x6e, 0x67, 0x5f, 0x64, 0x65, 0x66, 0x61,
  0x75, 0x6c, 0x74, 0x5f, 0x63, 0x6f, 0x6e, 0x76, 0x32, 0x64, 0x5f, 0x34,
  0x39, 0x5f, 0x69, 0x6e, 0x70, 0x75, 0x74, 0x3a, 0x30, 0x00, 0x00, 0x00,
  0x04, 0x00, 0x00, 0x00, 0x01, 0x00, 0x00, 0x00, 0x80, 0x00, 0x00, 0x00,
  0x80, 0x00, 0x00, 0x00, 0x01, 0x00, 0x00, 0x00, 0x04, 0x00, 0x00, 0x00,
  0x54, 0x00, 0x00, 0x00, 0x38, 0x00, 0x00, 0x00, 0x18, 0x00, 0x00, 0x00,
  0x04, 0x00, 0x00, 0x00, 0xc8, 0xff, 0xff, 0xff, 0x0e, 0x00, 0x00, 0x00,
  0x02, 0x00, 0x00, 0x00, 0x00, 0x00, 0x00, 0x0e, 0xd8, 0xff, 0xff, 0xff,
  0x09, 0x00, 0x00, 0x00, 0x04, 0x00, 0x00, 0x00, 0x00, 0x00, 0x00, 0x09,
  0x0c, 0x00, 0x0c, 0x00, 0x0b, 0x00, 0x00, 0x00, 0x00, 0x00, 0x04, 0x00,
  0x0c, 0x00, 0x00, 0x00, 0x16, 0x00, 0x00, 0x00, 0x00, 0x00, 0x00, 0x16,
  0x0c, 0x00, 0x10, 0x00, 0x0f, 0x00, 0x00, 0x00, 0x08, 0x00, 0x04, 0x00,
  0x0c, 0x00, 0x00, 0x00, 0x03, 0x00, 0x00, 0x00, 0x03, 0x00, 0x00, 0x00,
  0x00, 0x00, 0x00, 0x03
};



const int g_model_len = 9376;
