
/* Copyright 2019 The TensorFlow Authors. All Rights Reserved.

Licensed under the Apache License, Version 2.0 (the "License");
you may not use this file except in compliance with the License.
You may obtain a copy of the License at

    http://www.apache.org/licenses/LICENSE-2.0

Unless required by applicable law or agreed to in writing, software
distributed under the License is distributed on an "AS IS" BASIS,
WITHOUT WARRANTIES OR CONDITIONS OF ANY KIND, either express or implied.
See the License for the specific language governing permissions and
limitations under the License.
==============================================================================*/

// This is a TensorFlow Lite model file that has been converted into a C data
// array using the tensorflow.lite.util.convert_bytes_to_c_source() function.
// This form is useful for compiling into a binary for devices that don't have a
// file system.

#include "model_data.h"

// Keep model aligned to 8 bytes to guarantee aligned 64-bit accesses.
// just switch between { }
// change model len far below too
alignas(8) const unsigned char g_person_detect_model_data[] = {
  0x1c, 0x00, 0x00, 0x00, 0x54, 0x46, 0x4c, 0x33, 0x14, 0x00, 0x20, 0x00,
  0x1c, 0x00, 0x18, 0x00, 0x14, 0x00, 0x10, 0x00, 0x0c, 0x00, 0x00, 0x00,
  0x08, 0x00, 0x04, 0x00, 0x14, 0x00, 0x00, 0x00, 0x1c, 0x00, 0x00, 0x00,
  0xa0, 0x00, 0x00, 0x00, 0xd0, 0x00, 0x00, 0x00, 0x48, 0x38, 0x00, 0x00,
  0x58, 0x38, 0x00, 0x00, 0x44, 0x59, 0x00, 0x00, 0x03, 0x00, 0x00, 0x00,
  0x01, 0x00, 0x00, 0x00, 0x04, 0x00, 0x00, 0x00, 0x50, 0xa7, 0xff, 0xff,
  0x10, 0x00, 0x00, 0x00, 0x18, 0x00, 0x00, 0x00, 0x28, 0x00, 0x00, 0x00,
  0x48, 0x00, 0x00, 0x00, 0x05, 0x00, 0x00, 0x00, 0x73, 0x65, 0x72, 0x76,
  0x65, 0x00, 0x00, 0x00, 0x0f, 0x00, 0x00, 0x00, 0x73, 0x65, 0x72, 0x76,
  0x69, 0x6e, 0x67, 0x5f, 0x64, 0x65, 0x66, 0x61, 0x75, 0x6c, 0x74, 0x00,
  0x01, 0x00, 0x00, 0x00, 0x04, 0x00, 0x00, 0x00, 0xb4, 0xff, 0xff, 0xff,
  0x1f, 0x00, 0x00, 0x00, 0x04, 0x00, 0x00, 0x00, 0x08, 0x00, 0x00, 0x00,
  0x64, 0x65, 0x6e, 0x73, 0x65, 0x5f, 0x31, 0x34, 0x00, 0x00, 0x00, 0x00,
  0x01, 0x00, 0x00, 0x00, 0x04, 0x00, 0x00, 0x00, 0x4e, 0xc8, 0xff, 0xff,
  0x04, 0x00, 0x00, 0x00, 0x10, 0x00, 0x00, 0x00, 0x63, 0x6f, 0x6e, 0x76,
  0x32, 0x64, 0x5f, 0x31, 0x32, 0x34, 0x5f, 0x69, 0x6e, 0x70, 0x75, 0x74,
  0x00, 0x00, 0x00, 0x00, 0x01, 0x00, 0x00, 0x00, 0x0c, 0x00, 0x00, 0x00,
  0x08, 0x00, 0x0c, 0x00, 0x08, 0x00, 0x04, 0x00, 0x08, 0x00, 0x00, 0x00,
  0x21, 0x00, 0x00, 0x00, 0x04, 0x00, 0x00, 0x00, 0x13, 0x00, 0x00, 0x00,
  0x6d, 0x69, 0x6e, 0x5f, 0x72, 0x75, 0x6e, 0x74, 0x69, 0x6d, 0x65, 0x5f,
  0x76, 0x65, 0x72, 0x73, 0x69, 0x6f, 0x6e, 0x00, 0x22, 0x00, 0x00, 0x00,
  0x74, 0x37, 0x00, 0x00, 0x6c, 0x37, 0x00, 0x00, 0x58, 0x37, 0x00, 0x00,
  0xc0, 0x36, 0x00, 0x00, 0x70, 0x36, 0x00, 0x00, 0xe0, 0x35, 0x00, 0x00,
  0x90, 0x35, 0x00, 0x00, 0x60, 0x35, 0x00, 0x00, 0x40, 0x35, 0x00, 0x00,
  0x28, 0x35, 0x00, 0x00, 0x10, 0x35, 0x00, 0x00, 0x00, 0x2d, 0x00, 0x00,
  0xdc, 0x2c, 0x00, 0x00, 0x84, 0x2c, 0x00, 0x00, 0x54, 0x2b, 0x00, 0x00,
  0xc4, 0x26, 0x00, 0x00, 0xb4, 0x14, 0x00, 0x00, 0xa4, 0x12, 0x00, 0x00,
  0x94, 0x00, 0x00, 0x00, 0x8c, 0x00, 0x00, 0x00, 0x84, 0x00, 0x00, 0x00,
  0x7c, 0x00, 0x00, 0x00, 0x74, 0x00, 0x00, 0x00, 0x6c, 0x00, 0x00, 0x00,
  0x64, 0x00, 0x00, 0x00, 0x5c, 0x00, 0x00, 0x00, 0x54, 0x00, 0x00, 0x00,
  0x4c, 0x00, 0x00, 0x00, 0x44, 0x00, 0x00, 0x00, 0x3c, 0x00, 0x00, 0x00,
  0x34, 0x00, 0x00, 0x00, 0x2c, 0x00, 0x00, 0x00, 0x24, 0x00, 0x00, 0x00,
  0x04, 0x00, 0x00, 0x00, 0x2e, 0xc9, 0xff, 0xff, 0x04, 0x00, 0x00, 0x00,
  0x10, 0x00, 0x00, 0x00, 0x31, 0x2e, 0x31, 0x34, 0x2e, 0x30, 0x00, 0x00,
  0x00, 0x00, 0x00, 0x00, 0x00, 0x00, 0x00, 0x00, 0xac, 0xb0, 0xff, 0xff,
  0xb0, 0xb0, 0xff, 0xff, 0xb4, 0xb0, 0xff, 0xff, 0xb8, 0xb0, 0xff, 0xff,
  0xbc, 0xb0, 0xff, 0xff, 0xc0, 0xb0, 0xff, 0xff, 0xc4, 0xb0, 0xff, 0xff,
  0xc8, 0xb0, 0xff, 0xff, 0xcc, 0xb0, 0xff, 0xff, 0xd0, 0xb0, 0xff, 0xff,
  0xd4, 0xb0, 0xff, 0xff, 0xd8, 0xb0, 0xff, 0xff, 0xdc, 0xb0, 0xff, 0xff,
  0xe0, 0xb0, 0xff, 0xff, 0x82, 0xc9, 0xff, 0xff, 0x04, 0x00, 0x00, 0x00,
  0x00, 0x12, 0x00, 0x00, 0x99, 0x41, 0xc6, 0xd9, 0x1d, 0x16, 0xed, 0xaf,
  0x1b, 0x2d, 0xf3, 0x15, 0x46, 0x11, 0x2f, 0xef, 0xe5, 0xef, 0x6a, 0x2d,
  0x38, 0xe7, 0x00, 0xea, 0xe2, 0x29, 0xd2, 0xff, 0xc3, 0x53, 0xc4, 0x20,
  0x0e, 0xd6, 0xd6, 0x3e, 0x07, 0xfb, 0xd4, 0x01, 0x09, 0x9d, 0xf7, 0x35,
  0x15, 0xb3, 0xe4, 0xcb, 0xcf, 0x26, 0x2a, 0xe5, 0xcb, 0xd2, 0xc8, 0x9c,
  0xee, 0xf2, 0x1b, 0xe9, 0xe5, 0xb6, 0x8a, 0x40, 0x31, 0x18, 0x22, 0xb2,
  0x49, 0x03, 0x4d, 0x26, 0x98, 0xb9, 0xcc, 0x2e, 0xc1, 0x43, 0xe5, 0x05,
  0x0f, 0x3a, 0x02, 0xcd, 0xf8, 0x14, 0x1c, 0x7f, 0xff, 0xef, 0xd7, 0x28,
  0xf5, 0xba, 0x06, 0x30, 0x04, 0x10, 0xec, 0xf1, 0x24, 0xfb, 0xff, 0x03,
  0xe0, 0x3c, 0x00, 0xbf, 0x0d, 0x20, 0xdf, 0x17, 0xef, 0x8e, 0x14, 0x1b,
  0x15, 0xef, 0x2f, 0xfe, 0x0e, 0xdc, 0x16, 0x9c, 0x59, 0xff, 0xe2, 0x1c,
  0xe9, 0x42, 0x15, 0x39, 0xe3, 0x16, 0xa7, 0xea, 0xe9, 0x18, 0xc1, 0xce,
  0xbf, 0xe6, 0x32, 0x08, 0xce, 0x0f, 0xb5, 0x3b, 0xca, 0xc1, 0x6e, 0xaf,
  0xd4, 0x60, 0x20, 0xee, 0xf4, 0xbf, 0x0e, 0xee, 0xe8, 0x59, 0xd8, 0xcc,
  0xd3, 0xed, 0x00, 0x01, 0xbd, 0xb3, 0x0a, 0x11, 0x0a, 0xd3, 0x4f, 0x26,
  0xb1, 0xbb, 0xdf, 0x2f, 0x2c, 0x50, 0xda, 0xac, 0x17, 0xd3, 0xa6, 0x22,
  0xf6, 0x20, 0x19, 0x68, 0x0c, 0xd3, 0xba, 0xe0, 0xf3, 0xf2, 0x4a, 0x34,
  0x0a, 0x03, 0x27, 0x1b, 0xe9, 0x3f, 0x9d, 0xe4, 0x8a, 0x96, 0x3b, 0x24,
  0xaa, 0xf1, 0xde, 0x62, 0xed, 0xe3, 0xca, 0xc7, 0xf7, 0xfe, 0x37, 0x0b,
  0x49, 0x43, 0x07, 0x1b, 0x11, 0xdb, 0x12, 0x11, 0xfa, 0xf1, 0xb3, 0xe1,
  0xc4, 0x16, 0xe0, 0x0f, 0xf8, 0x02, 0xf6, 0xda, 0x18, 0x1c, 0x3e, 0x0b,
  0xf2, 0x4d, 0x1c, 0x19, 0x2d, 0x4c, 0xf8, 0xc8, 0xe6, 0x2a, 0x07, 0xbe,
  0xc2, 0xd8, 0xe5, 0xdd, 0xd8, 0xb7, 0xf3, 0xc8, 0x9c, 0x93, 0x36, 0x7f,
  0x01, 0x59, 0x3e, 0xf8, 0x18, 0x1c, 0xc4, 0xfb, 0xd2, 0x13, 0x31, 0xfb,
  0x41, 0x0b, 0xc2, 0x92, 0x33, 0xb8, 0xf8, 0x35, 0xd2, 0xd7, 0xe9, 0xca,
  0xd9, 0x34, 0x17, 0xfc, 0x02, 0x00, 0x10, 0x4d, 0x38, 0x39, 0xf5, 0xbf,
  0xe1, 0xe2, 0x33, 0x21, 0x14, 0x11, 0xd7, 0x40, 0x09, 0xde, 0xee, 0xd4,
  0xd3, 0xec, 0xd4, 0x33, 0x02, 0xe4, 0x06, 0x02, 0xb8, 0xc6, 0xf1, 0xde,
  0x1f, 0xe5, 0x43, 0xf6, 0x36, 0xe8, 0xb4, 0xa4, 0x18, 0xd1, 0x39, 0x3f,
  0xc5, 0x43, 0x05, 0xc6, 0xe1, 0x24, 0x31, 0x06, 0x9d, 0x25, 0x74, 0xf3,
  0xd2, 0xe8, 0x11, 0x2f, 0xe7, 0x42, 0xea, 0xe4, 0xeb, 0xf4, 0xd9, 0x29,
  0x98, 0x5a, 0xdf, 0x5f, 0xeb, 0x1a, 0x03, 0x3d, 0x11, 0xaf, 0x1c, 0x42,
  0xf6, 0x9e, 0xf2, 0xbe, 0xe1, 0x6b, 0xf5, 0xd8, 0xff, 0x17, 0x39, 0xd5,
  0x27, 0x3a, 0xfa, 0xfa, 0xea, 0xe5, 0xd1, 0xda, 0xb6, 0x81, 0x07, 0x26,
  0x2f, 0xf1, 0xdf, 0xbe, 0x10, 0xc5, 0x31, 0x0a, 0x22, 0x1e, 0x3b, 0xf1,
  0x41, 0x31, 0x34, 0x2c, 0x38, 0x03, 0x2d, 0x23, 0xfb, 0x04, 0xf3, 0xcd,
  0xc6, 0x22, 0xbe, 0x09, 0x0d, 0xd6, 0xe8, 0xe4, 0x0e, 0x08, 0xd1, 0xd7,
  0x3f, 0x16, 0xdc, 0xf0, 0x09, 0x18, 0x37, 0x87, 0xda, 0x37, 0x41, 0x37,
  0x23, 0xd7, 0xec, 0xce, 0xc2, 0xcf, 0x53, 0xd7, 0x5f, 0x2d, 0xe7, 0x57,
  0x0a, 0x14, 0xff, 0x4d, 0x56, 0x1b, 0x1f, 0xef, 0xf4, 0x47, 0x46, 0xe0,
  0xc9, 0x81, 0xc7, 0xfe, 0x91, 0x2b, 0xfd, 0x26, 0xf1, 0xfb, 0xc8, 0x32,
  0x09, 0x29, 0xf1, 0x0f, 0xde, 0x30, 0xe8, 0xa1, 0x88, 0x3e, 0xf9, 0xc8,
  0x24, 0x05, 0xfd, 0xcf, 0xcf, 0xd3, 0x0e, 0x30, 0x3d, 0x32, 0x3a, 0xc1,
  0x1c, 0x2b, 0x2a, 0x41, 0xc7, 0xb4, 0x2a, 0x26, 0x26, 0x18, 0x06, 0xbf,
  0xeb, 0xc1, 0x10, 0x17, 0x24, 0xc2, 0x01, 0xd6, 0x48, 0x1d, 0x4b, 0x30,
  0x27, 0x3a, 0xfd, 0xcc, 0xba, 0xbf, 0x9a, 0x31, 0xc4, 0xe9, 0x0c, 0x4c,
  0x25, 0xd4, 0xe3, 0x5b, 0xd1, 0xbe, 0xd7, 0x00, 0xc6, 0x0a, 0xd8, 0x24,
  0x2e, 0x75, 0xc5, 0xb1, 0x0b, 0x3f, 0xb1, 0x3c, 0xce, 0xce, 0x31, 0x23,
  0x19, 0xcf, 0x2a, 0xb6, 0x0f, 0xfe, 0x07, 0xef, 0xa0, 0xce, 0x2c, 0x0a,
  0xd3, 0x0d, 0x26, 0xb0, 0x3e, 0xc6, 0x14, 0x2b, 0xf3, 0x78, 0xff, 0xb3,
  0xee, 0x07, 0xf9, 0x3d, 0xec, 0x0e, 0x1e, 0xbc, 0xa5, 0x4a, 0xa6, 0x3e,
  0xc2, 0xcd, 0x82, 0x1a, 0x0a, 0x2b, 0x17, 0x67, 0xd0, 0x07, 0xbf, 0xe3,
  0x41, 0xfc, 0x11, 0x47, 0xde, 0xfa, 0x05, 0x25, 0x55, 0x33, 0x39, 0xeb,
  0xde, 0xcf, 0xfc, 0x10, 0x31, 0xdd, 0xd5, 0xd1, 0xca, 0x16, 0xdc, 0x07,
  0x41, 0xcc, 0x0d, 0xe8, 0x19, 0xcf, 0x17, 0xd9, 0x07, 0x30, 0x19, 0xf4,
  0xc2, 0xd3, 0x00, 0x40, 0x81, 0x99, 0x21, 0x24, 0xc2, 0xf5, 0x51, 0x49,
  0xfe, 0x19, 0x0c, 0x10, 0x14, 0x08, 0x04, 0x37, 0xe0, 0x48, 0x31, 0x37,
  0x2b, 0xf3, 0xd2, 0x4f, 0xf2, 0x4a, 0xda, 0xb9, 0xf8, 0x01, 0x04, 0x19,
  0xbc, 0xae, 0xa6, 0xda, 0xff, 0xb4, 0xf0, 0xa6, 0xf6, 0x35, 0x07, 0xb2,
  0xaf, 0x1e, 0xd8, 0xfe, 0x0d, 0x5c, 0x17, 0xbf, 0xde, 0x2c, 0xc6, 0xf1,
  0xf9, 0x10, 0x29, 0x02, 0x3c, 0x63, 0xe7, 0xe7, 0x1d, 0x7f, 0xaa, 0x06,
  0xd3, 0x17, 0x2c, 0xc9, 0x3b, 0xf5, 0xc1, 0x34, 0xe0, 0xd7, 0x2b, 0xf3,
  0xf2, 0x97, 0x08, 0x0b, 0xf4, 0xe8, 0x17, 0xe8, 0xc0, 0xee, 0x0a, 0x8b,
  0x2f, 0x16, 0x3b, 0xdf, 0x31, 0xe7, 0xbd, 0x0a, 0xae, 0xfe, 0xea, 0x3b,
  0x14, 0x18, 0xe5, 0x50, 0x50, 0x56, 0xdd, 0xba, 0xf8, 0x18, 0xf2, 0xf0,
  0x59, 0x43, 0x26, 0xb9, 0x37, 0x35, 0x02, 0xd7, 0xca, 0x06, 0xa5, 0xfe,
  0x3a, 0x1f, 0xfd, 0x1c, 0xe1, 0xf5, 0x05, 0x10, 0x1f, 0x05, 0x26, 0xab,
  0x36, 0xf4, 0xfe, 0x3c, 0x17, 0xda, 0x0e, 0x0e, 0x28, 0xb4, 0x14, 0x40,
  0x2d, 0x06, 0x1f, 0xf1, 0xd1, 0x1b, 0xe4, 0x06, 0x2b, 0xd3, 0x46, 0x2b,
  0xfd, 0x06, 0x16, 0x2e, 0x36, 0x0f, 0x6f, 0x2c, 0xbd, 0x1d, 0x03, 0x27,
  0xbb, 0xeb, 0xd4, 0xdb, 0x1f, 0x05, 0xb6, 0x91, 0x04, 0xd8, 0x4b, 0x0e,
  0x4d, 0xdd, 0xf3, 0x36, 0xd9, 0x57, 0xfe, 0xfd, 0xa5, 0xf0, 0x06, 0x86,
  0x25, 0x16, 0x1f, 0xb3, 0xf8, 0xe6, 0xbb, 0xd8, 0xf2, 0x10, 0x9d, 0xd3,
  0xed, 0xe9, 0xc7, 0x19, 0x40, 0x29, 0xd4, 0xde, 0xe4, 0xd0, 0x11, 0xe7,
  0x14, 0x18, 0x15, 0xdc, 0x26, 0x1a, 0x1e, 0x41, 0x0c, 0x09, 0x44, 0xc1,
  0xf7, 0x10, 0xc7, 0x37, 0xe0, 0xa6, 0xf5, 0x09, 0x45, 0x04, 0xb2, 0x37,
  0xee, 0x15, 0x04, 0xe7, 0xf3, 0x08, 0xfc, 0x03, 0xd4, 0x3a, 0xed, 0xe8,
  0x18, 0xad, 0xc9, 0xff, 0x54, 0xfb, 0x1d, 0xff, 0x24, 0x32, 0xb3, 0xfa,
  0x18, 0x26, 0x01, 0x09, 0xdd, 0x16, 0xde, 0xcb, 0x30, 0x20, 0x32, 0x14,
  0x0d, 0xe7, 0xcf, 0xf3, 0xf7, 0xe9, 0xfb, 0xd9, 0x3b, 0xe6, 0x47, 0x30,
  0x48, 0x0e, 0xde, 0xae, 0xa7, 0x1b, 0x1e, 0xc3, 0xf2, 0x53, 0xd0, 0xfc,
  0x61, 0x14, 0x81, 0xd3, 0xfe, 0x91, 0x3c, 0x19, 0xc3, 0xc2, 0x14, 0xec,
  0xf9, 0xdc, 0xe2, 0x2d, 0xe4, 0x11, 0xd4, 0xd7, 0x14, 0xe7, 0x4a, 0xce,
  0x0b, 0xcf, 0xdd, 0xcf, 0xd4, 0x2e, 0x40, 0xec, 0x2d, 0x10, 0x10, 0xcd,
  0x0e, 0xf0, 0xbc, 0x27, 0x11, 0xf9, 0x07, 0x0f, 0xe3, 0xed, 0xcd, 0xde,
  0xda, 0xc8, 0x16, 0x3c, 0x13, 0xbb, 0x1b, 0x38, 0xa5, 0xe2, 0x18, 0x24,
  0x03, 0xf9, 0xd9, 0xd1, 0xde, 0x52, 0xe1, 0x22, 0x0c, 0x10, 0xf4, 0x39,
  0xfd, 0xe5, 0x1d, 0x2d, 0xed, 0x08, 0x23, 0x12, 0x04, 0xd2, 0xf6, 0xcb,
  0x2e, 0xf5, 0xc0, 0xee, 0x3e, 0x18, 0xe9, 0x26, 0x1d, 0xcd, 0xd0, 0x02,
  0xc0, 0xcf, 0xfd, 0xfc, 0xf5, 0xe8, 0x1d, 0x0b, 0xe3, 0x2e, 0xe6, 0xd2,
  0x32, 0x2b, 0x16, 0xf7, 0x0b, 0x0b, 0x26, 0xe7, 0x39, 0x0e, 0xab, 0x1c,
  0xda, 0xbb, 0xc4, 0x18, 0x18, 0x0e, 0x01, 0xae, 0x27, 0xe7, 0x1b, 0x21,
  0x0a, 0xbe, 0xbd, 0xe3, 0xd9, 0xe8, 0x81, 0xc3, 0xee, 0xbd, 0x21, 0xd5,
  0xf1, 0x05, 0xfe, 0x25, 0x13, 0xe7, 0x19, 0xe8, 0xf6, 0x4b, 0x42, 0xd4,
  0x1b, 0xfc, 0xcc, 0x1f, 0x1c, 0x25, 0xd7, 0xe6, 0xcf, 0xf3, 0x16, 0x2b,
  0x05, 0x3d, 0xde, 0x06, 0x28, 0x41, 0xf6, 0xe3, 0xdf, 0xd1, 0xe0, 0xf8,
  0x11, 0xe0, 0x19, 0xef, 0xd0, 0x15, 0x44, 0xf8, 0x51, 0xea, 0x2d, 0xe4,
  0x31, 0xba, 0x1d, 0x1f, 0xc3, 0x0f, 0x1a, 0xf8, 0x54, 0xf3, 0x1d, 0xcd,
  0x54, 0x2c, 0xc7, 0xe6, 0x19, 0xd0, 0xf9, 0x14, 0x2f, 0xf6, 0x1d, 0xbe,
  0x33, 0x07, 0x08, 0x0a, 0x61, 0x46, 0xfc, 0x30, 0x04, 0xfb, 0xc8, 0xfa,
  0x09, 0x18, 0xd2, 0x15, 0xc2, 0xec, 0x10, 0x10, 0xdd, 0xc1, 0xcf, 0x1d,
  0x1a, 0x1f, 0xf3, 0xb3, 0xcf, 0xe6, 0x18, 0x3b, 0x19, 0xfe, 0x57, 0xc5,
  0xc2, 0xf7, 0xf5, 0xe1, 0x1b, 0xfb, 0xd7, 0x20, 0xd2, 0xf9, 0x26, 0xf8,
  0x37, 0x44, 0xbb, 0x1b, 0xdc, 0x53, 0xc5, 0x31, 0x3f, 0x2f, 0xdd, 0xa7,
  0x37, 0x1c, 0xd1, 0x39, 0x41, 0xeb, 0x10, 0xfc, 0xe1, 0x28, 0x1f, 0xb1,
  0xec, 0x3a, 0x03, 0x11, 0x21, 0x2c, 0x20, 0x24, 0xea, 0xf3, 0x20, 0xdb,
  0xb6, 0xa8, 0x05, 0x1d, 0x35, 0x08, 0xdf, 0xf7, 0x3c, 0xb7, 0x29, 0x10,
  0xda, 0x05, 0x7f, 0xd8, 0x56, 0x32, 0xd5, 0x53, 0xc7, 0x3b, 0x97, 0x2a,
  0x12, 0x4f, 0x3d, 0x26, 0x1b, 0xf5, 0x2c, 0x0c, 0x19, 0xfe, 0xee, 0x1f,
  0xe7, 0xb6, 0x0e, 0xf7, 0x3e, 0xd9, 0x23, 0x1d, 0x4c, 0xf0, 0xf2, 0xc9,
  0x08, 0xf9, 0x50, 0xea, 0x0e, 0xf6, 0xe8, 0x36, 0xfc, 0xf6, 0x01, 0x17,
  0x2d, 0x18, 0x1e, 0x2d, 0x30, 0xf1, 0xdf, 0xc1, 0x29, 0x2a, 0xa9, 0xc1,
  0xe8, 0x52, 0xfd, 0xda, 0x27, 0xef, 0x22, 0xd7, 0x02, 0xda, 0x09, 0xd9,
  0x08, 0xf9, 0xed, 0x22, 0x26, 0xd3, 0x1e, 0xe5, 0x08, 0x05, 0xfe, 0xdd,
  0xe3, 0xf9, 0xd9, 0xf4, 0xd2, 0xc4, 0x0a, 0xe0, 0x31, 0xf6, 0xeb, 0x00,
  0xf3, 0xd9, 0xd3, 0xbf, 0xdf, 0x10, 0xf3, 0x22, 0xee, 0x1f, 0xff, 0xe8,
  0x12, 0x16, 0x32, 0x0b, 0xea, 0x27, 0xcf, 0x04, 0x1b, 0x12, 0xf1, 0xe1,
  0xd9, 0xf0, 0xe3, 0xa2, 0x38, 0xb8, 0x35, 0xca, 0xf1, 0x00, 0x2e, 0x33,
  0x38, 0xfa, 0x46, 0xd6, 0xf0, 0x32, 0x28, 0x1c, 0xf8, 0x13, 0xcc, 0xfd,
  0xd1, 0xfa, 0x7f, 0x1b, 0xc0, 0xe0, 0x34, 0xc7, 0x31, 0xfa, 0xd8, 0xe0,
  0xb4, 0x2f, 0xd1, 0xd6, 0xcb, 0x45, 0x18, 0x11, 0x26, 0xf6, 0xe6, 0xf1,
  0xeb, 0xdd, 0x02, 0x16, 0x0b, 0xd4, 0x24, 0x90, 0xec, 0x8d, 0x05, 0x18,
  0x09, 0x31, 0x4d, 0xdc, 0xc9, 0xd5, 0x27, 0x09, 0x07, 0xe0, 0x1b, 0x1e,
  0xee, 0x0f, 0xca, 0x27, 0xd8, 0x42, 0xef, 0xf2, 0xde, 0x28, 0x3e, 0x52,
  0x3e, 0x13, 0x43, 0x7f, 0x15, 0xcb, 0x04, 0xd6, 0xb1, 0xd2, 0xef, 0x10,
  0xf9, 0xcb, 0xde, 0xdd, 0xe2, 0x14, 0xf0, 0xe6, 0x39, 0xe5, 0x37, 0xc2,
  0xdf, 0x5d, 0xf8, 0x16, 0xda, 0x54, 0x1c, 0xfe, 0xf4, 0xec, 0x05, 0x4c,
  0x27, 0x12, 0x0a, 0x35, 0xfc, 0x03, 0x0a, 0x31, 0xd8, 0xd3, 0x06, 0xc8,
  0xe3, 0x05, 0x39, 0x4f, 0x59, 0x24, 0x51, 0xc3, 0x0f, 0xe1, 0xc7, 0x40,
  0x2c, 0xd1, 0x1c, 0xed, 0xeb, 0xe2, 0xd6, 0xee, 0xdb, 0x15, 0xf5, 0x0b,
  0x2b, 0xfb, 0xce, 0x0e, 0x09, 0x46, 0xe3, 0xd7, 0xfd, 0xee, 0x0a, 0x37,
  0xf3, 0xfc, 0xe6, 0xef, 0xff, 0xd2, 0xf5, 0xd3, 0x26, 0x06, 0x1b, 0xc1,
  0x06, 0xfd, 0xd4, 0xe1, 0x03, 0xcf, 0x69, 0x08, 0xa8, 0x8a, 0xda, 0x36,
  0xef, 0x9e, 0x0f, 0x5a, 0x4e, 0xbd, 0xd6, 0xb3, 0x52, 0x67, 0x21, 0x34,
  0x0a, 0xf9, 0xed, 0x24, 0x34, 0x19, 0x16, 0x0c, 0x57, 0x42, 0x8a, 0xb4,
  0x19, 0x3d, 0xee, 0xcb, 0x43, 0xec, 0xfa, 0xf9, 0xe9, 0xb7, 0xf6, 0x35,
  0xe7, 0x4f, 0xa2, 0x8e, 0x31, 0x06, 0xea, 0x3e, 0x1d, 0xf9, 0xe4, 0xb4,
  0x4c, 0x25, 0xeb, 0xeb, 0x51, 0x5c, 0xf6, 0xe9, 0xd7, 0xde, 0x29, 0xd5,
  0x02, 0xdf, 0xcc, 0x4a, 0x08, 0x2c, 0x2e, 0xdd, 0x36, 0xe6, 0xd5, 0x9b,
  0x3b, 0xc9, 0x0e, 0x18, 0xc5, 0xe6, 0xe0, 0xe7, 0xf1, 0x36, 0x1f, 0x2a,
  0xf8, 0x48, 0xfe, 0xbe, 0x50, 0x64, 0xea, 0x19, 0xe0, 0xe6, 0x1f, 0xcc,
  0xb9, 0x22, 0xdd, 0xc3, 0xc3, 0xd7, 0x48, 0x7f, 0xff, 0xe3, 0x14, 0xad,
  0x95, 0xe8, 0x3b, 0x48, 0x3b, 0xf2, 0xf8, 0x3b, 0xd4, 0x02, 0x2b, 0x7f,
  0xde, 0x02, 0xe7, 0xe6, 0xec, 0xdb, 0x19, 0xdf, 0x46, 0x3c, 0xdb, 0x06,
  0xf2, 0xf1, 0x18, 0x32, 0xed, 0xe3, 0xee, 0x23, 0x2c, 0xd3, 0xef, 0xda,
  0x33, 0x28, 0x1d, 0xe7, 0x08, 0xd7, 0xcc, 0x8a, 0x10, 0x62, 0x81, 0xd2,
  0xd8, 0x4c, 0xf1, 0x1d, 0x16, 0xe5, 0xdf, 0xe2, 0xed, 0xef, 0xe7, 0x12,
  0xed, 0xe2, 0xf2, 0xcc, 0xeb, 0xef, 0xe8, 0x42, 0x14, 0x13, 0xad, 0xd3,
  0x15, 0x32, 0x33, 0x47, 0xf1, 0x10, 0x44, 0x2b, 0x2a, 0x0b, 0x1f, 0x33,
  0x36, 0xd1, 0x12, 0xfb, 0xdd, 0x43, 0x35, 0x10, 0xa6, 0x22, 0xe9, 0xef,
  0x04, 0xf8, 0x11, 0x02, 0x05, 0xdd, 0xde, 0x43, 0xfb, 0xff, 0xcc, 0xf0,
  0xc5, 0xe7, 0x27, 0x25, 0xd9, 0x0f, 0x07, 0xbd, 0x04, 0x0b, 0xbf, 0xd5,
  0x09, 0xba, 0xff, 0x59, 0xf4, 0x22, 0xac, 0xd6, 0xfe, 0xe0, 0x2d, 0x47,
  0x0f, 0x25, 0x0b, 0x24, 0xcb, 0x5a, 0x3b, 0x52, 0xc2, 0xf0, 0xeb, 0xdf,
  0x0a, 0x34, 0xf2, 0x06, 0x19, 0xf1, 0x30, 0xfe, 0x1d, 0x01, 0x33, 0x02,
  0x1d, 0xc0, 0xf5, 0x06, 0xdb, 0x38, 0xb7, 0x24, 0x15, 0x4b, 0x28, 0x02,
  0x2b, 0xf1, 0xca, 0xba, 0x2e, 0x07, 0xfd, 0x24, 0xe0, 0x0c, 0x13, 0xe2,
  0x13, 0xea, 0x01, 0xda, 0xee, 0x26, 0xf8, 0xcb, 0xf9, 0xf5, 0x44, 0x00,
  0x31, 0x0a, 0xe7, 0xf3, 0x26, 0x0c, 0x1f, 0xea, 0xe5, 0xf0, 0x05, 0xc6,
  0x34, 0xc5, 0xd7, 0x03, 0xc1, 0xf8, 0x3a, 0xc2, 0x17, 0x18, 0x1f, 0x2d,
  0xd2, 0xdc, 0xbf, 0x03, 0x06, 0x13, 0x21, 0x2c, 0xd6, 0xcf, 0x23, 0xf7,
  0xec, 0xed, 0x0a, 0x26, 0x01, 0x0b, 0xf9, 0x65, 0xd9, 0x47, 0xe8, 0xef,
  0x21, 0xd9, 0xbe, 0x54, 0x2f, 0xf8, 0x28, 0xee, 0x04, 0xe5, 0x02, 0xb3,
  0x0b, 0x16, 0xf1, 0x10, 0x06, 0x26, 0x1f, 0x50, 0x22, 0x16, 0xde, 0xf9,
  0x17, 0xda, 0x40, 0xda, 0xe4, 0x0b, 0xe1, 0x33, 0xb5, 0xea, 0xed, 0xcd,
  0x27, 0xcc, 0x41, 0xe9, 0xd0, 0xf6, 0xe3, 0x11, 0x09, 0x11, 0xf5, 0x19,
  0xcc, 0x16, 0x09, 0xc1, 0x0e, 0xe0, 0xe9, 0x1b, 0xe2, 0xd1, 0xb0, 0xd0,
  0x0a, 0x81, 0xa9, 0xed, 0xe3, 0x9b, 0x25, 0x0d, 0xd4, 0xee, 0xf7, 0xfe,
  0xe5, 0xd5, 0x21, 0x12, 0xe8, 0x96, 0x20, 0xc4, 0x27, 0xbc, 0x13, 0xd0,
  0xcd, 0x07, 0x34, 0x3b, 0x38, 0xdb, 0x07, 0xc5, 0xcb, 0x01, 0xf5, 0x43,
  0xe1, 0x0a, 0x32, 0x32, 0x14, 0xd9, 0xb6, 0x28, 0x2d, 0xd1, 0x25, 0x97,
  0xca, 0xea, 0xe3, 0xf5, 0x3a, 0xfe, 0x1d, 0xb9, 0xd4, 0x21, 0x08, 0xe7,
  0x01, 0xf7, 0xf3, 0xdc, 0x81, 0x24, 0xe1, 0xda, 0xf8, 0xf3, 0x32, 0x25,
  0xc1, 0x3f, 0x2a, 0xcb, 0xf2, 0x0c, 0xe2, 0x0e, 0xea, 0x2a, 0xff, 0xc6,
  0xea, 0x28, 0xce, 0xdc, 0xeb, 0xd4, 0x34, 0xd9, 0xd7, 0xa6, 0x17, 0x2e,
  0x22, 0x9b, 0xfc, 0x10, 0xc6, 0x2d, 0x1b, 0x9f, 0xf4, 0x49, 0x01, 0xea,
  0xe5, 0x41, 0xbd, 0xb3, 0xeb, 0xe0, 0x41, 0xd1, 0xd4, 0x11, 0x4d, 0xf2,
  0xcb, 0xe5, 0x27, 0x52, 0xe9, 0x45, 0xf7, 0x77, 0x12, 0x44, 0xdc, 0x0e,
  0xfd, 0x1d, 0x11, 0x2c, 0xc6, 0x2c, 0xed, 0x38, 0x03, 0xc9, 0xc4, 0x71,
  0xaf, 0xb4, 0x49, 0x00, 0x39, 0xfa, 0xe4, 0xfd, 0x22, 0x0e, 0xb7, 0x01,
  0x04, 0xfe, 0x15, 0xaa, 0xdd, 0xf7, 0xf9, 0x23, 0x1e, 0x23, 0x22, 0x19,
  0xf1, 0x20, 0x2a, 0x92, 0x0c, 0xff, 0xee, 0x10, 0x10, 0xdd, 0x29, 0x40,
  0xde, 0xd5, 0xd3, 0xbd, 0x1b, 0x1c, 0xb6, 0xe4, 0x43, 0xe2, 0x0a, 0x3b,
  0xc3, 0x2a, 0xf9, 0xb0, 0x10, 0xec, 0x32, 0xf3, 0x3c, 0xbb, 0xd6, 0xd3,
  0xbe, 0x06, 0x4a, 0xeb, 0xd8, 0xf0, 0xee, 0xb6, 0x14, 0x34, 0x30, 0x37,
  0xef, 0xe7, 0xb8, 0xbc, 0xdc, 0xe9, 0x25, 0x39, 0xda, 0xe8, 0xc0, 0xbd,
  0xea, 0xef, 0xcc, 0x32, 0xed, 0x0f, 0x11, 0x46, 0x52, 0x05, 0x3d, 0xca,
  0x81, 0x00, 0x00, 0x1f, 0x0a, 0xf6, 0xfb, 0x26, 0x13, 0x25, 0xe9, 0x2e,
  0xfb, 0x22, 0x07, 0xe1, 0x1f, 0x96, 0xb5, 0xd5, 0xeb, 0xb0, 0x0a, 0xdd,
  0x27, 0x0b, 0x33, 0xf9, 0x44, 0x30, 0xcc, 0x25, 0x05, 0xba, 0xeb, 0x37,
  0x0e, 0xb7, 0xf3, 0xdc, 0xc8, 0x2c, 0xf9, 0x4c, 0x00, 0xb9, 0x53, 0xed,
  0xfd, 0x2c, 0xfb, 0xd1, 0xf6, 0x2d, 0xb9, 0xee, 0xb2, 0xfb, 0xd0, 0x26,
  0x19, 0xfd, 0xfc, 0x93, 0xaa, 0xab, 0xb6, 0x28, 0x0d, 0x19, 0xbf, 0xd5,
  0xbf, 0xbe, 0xea, 0xf8, 0xdc, 0xc5, 0x13, 0x02, 0x5d, 0xd5, 0xb2, 0xe8,
  0xae, 0x54, 0x2c, 0xe1, 0x24, 0xc7, 0x15, 0x21, 0x17, 0xf6, 0xa0, 0xe4,
  0x3b, 0x2f, 0xf6, 0xbd, 0xa0, 0xfd, 0xf0, 0x2f, 0xe2, 0xd6, 0xc7, 0x13,
  0xce, 0x07, 0x01, 0x1d, 0x4e, 0x08, 0x32, 0xc5, 0x2a, 0x09, 0xb5, 0x02,
  0x2f, 0xdb, 0xfd, 0x28, 0xc6, 0x2b, 0x19, 0x21, 0x50, 0x09, 0x5f, 0xd5,
  0x48, 0xdb, 0x30, 0x1f, 0xf4, 0xfa, 0x02, 0x00, 0x2f, 0xef, 0xa0, 0x7f,
  0x22, 0xd8, 0x53, 0x0b, 0x26, 0x2c, 0xf4, 0xd1, 0x2c, 0x28, 0x03, 0xbd,
  0x1f, 0x04, 0x98, 0x08, 0xe0, 0xf3, 0x33, 0x5d, 0x6d, 0xaf, 0x0e, 0x2d,
  0xcf, 0x49, 0x24, 0xed, 0xcd, 0x59, 0x13, 0xa4, 0x25, 0x1d, 0x88, 0x15,
  0xf3, 0x02, 0xc6, 0xc9, 0xe1, 0xf0, 0x1d, 0x03, 0x20, 0x22, 0xf9, 0x52,
  0xcb, 0xf0, 0xae, 0xf6, 0x29, 0x1f, 0x1e, 0xed, 0x20, 0x45, 0xec, 0x35,
  0xf0, 0x15, 0x35, 0xe7, 0xac, 0x40, 0x25, 0x02, 0xb2, 0xbc, 0x16, 0x3a,
  0x23, 0x01, 0x2b, 0xcc, 0x37, 0xdb, 0x09, 0x26, 0xda, 0x1a, 0x18, 0xbc,
  0x3a, 0x3f, 0x07, 0xf5, 0x15, 0x3f, 0xd5, 0x9a, 0x49, 0x0a, 0xca, 0x3b,
  0x2e, 0x89, 0x13, 0x28, 0xc0, 0x2d, 0xd7, 0xf7, 0x1f, 0xdb, 0xd6, 0x16,
  0x0c, 0x1b, 0xe0, 0x0a, 0x03, 0xe6, 0x01, 0x11, 0xfc, 0x2a, 0x3d, 0xbf,
  0x0e, 0xdb, 0x45, 0x0d, 0x05, 0x0f, 0x1f, 0x2c, 0x7b, 0x02, 0x35, 0x0b,
  0x38, 0x10, 0xed, 0x0f, 0x1a, 0xbf, 0xd9, 0xdc, 0xe2, 0xe6, 0xdc, 0x56,
  0x7f, 0x3a, 0xd3, 0xf4, 0xf7, 0x42, 0xc4, 0x43, 0x21, 0x46, 0x0a, 0x22,
  0x2c, 0x0a, 0xc4, 0x26, 0x2c, 0x6c, 0x20, 0xcd, 0x07, 0x29, 0xfe, 0xe1,
  0x3f, 0xe5, 0x3e, 0xe6, 0x0a, 0xd8, 0x3d, 0x83, 0x52, 0xa9, 0xb7, 0xe2,
  0xe9, 0xff, 0x24, 0x0f, 0xd1, 0xf1, 0x0c, 0x1c, 0xfd, 0x5e, 0x41, 0x01,
  0x30, 0x79, 0x85, 0x19, 0xbd, 0x02, 0x09, 0x2d, 0xf7, 0x17, 0x02, 0xd9,
  0x12, 0xbe, 0xfe, 0x22, 0x1e, 0x41, 0x27, 0xe4, 0xf8, 0xf6, 0xf1, 0xf1,
  0xdb, 0x21, 0x07, 0xfc, 0xf7, 0xd2, 0xd0, 0xfd, 0xf6, 0x49, 0xfb, 0xee,
  0x10, 0x02, 0x27, 0xd7, 0xca, 0x02, 0xd3, 0x2e, 0xca, 0x10, 0xcb, 0xc7,
  0x46, 0x11, 0x1c, 0xe9, 0xdb, 0x09, 0x21, 0x3b, 0xea, 0xbf, 0x1a, 0xf2,
  0x06, 0x0b, 0xd8, 0xd3, 0x24, 0xbd, 0x20, 0x0d, 0x11, 0x22, 0x13, 0xbd,
  0x09, 0xfe, 0xe1, 0xb0, 0x07, 0x3e, 0xf7, 0x17, 0xdd, 0x14, 0x3b, 0xec,
  0xd0, 0xd6, 0x20, 0x34, 0x1c, 0x0b, 0x07, 0xcb, 0xd3, 0x1d, 0xf6, 0xf9,
  0x16, 0x04, 0xf7, 0x17, 0xdb, 0x3d, 0xd4, 0x35, 0x1e, 0xf1, 0x27, 0x05,
  0x32, 0xf8, 0x1d, 0x28, 0x20, 0x20, 0xe4, 0xf9, 0x08, 0xee, 0xd7, 0x0c,
  0xed, 0x36, 0xdc, 0xe9, 0xd4, 0x14, 0xa2, 0xfe, 0xbc, 0xd8, 0x0a, 0x23,
  0x1f, 0xf1, 0xec, 0x05, 0x08, 0xdd, 0xf7, 0x1f, 0xe2, 0xf8, 0xf4, 0xd6,
  0x11, 0x7f, 0x1a, 0xf3, 0x14, 0x0c, 0xc8, 0x1a, 0xf6, 0xdf, 0xd0, 0x0b,
  0xe6, 0x01, 0x3e, 0x02, 0x3f, 0xb4, 0xd2, 0xf2, 0xca, 0x4b, 0x2d, 0x07,
  0x3b, 0x30, 0xd3, 0xcb, 0xd0, 0xd9, 0x27, 0x34, 0xc6, 0xdb, 0x96, 0xed,
  0x81, 0xee, 0xc4, 0x31, 0x1d, 0xc4, 0xf4, 0xde, 0xcc, 0xc7, 0x46, 0x0b,
  0x0a, 0xf3, 0x06, 0xcd, 0xe0, 0x94, 0xf4, 0x1f, 0xbb, 0xa3, 0xd1, 0x21,
  0x23, 0xa4, 0xd0, 0x68, 0xf8, 0x11, 0xff, 0x25, 0xf0, 0xc5, 0x49, 0xef,
  0x04, 0xd4, 0x15, 0xdc, 0x31, 0x0f, 0xf8, 0x3b, 0xf5, 0xc7, 0x4c, 0xd6,
  0xaa, 0xc7, 0x9a, 0xf7, 0xc5, 0xca, 0xe7, 0x56, 0x09, 0x2b, 0x49, 0x34,
  0x26, 0xb5, 0x24, 0x1a, 0xcc, 0x52, 0xf5, 0xc8, 0xe0, 0xae, 0x0a, 0x08,
  0xf1, 0xa1, 0xab, 0xc9, 0x13, 0x00, 0xbc, 0xfe, 0xe9, 0xef, 0x4b, 0x30,
  0x25, 0x0b, 0x00, 0xd2, 0xf3, 0xe3, 0x2e, 0xd8, 0x45, 0x2a, 0x3f, 0x3a,
  0x32, 0x5c, 0xc9, 0xd1, 0xcf, 0x15, 0x9e, 0x3d, 0x09, 0xe6, 0x40, 0x22,
  0x28, 0xfc, 0x66, 0x43, 0x45, 0xe3, 0xc0, 0xee, 0xc5, 0x0a, 0xc3, 0x3b,
  0x45, 0x31, 0x00, 0xd1, 0xd9, 0x0f, 0xf5, 0x37, 0x4e, 0x2d, 0xfb, 0xdf,
  0x17, 0x26, 0x1f, 0x0b, 0xa3, 0x06, 0xdc, 0xde, 0xcc, 0xe9, 0xe7, 0xec,
  0xf3, 0x43, 0x10, 0xd1, 0xe8, 0xda, 0xe6, 0x35, 0x1f, 0xbf, 0x01, 0x48,
  0xd2, 0xc7, 0x27, 0xf3, 0x32, 0x01, 0xbb, 0xe3, 0x31, 0xfa, 0xec, 0x4c,
  0x23, 0x11, 0xe4, 0x3f, 0x1a, 0x15, 0xb7, 0x1b, 0x9c, 0xd3, 0x18, 0x0f,
  0xdd, 0x09, 0x11, 0xd6, 0x56, 0x13, 0x03, 0x06, 0x64, 0x09, 0x35, 0x0f,
  0xa7, 0xcb, 0x04, 0x21, 0x2b, 0xd6, 0x36, 0x2e, 0x1e, 0xf9, 0x32, 0xe6,
  0x7f, 0x0e, 0x34, 0xaf, 0xe4, 0xf2, 0x3b, 0xc9, 0x28, 0xc3, 0x70, 0xe1,
  0xdf, 0x3e, 0xa4, 0x23, 0x22, 0xd7, 0x13, 0x95, 0x02, 0x0a, 0xe0, 0xf3,
  0xdb, 0xbe, 0xf8, 0xca, 0x3d, 0x11, 0x05, 0x44, 0x94, 0xd4, 0xf5, 0x0d,
  0x32, 0x3e, 0xc9, 0xd8, 0xe7, 0x37, 0xd0, 0x26, 0xce, 0x19, 0x30, 0x3e,
  0xf7, 0x41, 0xe5, 0xe5, 0xe1, 0x2f, 0xde, 0x25, 0xef, 0x37, 0xff, 0x2b,
  0xec, 0x12, 0xbd, 0xa8, 0x18, 0xfe, 0x33, 0x01, 0xe9, 0x2d, 0x2e, 0x34,
  0xcc, 0xe5, 0xd1, 0x3b, 0xda, 0x2a, 0x62, 0x91, 0xf6, 0xd8, 0xb5, 0xd5,
  0x32, 0x50, 0x47, 0x35, 0x08, 0x5c, 0x00, 0xfd, 0x0b, 0x26, 0xbb, 0xe0,
  0xe7, 0xe4, 0xcf, 0x41, 0x14, 0xdf, 0xcb, 0xdd, 0x16, 0xbc, 0x0b, 0xe2,
  0xed, 0xfc, 0x16, 0x99, 0x07, 0xf6, 0x06, 0x19, 0x01, 0x19, 0xe0, 0x02,
  0xd5, 0x18, 0x40, 0xea, 0x1f, 0xf8, 0xe8, 0xbc, 0xb3, 0xf5, 0x01, 0xc4,
  0x23, 0x2d, 0x0b, 0x50, 0xc7, 0x0f, 0xd9, 0xad, 0xc8, 0xfd, 0xde, 0xd1,
  0xed, 0xe4, 0x24, 0xf0, 0xbc, 0xe4, 0x12, 0x3a, 0x24, 0xba, 0x00, 0xf7,
  0xfa, 0xb3, 0x1f, 0x4d, 0x3b, 0xcf, 0x31, 0x34, 0xe7, 0x33, 0xc4, 0x18,
  0x2c, 0x41, 0x05, 0x0d, 0x32, 0x0b, 0xbf, 0x0f, 0x1b, 0x9e, 0x3d, 0xea,
  0xb4, 0x35, 0x1e, 0xe3, 0x1b, 0x08, 0x43, 0x12, 0x00, 0xe7, 0xc5, 0xe6,
  0xdb, 0x0c, 0xcc, 0x14, 0xe6, 0x0d, 0x1f, 0x12, 0xe4, 0xda, 0x19, 0x3b,
  0x1e, 0xd6, 0xf0, 0x7f, 0xc7, 0x0a, 0xbb, 0x3e, 0x63, 0xdf, 0x19, 0xd1,
  0xd7, 0x36, 0x11, 0xd9, 0x3b, 0x35, 0x4d, 0xf6, 0x9f, 0x1b, 0xfb, 0x33,
  0x3a, 0xc6, 0xe0, 0xeb, 0xd4, 0xb4, 0xcc, 0xf0, 0x36, 0x08, 0x32, 0xa5,
  0xa6, 0x0d, 0x05, 0x3c, 0x27, 0x15, 0xdc, 0xf0, 0xf8, 0xd4, 0x10, 0x17,
  0xb3, 0xfe, 0x14, 0xed, 0xdf, 0xff, 0x17, 0x12, 0xe1, 0x1b, 0x30, 0x48,
  0xe0, 0xea, 0xfd, 0xb4, 0xd7, 0x0c, 0x27, 0x1a, 0xbc, 0x13, 0xeb, 0x84,
  0xab, 0xec, 0x2b, 0x0f, 0xcb, 0x24, 0x06, 0xb7, 0x07, 0xe4, 0x06, 0x04,
  0xe0, 0x0c, 0xe5, 0xcf, 0x24, 0x17, 0x24, 0xd8, 0xd6, 0x0e, 0x0a, 0xd9,
  0xfc, 0x0c, 0x08, 0x3c, 0xc8, 0xb5, 0x43, 0xf4, 0xbb, 0xc5, 0x0e, 0xe3,
  0xc2, 0x00, 0xdb, 0xef, 0x2f, 0x20, 0xbf, 0x12, 0x20, 0xe8, 0x30, 0xcd,
  0xcb, 0x1b, 0x05, 0xee, 0xeb, 0xad, 0xcc, 0x37, 0xbb, 0xdc, 0xfc, 0xdb,
  0xf0, 0x06, 0x3e, 0xc1, 0xf9, 0xdd, 0xb1, 0x0b, 0x23, 0x1d, 0xf0, 0x42,
  0x2d, 0x27, 0x81, 0x16, 0xfe, 0xe1, 0x15, 0x06, 0xe3, 0xc8, 0x28, 0xd7,
  0xf1, 0x22, 0xdc, 0xf1, 0x12, 0xcf, 0xfb, 0x73, 0x20, 0xf6, 0xda, 0x1c,
  0x36, 0xec, 0xe7, 0x31, 0x29, 0xd2, 0x25, 0x0c, 0xe3, 0x18, 0xea, 0x4a,
  0x6b, 0x02, 0x21, 0x15, 0x2d, 0x08, 0x2a, 0xf7, 0xf0, 0xdd, 0xed, 0xe7,
  0x01, 0xde, 0xd0, 0xfd, 0xc5, 0xb5, 0xec, 0xc9, 0x8e, 0xe6, 0x1b, 0xe0,
  0xda, 0xc7, 0x26, 0xef, 0xf9, 0xf8, 0xc4, 0x20, 0x5a, 0xb2, 0x38, 0xd0,
  0xc9, 0x12, 0xd1, 0xad, 0xcb, 0xbf, 0xc9, 0xe2, 0xe9, 0x40, 0xd1, 0x0c,
  0x38, 0xd1, 0x05, 0x22, 0xcb, 0xda, 0xe8, 0x1f, 0x27, 0x0f, 0xcd, 0x22,
  0x1a, 0x22, 0x2f, 0x09, 0x00, 0x03, 0x11, 0xec, 0xc0, 0xfe, 0x06, 0xbd,
  0x19, 0x1b, 0xf7, 0xc8, 0x08, 0x3a, 0xcc, 0xcc, 0x7f, 0xfc, 0xfd, 0xe6,
  0x08, 0x11, 0xe1, 0xd4, 0x16, 0xd0, 0xff, 0xfd, 0x08, 0xe0, 0x13, 0x47,
  0x24, 0x6b, 0x60, 0xfc, 0x03, 0x27, 0x38, 0xe6, 0x06, 0x44, 0xcb, 0xe9,
  0x26, 0xfd, 0xf0, 0x37, 0x21, 0x1e, 0xa2, 0x47, 0xb0, 0x0f, 0xde, 0xbc,
  0xc1, 0x35, 0xf8, 0x4e, 0xf3, 0x00, 0x05, 0x1f, 0x6a, 0xbc, 0xb8, 0xd3,
  0x15, 0x32, 0x01, 0x04, 0xf4, 0xe3, 0xd3, 0xda, 0xe1, 0xcd, 0x11, 0x64,
  0xf6, 0xff, 0xda, 0xd0, 0x23, 0xee, 0xde, 0x23, 0x0e, 0xb5, 0xac, 0x08,
  0xec, 0x42, 0xf2, 0x3c, 0x0f, 0xf4, 0x51, 0xea, 0x44, 0x4f, 0x20, 0xf7,
  0x3b, 0x44, 0x4c, 0xcb, 0x33, 0x5b, 0xe8, 0x3c, 0x07, 0xe9, 0x12, 0xe7,
  0xe3, 0x3d, 0x39, 0xec, 0xd4, 0xec, 0xb9, 0xd9, 0xf3, 0x39, 0xe0, 0xdc,
  0xda, 0x11, 0x08, 0xe7, 0x24, 0xc7, 0x81, 0xed, 0x1e, 0xab, 0xb8, 0xf8,
  0xf1, 0xed, 0xe0, 0xf9, 0x3a, 0xbc, 0x0b, 0x1b, 0x20, 0xda, 0xce, 0xdb,
  0xf9, 0x3e, 0x9b, 0xfd, 0x2d, 0x26, 0x0b, 0xb3, 0xc0, 0xfa, 0xb8, 0x1e,
  0x23, 0xe0, 0x0b, 0xf3, 0x14, 0xe5, 0x24, 0xfc, 0xed, 0xfc, 0x33, 0x13,
  0xf7, 0x12, 0x14, 0xbf, 0x00, 0xf2, 0xf3, 0x17, 0x14, 0xfe, 0xd0, 0x2a,
  0x02, 0xc0, 0x59, 0x5f, 0xff, 0x0b, 0xde, 0x1f, 0x3a, 0x1a, 0xd4, 0xdf,
  0xd3, 0xf0, 0x08, 0x08, 0xd1, 0xb6, 0xdb, 0xc6, 0x3d, 0xe8, 0x36, 0xf2,
  0x30, 0x1e, 0xe4, 0x3a, 0x00, 0x04, 0x11, 0x1b, 0xc1, 0xcf, 0x58, 0x29,
  0x24, 0xf0, 0xd2, 0xba, 0xc4, 0x3a, 0xe6, 0xe4, 0x1d, 0xaa, 0xc7, 0x00,
  0x4a, 0xc3, 0x7f, 0xe2, 0xf0, 0xf8, 0x07, 0x32, 0xac, 0x0d, 0x19, 0xec,
  0xde, 0xc7, 0xce, 0x26, 0xfe, 0x09, 0xe4, 0xc8, 0xa7, 0xf7, 0xe2, 0xf0,
  0xef, 0x1b, 0x35, 0x1e, 0xd3, 0x0b, 0xc0, 0xbc, 0xb0, 0x21, 0x2f, 0x19,
  0x63, 0xd6, 0xc5, 0x08, 0xe0, 0x47, 0x0a, 0x17, 0x37, 0xc7, 0xcb, 0xbb,
  0x0d, 0xe1, 0x53, 0x1a, 0x0c, 0xcc, 0x13, 0xe0, 0xad, 0x0a, 0xd3, 0xdb,
  0xec, 0x26, 0xc3, 0xc9, 0x1e, 0x13, 0x01, 0x0e, 0xcb, 0xfd, 0x4e, 0xf9,
  0x03, 0xcb, 0xf3, 0x33, 0x1a, 0x47, 0x00, 0x35, 0x23, 0x69, 0xaa, 0xab,
  0x1d, 0x0a, 0xcc, 0x29, 0xea, 0xe2, 0xbe, 0x25, 0x2c, 0x32, 0xa4, 0x38,
  0xce, 0x03, 0xe4, 0xee, 0x6d, 0x30, 0xb8, 0xc8, 0x04, 0xb8, 0x00, 0x9f,
  0xc1, 0x26, 0x4d, 0x01, 0xd3, 0x1d, 0x37, 0x55, 0xcb, 0x52, 0xd5, 0xde,
  0x5a, 0x4b, 0xf3, 0xdc, 0x03, 0x3e, 0x0e, 0xdd, 0x1f, 0xde, 0xd0, 0x31,
  0x11, 0x52, 0x05, 0x48, 0xe4, 0xda, 0x1c, 0x23, 0x2d, 0x42, 0xba, 0xe3,
  0xe5, 0x2c, 0xcf, 0xc4, 0xbb, 0xec, 0x4b, 0xd3, 0xef, 0x3c, 0xe7, 0x58,
  0xcc, 0x07, 0xe0, 0x39, 0xf0, 0x04, 0x11, 0xf5, 0x14, 0xe2, 0x1d, 0xd1,
  0x14, 0x2f, 0xe8, 0xd2, 0xf8, 0x0e, 0xd4, 0xc2, 0xe4, 0xa8, 0xf5, 0xb1,
  0x0d, 0x0d, 0x05, 0x2a, 0x35, 0x40, 0xcf, 0x18, 0x41, 0x10, 0xbd, 0x5a,
  0x42, 0xc5, 0x22, 0xf9, 0xfd, 0x1a, 0xe6, 0xdd, 0xe4, 0xa8, 0xbc, 0xd2,
  0x1c, 0xba, 0x09, 0xf3, 0xcf, 0x10, 0x1b, 0x2e, 0xf9, 0xe4, 0xeb, 0xc3,
  0x22, 0xe9, 0xc2, 0x0b, 0x30, 0x14, 0xeb, 0xac, 0x18, 0x4a, 0xed, 0xdd,
  0x81, 0xdf, 0xc2, 0x05, 0xe3, 0x09, 0xa1, 0xf1, 0x30, 0xe6, 0xb0, 0x0c,
  0xda, 0x4b, 0x0c, 0xe4, 0x16, 0x19, 0x64, 0xe0, 0xa8, 0x01, 0x38, 0x02,
  0xf7, 0xc2, 0xdf, 0x07, 0xe1, 0xfc, 0xfb, 0x45, 0x2b, 0x56, 0xd3, 0xbb,
  0x17, 0x15, 0x42, 0xcf, 0xeb, 0xc0, 0x0a, 0xea, 0xed, 0x2f, 0x29, 0x50,
  0x0b, 0xe0, 0xd5, 0xc6, 0x38, 0x0d, 0xe0, 0xed, 0xfe, 0x45, 0x6b, 0x1c,
  0xf0, 0xd6, 0xd9, 0xd5, 0xe1, 0xe8, 0x20, 0xb5, 0xd0, 0xb2, 0x00, 0x1a,
  0xf9, 0x1a, 0x19, 0xf3, 0x2e, 0xb9, 0xed, 0xfa, 0x90, 0xb0, 0xd3, 0x2d,
  0xbb, 0x03, 0xb5, 0x11, 0x12, 0xe1, 0x1f, 0x14, 0x25, 0x2d, 0x32, 0xe6,
  0x9d, 0x28, 0xd9, 0x09, 0x09, 0x0a, 0x40, 0x09, 0xba, 0xfa, 0xb2, 0x18,
  0x11, 0x27, 0xbb, 0xd7, 0x0c, 0x81, 0xe0, 0x51, 0xcc, 0xe8, 0xfc, 0x06,
  0x37, 0xb6, 0x9f, 0x11, 0xff, 0x12, 0x2e, 0xed, 0x20, 0x01, 0xb8, 0xcc,
  0xe4, 0xe3, 0xf5, 0x05, 0x1b, 0x27, 0x40, 0x49, 0x34, 0x13, 0x27, 0xea,
  0xab, 0x25, 0xc8, 0xa3, 0x2e, 0x01, 0x3a, 0x60, 0xec, 0xef, 0xe2, 0x31,
  0x30, 0x2f, 0xea, 0xf5, 0xda, 0x21, 0xa2, 0xfc, 0xfe, 0x08, 0x73, 0xa5,
  0xc4, 0xde, 0x35, 0xc6, 0xd5, 0x33, 0x12, 0x17, 0x72, 0xdb, 0xbc, 0x1c,
  0xb3, 0xeb, 0xd8, 0x13, 0xc7, 0x0f, 0x93, 0xbc, 0xe3, 0xf5, 0x2b, 0x3d,
  0x60, 0x14, 0x60, 0x20, 0x38, 0xbe, 0x22, 0x0e, 0x0d, 0x1d, 0x1f, 0xce,
  0x37, 0xd0, 0x5a, 0xfe, 0xe3, 0x37, 0x7f, 0xe6, 0xd6, 0x47, 0x36, 0x30,
  0x2a, 0xf1, 0x24, 0x20, 0x02, 0x2e, 0xbf, 0x42, 0xbe, 0x27, 0x09, 0x0b,
  0x5f, 0x2b, 0xb5, 0xf3, 0xce, 0xe5, 0x83, 0x2a, 0x2a, 0x0a, 0x3a, 0xf3,
  0x09, 0x2b, 0x0b, 0x0f, 0x07, 0xcb, 0x03, 0x5f, 0xd2, 0xe5, 0x31, 0x2c,
  0xdf, 0xa8, 0xf7, 0xef, 0x21, 0xfe, 0xc7, 0xf5, 0x0c, 0xef, 0xe7, 0xdb,
  0xbc, 0xff, 0xeb, 0x38, 0xf7, 0xfe, 0x22, 0x12, 0xed, 0x46, 0xd7, 0xdd,
  0x2e, 0x0d, 0x2b, 0xce, 0xdf, 0x04, 0x34, 0xf3, 0xd6, 0xd8, 0xf6, 0x22,
  0xd0, 0xdf, 0xfe, 0xab, 0x24, 0x93, 0x1e, 0xc1, 0xf2, 0x37, 0xce, 0x31,
  0x03, 0xb0, 0xbe, 0xb3, 0x08, 0xad, 0xaf, 0xe3, 0x4d, 0xb6, 0x54, 0x11,
  0x0e, 0x06, 0x09, 0xd7, 0x01, 0xe6, 0xf7, 0x48, 0x42, 0xff, 0x06, 0x2f,
  0xe8, 0x1e, 0xdb, 0x2e, 0x39, 0x18, 0x09, 0xc7, 0x14, 0x05, 0xd8, 0xed,
  0x7f, 0xf2, 0xec, 0x31, 0xf0, 0x33, 0xe3, 0xcf, 0xca, 0xdc, 0xfb, 0x02,
  0xce, 0x0e, 0x0f, 0xfc, 0xb1, 0xbc, 0xbe, 0x99, 0x85, 0x1e, 0xed, 0xd3,
  0xce, 0xd6, 0xed, 0x01, 0x10, 0xe8, 0x00, 0xe0, 0x29, 0x87, 0xbb, 0xab,
  0x05, 0xea, 0xe3, 0xd2, 0x11, 0xcd, 0xfb, 0xd0, 0xe7, 0x3b, 0x03, 0x3e,
  0xf6, 0x0a, 0xfe, 0xfd, 0xd6, 0x24, 0x12, 0x03, 0x1c, 0x25, 0x1d, 0x15,
  0xff, 0xfd, 0xed, 0x40, 0x20, 0xd9, 0x10, 0xd3, 0x2f, 0xd7, 0x4b, 0xe2,
  0xf2, 0xef, 0xd5, 0xd8, 0xde, 0xe2, 0x37, 0x25, 0x0e, 0x06, 0xf9, 0xfd,
  0xcc, 0xe7, 0x3c, 0xeb, 0x40, 0x0a, 0x99, 0x2f, 0x04, 0x0e, 0xab, 0x28,
  0xb8, 0xc6, 0x46, 0x05, 0xea, 0xfc, 0xea, 0xee, 0x26, 0x11, 0xcb, 0x06,
  0x22, 0x3a, 0x18, 0x4d, 0xae, 0x31, 0xcf, 0x0b, 0x04, 0xc4, 0x0c, 0xfe,
  0x03, 0xd6, 0xd5, 0x32, 0xfe, 0xe1, 0x19, 0x47, 0xde, 0x1e, 0xca, 0xb9,
  0xf7, 0x60, 0x67, 0x24, 0x16, 0xe7, 0x02, 0xaa, 0x1f, 0xe0, 0xc4, 0xff,
  0x91, 0xe8, 0xf3, 0x5c, 0xb3, 0xff, 0x30, 0xe2, 0x3f, 0x48, 0xbe, 0xc4,
  0x44, 0x0b, 0x81, 0xab, 0xe6, 0x18, 0x4f, 0xa1, 0x9a, 0x0d, 0xa0, 0x38,
  0xd9, 0x08, 0xc3, 0x0c, 0xa3, 0xc3, 0x30, 0x65, 0xe0, 0xbe, 0xb1, 0x0a,
  0x2d, 0x28, 0x2a, 0x0d, 0x1d, 0xce, 0xf7, 0xd9, 0xab, 0x00, 0xb0, 0x22,
  0xe3, 0x1b, 0xd1, 0x40, 0x18, 0x21, 0x2c, 0xe8, 0xb6, 0xb8, 0x2a, 0xa7,
  0x2e, 0xc7, 0x12, 0xfe, 0x6c, 0x2e, 0x18, 0xf2, 0xe1, 0x4e, 0x3c, 0xe2,
  0xea, 0xbc, 0x7c, 0x12, 0x05, 0x36, 0xe3, 0xf2, 0x09, 0xae, 0xbd, 0x22,
  0xb6, 0xfc, 0x32, 0x19, 0x2b, 0x3e, 0xff, 0x5b, 0x0e, 0x2b, 0x99, 0x6e,
  0xd0, 0x42, 0x18, 0x1a, 0x99, 0xf8, 0xf5, 0x1b, 0xe7, 0x06, 0xd3, 0x0a,
  0x3f, 0x2f, 0xb2, 0x4a, 0xdf, 0xa7, 0xec, 0x33, 0xde, 0x2e, 0xd6, 0xd6,
  0x2f, 0x17, 0xf5, 0xd3, 0x0e, 0x0a, 0xd8, 0x31, 0x29, 0x14, 0x18, 0xd3,
  0xee, 0x0a, 0x0b, 0x04, 0x33, 0x11, 0xf5, 0xdb, 0xc8, 0xef, 0xfb, 0xc2,
  0xf1, 0xf1, 0x00, 0xfb, 0x46, 0xf1, 0xcf, 0xe1, 0xed, 0x1e, 0xf6, 0xd3,
  0x0c, 0x17, 0xff, 0x1c, 0x21, 0xcb, 0x3c, 0x33, 0xc5, 0x3b, 0x25, 0x19,
  0xee, 0x22, 0xcf, 0x0d, 0xf1, 0x22, 0x1a, 0x36, 0xf2, 0x2d, 0xea, 0xd1,
  0x2f, 0xd9, 0xde, 0xf7, 0xdb, 0xd4, 0xf5, 0x21, 0x12, 0x2e, 0xcf, 0xe3,
  0x46, 0x50, 0xf5, 0xb4, 0x23, 0x02, 0xce, 0x42, 0xdd, 0x0f, 0xf7, 0x1e,
  0xfb, 0xce, 0x37, 0xd5, 0x57, 0x03, 0xd3, 0x27, 0x14, 0x09, 0x1f, 0xee,
  0xec, 0x39, 0x07, 0xf1, 0x21, 0xd4, 0xdd, 0x2e, 0x81, 0x18, 0xd9, 0xdf,
  0xf2, 0xca, 0xeb, 0x11, 0x05, 0x0c, 0xcd, 0xd5, 0xdd, 0x00, 0xf1, 0xf2,
  0x01, 0x22, 0x14, 0x13, 0x3f, 0xe1, 0x1e, 0xf0, 0x22, 0x29, 0xfe, 0x0f,
  0xe0, 0xdc, 0xe7, 0xd3, 0x8e, 0xdb, 0xff, 0xff, 0x04, 0x00, 0x00, 0x00,
  0x00, 0x02, 0x00, 0x00, 0x25, 0xce, 0x0f, 0x96, 0xe8, 0x94, 0xed, 0x09,
  0x13, 0xcf, 0xfb, 0x9c, 0xaa, 0xc2, 0x00, 0xbe, 0x7f, 0xdb, 0xef, 0x0c,
  0xd3, 0x48, 0x29, 0x18, 0x04, 0x9d, 0x30, 0x4f, 0x15, 0xf5, 0xaf, 0xee,
  0x52, 0x47, 0xad, 0xac, 0xbd, 0xdd, 0x86, 0xf9, 0x9d, 0x32, 0xbc, 0x6d,
  0x10, 0x5e, 0xbd, 0x01, 0x71, 0x79, 0xd5, 0xe4, 0xfe, 0xc0, 0x42, 0x8e,
  0x20, 0xd5, 0x9e, 0x81, 0xb5, 0x47, 0xff, 0x69, 0xe1, 0x07, 0xe9, 0x3e,
  0xbe, 0x83, 0xdb, 0x5f, 0x9c, 0x57, 0xed, 0x94, 0x40, 0x33, 0xa6, 0x4d,
  0x81, 0xc8, 0x04, 0x00, 0xc1, 0x00, 0xcb, 0x24, 0x3d, 0x90, 0xa2, 0xab,
  0x13, 0x55, 0xda, 0x47, 0x54, 0x48, 0x4d, 0xc4, 0x49, 0x43, 0x69, 0x15,
  0xf2, 0xdf, 0x2d, 0xf6, 0xb9, 0xbe, 0xcd, 0x5c, 0xcb, 0x55, 0x6a, 0x2b,
  0xdb, 0x75, 0xec, 0x78, 0xf9, 0x27, 0xce, 0x38, 0x33, 0xf3, 0x81, 0xcd,
  0x42, 0xf1, 0x41, 0xb3, 0xd4, 0xfc, 0xff, 0xd0, 0xe3, 0xf3, 0x5a, 0x41,
  0xc9, 0x2f, 0xb4, 0x1e, 0xf0, 0x7f, 0x54, 0xf7, 0xc9, 0xe4, 0x3c, 0x5f,
  0xc2, 0x0e, 0xd2, 0xea, 0xe8, 0xa3, 0x36, 0xe2, 0x36, 0x1b, 0xbd, 0x1b,
  0xf0, 0x8b, 0xcc, 0x19, 0x2d, 0x74, 0xd6, 0x14, 0xc7, 0x90, 0x95, 0x27,
  0x60, 0x9b, 0xc1, 0xc0, 0x7c, 0xd9, 0x7f, 0x4a, 0xa3, 0x85, 0x66, 0x95,
  0x49, 0x08, 0x51, 0x41, 0xa5, 0xcd, 0x50, 0x7b, 0x22, 0xd7, 0xe0, 0x6a,
  0x90, 0xec, 0x5b, 0xe1, 0xe1, 0xbb, 0x73, 0xde, 0xa3, 0x18, 0x69, 0x41,
  0x2e, 0x68, 0x7f, 0x37, 0x98, 0xde, 0xe5, 0x26, 0x9f, 0x35, 0x02, 0xa1,
  0xd9, 0x63, 0xd6, 0x9f, 0x22, 0x9e, 0xb3, 0x7f, 0x87, 0xa4, 0x56, 0x48,
  0xe3, 0x46, 0x90, 0xb1, 0xc3, 0xe8, 0xff, 0xe9, 0xc0, 0x24, 0x4c, 0xee,
  0xd1, 0x6a, 0x4f, 0x72, 0xe6, 0xab, 0x73, 0x79, 0xe9, 0x39, 0x74, 0xdb,
  0x25, 0x6b, 0x14, 0xcd, 0xf2, 0x6f, 0xe9, 0x92, 0xe1, 0x9b, 0x5f, 0x1e,
  0x98, 0x22, 0xc6, 0x28, 0x64, 0xba, 0xfc, 0x31, 0x48, 0xa2, 0x6d, 0x97,
  0x33, 0x81, 0xb2, 0x55, 0x89, 0x7a, 0xe4, 0x60, 0x98, 0x61, 0xd6, 0x83,
  0x42, 0x72, 0x23, 0x2f, 0x81, 0x7f, 0xec, 0xb3, 0x46, 0x4f, 0x6f, 0x6a,
  0xfd, 0xe0, 0x56, 0x7c, 0x04, 0xeb, 0x93, 0x89, 0xc3, 0x4d, 0x47, 0x68,
  0xb3, 0xf3, 0xf8, 0x5f, 0xf5, 0xc0, 0xa3, 0xc1, 0x0a, 0x14, 0x02, 0xef,
  0xa6, 0x17, 0x6b, 0x2f, 0xba, 0xfd, 0x1e, 0xa8, 0x81, 0xaa, 0xda, 0xaa,
  0x5c, 0xdd, 0x35, 0xc8, 0x13, 0x3a, 0xff, 0xc7, 0xa7, 0x7e, 0x4a, 0x2e,
  0x4a, 0xe7, 0x65, 0x06, 0x16, 0xe7, 0x3f, 0x17, 0xcf, 0xdc, 0x03, 0xc0,
  0x72, 0xe4, 0xde, 0xa2, 0x81, 0xf0, 0x51, 0xa5, 0x01, 0x17, 0xb8, 0x53,
  0x67, 0x2a, 0xef, 0x9e, 0x8d, 0x5a, 0xfe, 0x1e, 0x7f, 0xc1, 0xad, 0xa4,
  0xaa, 0x66, 0x5c, 0xcb, 0xb1, 0xbb, 0x4c, 0x18, 0x27, 0x3e, 0x4d, 0xcd,
  0xdb, 0x32, 0xf3, 0xc8, 0x9b, 0xb2, 0x87, 0xa6, 0x60, 0xfd, 0x00, 0x4f,
  0xdf, 0xca, 0xf8, 0x32, 0xaa, 0x7f, 0x8f, 0xff, 0x5c, 0x2a, 0x6b, 0x26,
  0x30, 0xce, 0xa0, 0x42, 0xca, 0xf7, 0x1e, 0x60, 0x83, 0xce, 0x48, 0x6e,
  0xa5, 0xd2, 0xd0, 0x41, 0x6b, 0xfb, 0xdb, 0xda, 0x53, 0xb1, 0x3d, 0x29,
  0x7f, 0xdd, 0xb3, 0x15, 0x1a, 0xf1, 0x54, 0xf5, 0x69, 0xbe, 0x17, 0x17,
  0x26, 0x69, 0xa8, 0x06, 0xee, 0x64, 0xdd, 0xe2, 0x81, 0x54, 0x01, 0xaf,
  0x07, 0xd7, 0x41, 0xfe, 0x6f, 0xd4, 0x01, 0xf9, 0x9d, 0xbe, 0x94, 0xd8,
  0x8f, 0x2d, 0x3a, 0x8a, 0x62, 0x9e, 0x59, 0x5a, 0x0c, 0x1f, 0x81, 0xda,
  0xd4, 0xa7, 0x2b, 0x2c, 0xfb, 0xac, 0x5c, 0x27, 0xee, 0x2e, 0x2a, 0x16,
  0x9a, 0xdd, 0xff, 0xff, 0x04, 0x00, 0x00, 0x00, 0x00, 0x12, 0x00, 0x00,
  0xf6, 0x49, 0x1b, 0x0f, 0x58, 0x49, 0xfc, 0xe0, 0x00, 0x0a, 0x01, 0x71,
  0x06, 0xf5, 0x09, 0x19, 0x04, 0xdd, 0xe3, 0x04, 0x13, 0x2b, 0x57, 0xf0,
  0x26, 0xea, 0xe8, 0x39, 0xd9, 0xf8, 0x2b, 0xfd, 0x11, 0xd5, 0x5e, 0xfe,
  0xb8, 0xd7, 0x1d, 0xcc, 0xc5, 0xcf, 0x1f, 0x07, 0x02, 0x1f, 0x03, 0xf1,
  0xf6, 0x63, 0xb1, 0x14, 0x47, 0x48, 0x67, 0xda, 0xde, 0x5b, 0xf6, 0x3c,
  0xee, 0x1e, 0x3c, 0x1a, 0xc8, 0xf7, 0x0f, 0x05, 0x4c, 0xf7, 0xf6, 0x17,
  0xbe, 0x43, 0xf3, 0x1e, 0x39, 0x3e, 0xe7, 0xf4, 0xdf, 0xb5, 0x52, 0xd9,
  0x43, 0x16, 0xb4, 0x41, 0x44, 0x3a, 0x45, 0xcb, 0x51, 0x44, 0x42, 0xe5,
  0xbc, 0x10, 0xd4, 0x3c, 0x0b, 0x15, 0x12, 0x9a, 0xd6, 0xdf, 0x44, 0x2d,
  0x1e, 0xdb, 0x01, 0xed, 0xf3, 0xbf, 0xb2, 0x7f, 0xc5, 0xb7, 0xa6, 0x8f,
  0x42, 0x13, 0x93, 0x1d, 0x25, 0xd9, 0x0e, 0xba, 0xdf, 0xc7, 0xd3, 0x28,
  0x38, 0x0c, 0xf9, 0xb7, 0xfe, 0xe6, 0xda, 0x0d, 0x38, 0x7d, 0x6e, 0x00,
  0xc4, 0xbc, 0x1e, 0xec, 0xbd, 0xa7, 0x15, 0xfa, 0xfb, 0xf3, 0x8d, 0xa8,
  0xd7, 0xd5, 0x22, 0xc6, 0x8f, 0xb4, 0xea, 0xc4, 0xe5, 0xb5, 0xcd, 0xfa,
  0x17, 0xbe, 0xf6, 0xad, 0x19, 0xe9, 0x02, 0xbf, 0x09, 0xca, 0x45, 0x13,
  0x2f, 0x0f, 0xef, 0xd7, 0x1c, 0xd9, 0x2a, 0x12, 0x15, 0x48, 0x0c, 0x10,
  0xfa, 0xed, 0x0d, 0x3d, 0xd2, 0xad, 0xe4, 0xc4, 0xea, 0xe0, 0x06, 0xb0,
  0xe7, 0xe8, 0xcc, 0xdc, 0xe5, 0xf2, 0xf2, 0x09, 0x0a, 0x35, 0xa0, 0x23,
  0x1c, 0xf7, 0x12, 0xba, 0xf7, 0x35, 0x30, 0xdf, 0x07, 0xf4, 0x2b, 0xd4,
  0x22, 0x03, 0x27, 0x14, 0xd6, 0xe8, 0xf5, 0xf9, 0x17, 0x28, 0xf6, 0xdf,
  0xdd, 0xd5, 0xdb, 0xaf, 0xd6, 0xc8, 0x81, 0x2a, 0xd5, 0xe6, 0x9b, 0xeb,
  0xf3, 0xc6, 0xd6, 0xec, 0x06, 0x1e, 0xf2, 0x51, 0x0b, 0x08, 0x0f, 0x62,
  0x34, 0xe7, 0x36, 0xce, 0x20, 0xe6, 0x37, 0xdd, 0xd0, 0x13, 0xd7, 0xec,
  0xf1, 0x2d, 0x31, 0xe5, 0x1d, 0x39, 0x13, 0x30, 0x30, 0x0c, 0x27, 0xee,
  0xdb, 0xd5, 0xfc, 0x19, 0xde, 0x1e, 0xe9, 0x9a, 0x7f, 0x39, 0x01, 0x07,
  0x13, 0xd5, 0xf3, 0x16, 0x33, 0xf9, 0x34, 0x0b, 0xc6, 0xe4, 0xe9, 0xc7,
  0x0d, 0x07, 0xe0, 0x4f, 0x20, 0x04, 0xd3, 0xda, 0x17, 0xd7, 0xad, 0x2b,
  0xeb, 0x12, 0xfc, 0x1f, 0xed, 0xec, 0x36, 0xa7, 0xbe, 0xfa, 0xef, 0xe2,
  0xd6, 0x2a, 0x6f, 0x32, 0xf7, 0xdc, 0xf1, 0xe7, 0x1e, 0x50, 0x35, 0xf9,
  0x3a, 0xea, 0xe9, 0x13, 0x9d, 0xce, 0xca, 0xd4, 0x28, 0xb7, 0x49, 0x55,
  0xf4, 0xd9, 0xd6, 0xe4, 0xaf, 0xf3, 0xda, 0x04, 0xe7, 0xf1, 0x22, 0x28,
  0x15, 0xb2, 0x3e, 0xcd, 0xb6, 0xe9, 0xb7, 0x48, 0x4c, 0x18, 0x32, 0x18,
  0xca, 0xdc, 0x1c, 0xc4, 0xe9, 0x44, 0x0c, 0x35, 0x21, 0xb6, 0xe3, 0x02,
  0x2f, 0x16, 0x41, 0xce, 0xea, 0x38, 0xc6, 0x0a, 0xfe, 0xe5, 0xf6, 0x24,
  0xc9, 0xdd, 0xf4, 0xf5, 0x21, 0xdd, 0xf1, 0xf7, 0x29, 0xc6, 0x61, 0x50,
  0xef, 0xcb, 0x3e, 0x18, 0x19, 0xf0, 0x19, 0xcd, 0x1e, 0xce, 0x36, 0x0e,
  0x21, 0xc7, 0x26, 0x0f, 0x5e, 0x02, 0x05, 0xcb, 0x41, 0x47, 0x57, 0x0c,
  0x4a, 0x34, 0xe4, 0x63, 0x52, 0xf7, 0xc6, 0xca, 0x2e, 0x1e, 0x04, 0x0b,
  0x0a, 0xf9, 0x3a, 0x32, 0xd4, 0x3a, 0x78, 0x36, 0xdb, 0x40, 0xc0, 0x02,
  0x0a, 0xfb, 0x08, 0xe0, 0xc6, 0xc3, 0x3b, 0x03, 0xe8, 0x1a, 0x81, 0x3a,
  0x03, 0xfe, 0x0d, 0xd4, 0x95, 0xcb, 0xf4, 0xf6, 0xc4, 0xec, 0x28, 0x16,
  0x43, 0xcd, 0x32, 0xe7, 0x68, 0xba, 0x30, 0xb2, 0x3d, 0xd5, 0x4d, 0x1b,
  0xf8, 0x2d, 0xe2, 0xcc, 0x17, 0xd5, 0x47, 0x1c, 0x54, 0x2d, 0x12, 0xda,
  0x15, 0xdd, 0x26, 0x08, 0xf6, 0x1a, 0x06, 0x4f, 0xbe, 0xab, 0xb6, 0x19,
  0x1c, 0x9e, 0x25, 0x5c, 0xb3, 0x15, 0xa8, 0xa7, 0x52, 0x02, 0x3b, 0xfa,
  0x0f, 0xec, 0x14, 0x1d, 0x2f, 0x25, 0xbe, 0xb2, 0x14, 0x54, 0xfc, 0x34,
  0xc7, 0x25, 0x5d, 0x35, 0x1c, 0x37, 0x5f, 0xf1, 0xeb, 0x19, 0xed, 0xa2,
  0x1c, 0xeb, 0xe3, 0x01, 0x04, 0xdb, 0xcb, 0x03, 0x06, 0x9d, 0xa1, 0xe1,
  0x3c, 0x2d, 0x34, 0xc7, 0xff, 0x04, 0xcd, 0xd7, 0xc6, 0xdb, 0x07, 0xbd,
  0xa5, 0xdf, 0xc0, 0xdd, 0xe5, 0xd2, 0xda, 0x05, 0xe4, 0xb0, 0x45, 0x0a,
  0x2f, 0xc8, 0xd4, 0x2b, 0x35, 0x5a, 0x44, 0x08, 0xf4, 0xce, 0x2c, 0xed,
  0xfa, 0x56, 0x22, 0x52, 0x7f, 0x53, 0xdd, 0x4f, 0x0e, 0x19, 0x26, 0x36,
  0x2a, 0xfb, 0x13, 0x21, 0xcd, 0x13, 0xae, 0xbd, 0xf1, 0xbe, 0x4d, 0x07,
  0x06, 0x17, 0xe7, 0xc7, 0x93, 0xb5, 0x9e, 0x16, 0xd9, 0xd3, 0xde, 0xdd,
  0xba, 0xe0, 0x8f, 0xbe, 0x88, 0x2f, 0xee, 0xd6, 0x11, 0x62, 0x03, 0xe0,
  0xee, 0xc0, 0x4e, 0x46, 0xd6, 0x5f, 0x07, 0xfb, 0x31, 0x13, 0xee, 0x0e,
  0x11, 0xfc, 0x0a, 0x24, 0xd1, 0xcd, 0xd1, 0x08, 0x05, 0x1a, 0xe4, 0x12,
  0xfb, 0x39, 0x4a, 0x09, 0xd3, 0xed, 0x9a, 0x4f, 0x7b, 0x29, 0x15, 0xfe,
  0x0a, 0xf8, 0x9a, 0xbf, 0xfd, 0xfc, 0x9f, 0xfd, 0xb0, 0xe5, 0x12, 0x24,
  0xad, 0x39, 0xfe, 0x24, 0x1b, 0xb2, 0xf6, 0xf6, 0xca, 0xac, 0xd9, 0xc3,
  0xc5, 0xab, 0x03, 0xd1, 0xaf, 0xcb, 0xe7, 0xd8, 0xfd, 0xec, 0xe5, 0x81,
  0xae, 0xd9, 0xf8, 0x28, 0xf4, 0xd1, 0x5c, 0x50, 0xfb, 0x31, 0x21, 0x53,
  0x0f, 0xce, 0x44, 0x03, 0xfe, 0x0c, 0xd3, 0xc3, 0x6b, 0xac, 0x98, 0xc3,
  0x01, 0x38, 0x28, 0xad, 0x14, 0x4b, 0x28, 0x19, 0x17, 0x15, 0xe6, 0x2f,
  0x13, 0xdc, 0x1c, 0x26, 0xcb, 0x2e, 0xd7, 0xf4, 0xda, 0xf4, 0xff, 0xae,
  0xf2, 0x08, 0x02, 0xf3, 0xbf, 0xc5, 0x58, 0x63, 0xe7, 0x33, 0x19, 0xee,
  0xed, 0xd6, 0xe1, 0xb2, 0x4b, 0x21, 0x70, 0x21, 0x00, 0xce, 0x06, 0x42,
  0xf7, 0x2e, 0xd0, 0x08, 0xb1, 0x18, 0x31, 0xe5, 0x25, 0x33, 0x14, 0xb4,
  0xc7, 0xbb, 0x9d, 0x39, 0xdc, 0xc0, 0xdc, 0xd0, 0x1f, 0x30, 0xf2, 0xd8,
  0xed, 0xd2, 0xff, 0x97, 0x2a, 0xeb, 0xf7, 0xed, 0x4d, 0xdc, 0xe2, 0x23,
  0x54, 0xe6, 0xea, 0x23, 0x25, 0xbb, 0x09, 0x43, 0xb3, 0x00, 0x40, 0xe1,
  0x06, 0xc2, 0x19, 0x9a, 0x0d, 0xad, 0x1c, 0x0d, 0x6e, 0xea, 0xc8, 0x18,
  0xd4, 0xdd, 0xa7, 0x16, 0x1f, 0xda, 0x0e, 0x02, 0x15, 0x1a, 0xc9, 0xe0,
  0x1a, 0xf3, 0xc3, 0x01, 0xfd, 0xa3, 0xe4, 0x0c, 0xe2, 0x05, 0xd6, 0x36,
  0xe3, 0xd6, 0xec, 0xc9, 0x4d, 0xbc, 0xd2, 0x0a, 0xde, 0x0a, 0x5f, 0x70,
  0x30, 0xf8, 0xc9, 0x41, 0x19, 0x30, 0x3b, 0xe4, 0xf5, 0xec, 0x03, 0xf3,
  0x76, 0x3d, 0x62, 0x3c, 0x52, 0x47, 0x1e, 0x5b, 0x23, 0xd0, 0xd6, 0x31,
  0x3f, 0x3b, 0x1b, 0x09, 0xc5, 0x26, 0xc1, 0x42, 0x2e, 0x38, 0xd2, 0xae,
  0xf2, 0xca, 0xa1, 0x5c, 0xaf, 0x29, 0x09, 0xca, 0xa5, 0x4a, 0xb5, 0xf9,
  0xfc, 0x23, 0x27, 0x1c, 0xbb, 0xe4, 0x26, 0xfa, 0x1b, 0x1f, 0xe1, 0x05,
  0x0c, 0x03, 0xec, 0xd5, 0xf5, 0x34, 0xd6, 0x15, 0xae, 0x10, 0x5b, 0xe5,
  0x26, 0x47, 0x42, 0x08, 0xf6, 0x4b, 0x5d, 0xec, 0x26, 0xd0, 0xbe, 0x57,
  0x77, 0x39, 0x13, 0x21, 0x4a, 0xd0, 0x41, 0x11, 0x0d, 0x1b, 0x63, 0xaf,
  0x23, 0x35, 0xbd, 0x7f, 0xe0, 0x0c, 0x3f, 0x09, 0xdc, 0x03, 0x20, 0x57,
  0x14, 0x43, 0x13, 0xf7, 0x06, 0x07, 0xcb, 0x43, 0x7a, 0x57, 0xfa, 0x54,
  0x11, 0x3e, 0xef, 0x46, 0x51, 0x1f, 0xc4, 0xf6, 0x13, 0xe4, 0x6e, 0xd1,
  0x0c, 0xf4, 0x28, 0x72, 0xf0, 0x32, 0xe7, 0x33, 0x24, 0x3e, 0xf5, 0x02,
  0x57, 0x14, 0x3b, 0x90, 0xde, 0xe7, 0xf8, 0xf0, 0xdc, 0x50, 0x1f, 0x2d,
  0xeb, 0x1a, 0x60, 0x3f, 0x0c, 0x06, 0x36, 0xc9, 0x29, 0x54, 0x26, 0x07,
  0xd5, 0x20, 0x2b, 0x2a, 0x5b, 0xe9, 0x17, 0x9d, 0xf3, 0x62, 0x05, 0x18,
  0xb7, 0xcd, 0x36, 0x7f, 0xb0, 0xe5, 0xb4, 0x27, 0xb6, 0x9b, 0xd1, 0x10,
  0xaf, 0x1f, 0xda, 0xda, 0x4e, 0xda, 0xef, 0xaa, 0xe2, 0xc7, 0xbf, 0x3a,
  0xd3, 0x0c, 0x24, 0x6c, 0x59, 0x1f, 0x23, 0x48, 0x6f, 0x26, 0xcd, 0xef,
  0x36, 0x42, 0x5b, 0x59, 0xfc, 0x6b, 0x31, 0x86, 0x52, 0x4d, 0x21, 0x04,
  0x2f, 0x2b, 0xf2, 0x37, 0x28, 0x01, 0x11, 0x37, 0x03, 0x0c, 0x19, 0x3f,
  0xcd, 0xc7, 0x10, 0xfe, 0xdb, 0x4b, 0xb0, 0xc6, 0xea, 0x26, 0x0c, 0xcf,
  0xc6, 0x44, 0xbd, 0xf8, 0x14, 0xde, 0x9c, 0x17, 0x46, 0xaa, 0xed, 0xad,
  0x0e, 0xf8, 0xd9, 0xc8, 0xe6, 0x42, 0x3d, 0xe3, 0xe3, 0xe4, 0xd6, 0xef,
  0x29, 0xc5, 0xfe, 0xd7, 0xbd, 0xcd, 0xd4, 0x1f, 0x34, 0x26, 0x5e, 0x5f,
  0xd3, 0x48, 0xf4, 0x5c, 0x0d, 0xfd, 0x55, 0xf8, 0xf1, 0x2b, 0xb3, 0x4f,
  0xcc, 0x1a, 0xd1, 0x02, 0xda, 0xfc, 0x2b, 0x6b, 0xbf, 0x20, 0x23, 0x3d,
  0xf3, 0xfd, 0x04, 0x18, 0x22, 0x30, 0x04, 0x0d, 0x2c, 0xb9, 0xe2, 0x66,
  0xde, 0xec, 0xb4, 0x19, 0xd4, 0x43, 0x77, 0x3b, 0xe7, 0x66, 0xac, 0xc3,
  0x27, 0xd8, 0x34, 0xee, 0xe4, 0x0c, 0xe3, 0xed, 0xf6, 0x0b, 0xbb, 0x57,
  0xb7, 0x34, 0xc4, 0xe1, 0xa6, 0xbe, 0xdb, 0xc0, 0x8d, 0x25, 0xff, 0x4a,
  0xd6, 0xf5, 0x49, 0xb6, 0x07, 0xd0, 0x09, 0xcd, 0xfd, 0x49, 0x0b, 0x23,
  0x63, 0x08, 0x4a, 0x4c, 0xeb, 0x3a, 0xf3, 0xf3, 0x26, 0xf4, 0x7f, 0x4d,
  0x20, 0x0e, 0x0c, 0xf5, 0x04, 0x1c, 0xff, 0xe0, 0x54, 0xdb, 0x1d, 0x42,
  0x15, 0x9d, 0x90, 0x0b, 0x24, 0x9f, 0xd9, 0x0f, 0xf8, 0xf4, 0x51, 0x2a,
  0x44, 0x90, 0x1e, 0x09, 0x11, 0x5a, 0x19, 0x2b, 0xad, 0x06, 0x1c, 0x81,
  0xcc, 0x55, 0xf9, 0x0b, 0x0b, 0x05, 0x0f, 0xf9, 0xaf, 0x0d, 0x0b, 0x9c,
  0x28, 0xce, 0xf1, 0xfe, 0x1c, 0x10, 0x0a, 0xfe, 0x9d, 0x14, 0x14, 0xb7,
  0xe0, 0x55, 0xbd, 0x44, 0xba, 0x52, 0xbe, 0x11, 0xad, 0x48, 0xda, 0xbf,
  0x03, 0x0b, 0x19, 0xba, 0xb1, 0xa3, 0xdd, 0xc2, 0x3d, 0xe2, 0x0a, 0xfb,
  0xf5, 0x91, 0x4b, 0x52, 0xea, 0xb6, 0x8d, 0x02, 0xf4, 0xd9, 0xcf, 0x1a,
  0x17, 0xec, 0x38, 0xac, 0xd6, 0x92, 0xc3, 0x05, 0x0e, 0x39, 0x1d, 0xd6,
  0x64, 0xe6, 0x2b, 0x92, 0x1f, 0xee, 0x98, 0x8e, 0xbb, 0xc9, 0x40, 0x61,
  0xe5, 0x0b, 0x15, 0x5b, 0xb2, 0xcd, 0x39, 0x93, 0xb0, 0x23, 0xbc, 0xb0,
  0xff, 0x95, 0xf4, 0x63, 0x10, 0x3d, 0x5b, 0x39, 0xf8, 0xc8, 0x22, 0x34,
  0xa1, 0xf2, 0xfe, 0xda, 0x9a, 0xd1, 0x38, 0xe2, 0xcf, 0xe8, 0x26, 0x95,
  0xe9, 0x23, 0xff, 0x5f, 0xca, 0x14, 0x43, 0x09, 0xf8, 0xd4, 0xd2, 0x17,
  0x2e, 0xca, 0xc5, 0x2e, 0xe2, 0x36, 0xf2, 0xfc, 0x07, 0xb6, 0xd6, 0xe6,
  0xcc, 0x16, 0xf1, 0x47, 0x0f, 0x35, 0x68, 0xcc, 0xfe, 0x52, 0x0f, 0x24,
  0xf1, 0x4c, 0x37, 0x49, 0x36, 0xbc, 0xb0, 0xbf, 0x2b, 0x40, 0xf1, 0xf4,
  0xba, 0x39, 0x51, 0x01, 0x03, 0x4d, 0x55, 0xcc, 0xc9, 0x24, 0x20, 0x18,
  0xe6, 0x02, 0x27, 0xd6, 0xe9, 0x3e, 0x81, 0xc0, 0x1e, 0xb4, 0x45, 0x1f,
  0x0f, 0xdd, 0xcc, 0xf8, 0x22, 0x3e, 0xf7, 0x40, 0xe4, 0x1e, 0xea, 0x1e,
  0x48, 0xc2, 0x08, 0x4f, 0x0a, 0x0a, 0x9e, 0x3b, 0xac, 0xed, 0x2b, 0x34,
  0x11, 0xbe, 0x1a, 0xf5, 0xb6, 0x0f, 0xe5, 0xc8, 0x8f, 0xf4, 0x27, 0x0a,
  0xd3, 0x23, 0x06, 0xb1, 0x93, 0xd4, 0x82, 0x0f, 0x01, 0x05, 0xec, 0xb1,
  0xe7, 0xbc, 0xb9, 0x06, 0xc1, 0x0b, 0xd1, 0xc6, 0xcf, 0xe5, 0x9d, 0xce,
  0xc4, 0xf5, 0x2c, 0x46, 0xc0, 0xf7, 0x39, 0xc5, 0x12, 0xdc, 0xc2, 0x01,
  0xd0, 0xda, 0xc8, 0x2e, 0xdc, 0xd5, 0x10, 0xed, 0x3d, 0xfb, 0x08, 0xd8,
  0xf0, 0x09, 0x4a, 0xd2, 0x32, 0xe5, 0x23, 0x0e, 0x14, 0xf8, 0xe7, 0xec,
  0x24, 0x03, 0x1e, 0x14, 0x08, 0x3f, 0xff, 0xfc, 0xf4, 0xef, 0x0f, 0x0c,
  0x03, 0x05, 0x31, 0x10, 0xed, 0x42, 0x26, 0x23, 0xf5, 0x27, 0x1d, 0xe7,
  0x3e, 0xfd, 0xd1, 0x04, 0x17, 0x01, 0xe8, 0x08, 0xda, 0xfb, 0xfa, 0x0f,
  0xfb, 0xf9, 0xeb, 0x42, 0x22, 0x37, 0x10, 0x7f, 0x22, 0x2b, 0x24, 0x15,
  0x2d, 0x13, 0xe5, 0xd9, 0x43, 0x3a, 0xf2, 0x40, 0x35, 0x32, 0xd8, 0xfb,
  0x15, 0xfe, 0xf3, 0x03, 0x1f, 0xff, 0x0e, 0x04, 0x34, 0xf7, 0x43, 0xfe,
  0xe3, 0x10, 0x0a, 0xeb, 0xd4, 0xde, 0xf5, 0x36, 0x3c, 0xf4, 0x1e, 0xf7,
  0x04, 0xee, 0xe4, 0xee, 0x22, 0xcd, 0xd2, 0x0d, 0xfd, 0xfb, 0x07, 0x01,
  0xfc, 0x12, 0xde, 0x0b, 0xdc, 0x17, 0xba, 0x08, 0xef, 0x21, 0xad, 0xe4,
  0x2e, 0xd2, 0xf5, 0xf2, 0xff, 0x0e, 0x2a, 0xf6, 0x0b, 0xf4, 0xdd, 0x09,
  0x45, 0x32, 0x31, 0x51, 0xed, 0x0e, 0x67, 0x18, 0x2a, 0x43, 0x20, 0x20,
  0xe9, 0x49, 0x35, 0x07, 0x0f, 0x1e, 0xe2, 0xb8, 0x3f, 0xcb, 0xc9, 0xd3,
  0x2b, 0xf5, 0x23, 0xec, 0x3d, 0x27, 0x24, 0x31, 0xfc, 0xe2, 0x0e, 0x0d,
  0xe2, 0xe8, 0x23, 0xa7, 0x3a, 0xd6, 0x93, 0xaa, 0xf6, 0xc8, 0xf4, 0x09,
  0xd6, 0xe0, 0xe5, 0xff, 0x00, 0x0c, 0x1e, 0xea, 0xce, 0x27, 0x43, 0xff,
  0xc5, 0x1a, 0x03, 0xf9, 0x26, 0xe2, 0xee, 0xd2, 0x34, 0x0b, 0xf6, 0xcd,
  0xf7, 0xf0, 0xd9, 0xec, 0xf0, 0xc6, 0xbd, 0x12, 0xe4, 0xdf, 0xf4, 0xe4,
  0xd3, 0x07, 0xc8, 0xcd, 0xc3, 0xe3, 0xe6, 0xce, 0xb7, 0x3c, 0x10, 0xdb,
  0x11, 0x43, 0xaf, 0xfe, 0x07, 0xcd, 0xd7, 0xbf, 0x81, 0xc1, 0xc4, 0xca,
  0xe2, 0x14, 0xf9, 0xc3, 0xcc, 0xef, 0xc9, 0xce, 0xd9, 0x28, 0xdf, 0x18,
  0xdd, 0x22, 0x3b, 0xe3, 0xff, 0xd0, 0xe1, 0x3e, 0xa2, 0xa8, 0xd0, 0xe8,
  0xd8, 0xfe, 0x09, 0xbc, 0xb9, 0xc4, 0xf0, 0xf5, 0xe1, 0xd5, 0xd5, 0x08,
  0x14, 0xff, 0x2a, 0xed, 0x53, 0xba, 0x32, 0xd5, 0xd2, 0xf3, 0x3f, 0x8e,
  0xf4, 0xd0, 0x3a, 0xf6, 0x00, 0x30, 0x42, 0xc0, 0x30, 0xd2, 0x23, 0x40,
  0x21, 0x3c, 0x2b, 0xd9, 0x25, 0x3f, 0x0a, 0x13, 0xd7, 0xe3, 0x68, 0x42,
  0x21, 0x15, 0x2a, 0xa7, 0xf6, 0x36, 0x9e, 0xcf, 0x0a, 0x12, 0xf5, 0x30,
  0x95, 0xb7, 0x47, 0x2b, 0xa1, 0xfa, 0x0e, 0x18, 0xe9, 0xf9, 0x0d, 0xe2,
  0x06, 0x02, 0xf8, 0xbf, 0xdc, 0xaa, 0x23, 0x30, 0xf8, 0xd5, 0x03, 0x4b,
  0x7f, 0xcf, 0x38, 0xe9, 0x62, 0x4e, 0xb8, 0xee, 0xb3, 0xb6, 0xc7, 0xe2,
  0x02, 0x04, 0xf4, 0xae, 0x6c, 0x37, 0xbc, 0x92, 0x12, 0x3f, 0x11, 0xe2,
  0xed, 0xe0, 0xac, 0x1f, 0x8f, 0x00, 0x40, 0x44, 0xc3, 0x97, 0x1e, 0x22,
  0xa0, 0xb8, 0xfb, 0x90, 0x0b, 0xe3, 0xab, 0xeb, 0xd8, 0xcd, 0xf1, 0xe3,
  0xda, 0xf9, 0x2a, 0x26, 0xd9, 0x87, 0xe1, 0xc4, 0x9a, 0xaf, 0xa9, 0xd4,
  0x8a, 0xc2, 0xaf, 0x0b, 0xfe, 0xcb, 0x8d, 0x09, 0xf2, 0xd3, 0xad, 0xb5,
  0x07, 0x24, 0x64, 0xf4, 0x6b, 0x34, 0x08, 0x49, 0x19, 0x2e, 0x3c, 0x05,
  0x50, 0x39, 0x28, 0xe5, 0xf9, 0x12, 0xc2, 0xcc, 0x32, 0x0e, 0xd8, 0x06,
  0xd1, 0xd9, 0xd6, 0x0b, 0xfa, 0x30, 0xfc, 0x35, 0x0f, 0x0f, 0xd4, 0x46,
  0x36, 0xe7, 0xd8, 0x6a, 0xf6, 0xdf, 0x17, 0xdc, 0x00, 0xde, 0x96, 0x33,
  0x0f, 0x14, 0x44, 0x06, 0x06, 0x1f, 0x39, 0x10, 0xdc, 0x31, 0x4e, 0x37,
  0xec, 0xe6, 0x37, 0xe3, 0x37, 0xfe, 0xaf, 0xe2, 0xf9, 0x2b, 0x1b, 0xe4,
  0xf6, 0xe4, 0xf0, 0xe2, 0xf9, 0x94, 0xf9, 0xe0, 0xdf, 0x27, 0xf4, 0xda,
  0xfd, 0x10, 0x44, 0x2f, 0xda, 0xdf, 0x3d, 0x49, 0x04, 0xf5, 0x3c, 0xd5,
  0x4f, 0xba, 0x6f, 0x34, 0x46, 0x4f, 0x0e, 0xbc, 0x7f, 0x09, 0x27, 0xe2,
  0xe1, 0xcb, 0x4b, 0xca, 0x2e, 0xe9, 0x07, 0xf1, 0x4a, 0xcf, 0xf7, 0x92,
  0xc4, 0x2f, 0x23, 0x41, 0x00, 0xf8, 0x62, 0x07, 0xfb, 0x1d, 0xb8, 0x33,
  0xb0, 0x2b, 0xc1, 0xc2, 0xf7, 0x0c, 0x30, 0xfe, 0xcd, 0xc9, 0xf7, 0x0b,
  0xdd, 0x02, 0xfe, 0x33, 0x37, 0x30, 0x28, 0x2e, 0x06, 0x0a, 0x10, 0x0c,
  0xc7, 0x0a, 0xcd, 0xd6, 0x25, 0x2a, 0x07, 0x0c, 0x28, 0xdd, 0xf6, 0x06,
  0x3f, 0x47, 0x38, 0xe8, 0x1c, 0xf2, 0xf6, 0x46, 0xd4, 0xe8, 0xe3, 0xea,
  0x23, 0x11, 0x10, 0x2a, 0xed, 0x2b, 0xcd, 0xe9, 0x23, 0x09, 0x12, 0xdd,
  0xe7, 0x40, 0x10, 0x2a, 0x26, 0x1f, 0x1e, 0x34, 0x24, 0x0b, 0x5e, 0x4c,
  0xe0, 0x09, 0x29, 0xde, 0x06, 0x12, 0x61, 0xcb, 0x26, 0x09, 0x00, 0x28,
  0x06, 0x13, 0x2a, 0x05, 0xc1, 0xbf, 0x55, 0x10, 0xd1, 0xd9, 0x1d, 0xff,
  0x2f, 0xf1, 0x03, 0x28, 0x1c, 0x0e, 0x20, 0x16, 0xd1, 0xfd, 0x2d, 0x30,
  0xdd, 0x2f, 0xdf, 0xdd, 0xcb, 0xc3, 0xd9, 0x8a, 0x81, 0x13, 0x18, 0x34,
  0xf6, 0x00, 0x19, 0x06, 0x0c, 0xda, 0xa7, 0xec, 0xea, 0xe5, 0x0b, 0xdf,
  0x42, 0xbd, 0xc4, 0xd4, 0x0c, 0x13, 0x21, 0xf3, 0x0e, 0x2d, 0x1f, 0xec,
  0xfa, 0xc3, 0x03, 0x1d, 0x26, 0xcc, 0xe2, 0x21, 0xee, 0x22, 0x0e, 0xd4,
  0x1e, 0x29, 0x05, 0xc8, 0x1b, 0xe9, 0x49, 0x1d, 0x20, 0xd9, 0x35, 0x2f,
  0x0f, 0x3b, 0xf1, 0xed, 0x01, 0xbe, 0x60, 0xdd, 0xc2, 0x1e, 0xf5, 0x08,
  0x18, 0xec, 0xdc, 0xd9, 0xfe, 0xc7, 0x23, 0x27, 0xb9, 0xbd, 0x7f, 0x3d,
  0x17, 0x00, 0x0b, 0x0d, 0xf9, 0x30, 0x3b, 0x20, 0x28, 0xf0, 0x00, 0xe3,
  0x1d, 0x0f, 0x1b, 0xe5, 0x0f, 0xda, 0xf2, 0xd4, 0x1d, 0xf6, 0xee, 0x41,
  0xe8, 0xe3, 0xd8, 0x0c, 0xff, 0xfb, 0x2d, 0x19, 0x32, 0xc4, 0x9a, 0x29,
  0xf4, 0xf7, 0x0e, 0x0c, 0x2b, 0x14, 0xf2, 0x59, 0x4e, 0x35, 0xfa, 0x15,
  0xf0, 0x3d, 0xe1, 0xdb, 0xc3, 0xf4, 0x21, 0x11, 0xd4, 0xfa, 0x23, 0x19,
  0xdd, 0xda, 0xba, 0xb7, 0x3f, 0x20, 0xd9, 0xdf, 0xfc, 0x3a, 0xd5, 0x0a,
  0x05, 0x2f, 0x23, 0x07, 0x0a, 0xdf, 0x4a, 0x08, 0xbd, 0x01, 0xd1, 0x12,
  0xfe, 0xde, 0xdf, 0xd5, 0x1f, 0x1f, 0xbd, 0x07, 0xf0, 0x11, 0x3d, 0x56,
  0x60, 0x1d, 0xf4, 0x09, 0xff, 0x14, 0x1c, 0x49, 0x3c, 0x55, 0x41, 0x20,
  0xfa, 0xec, 0x4f, 0xe4, 0x18, 0xfe, 0xc2, 0xc6, 0x18, 0xbc, 0x03, 0xd2,
  0xb2, 0xee, 0x41, 0xca, 0x1d, 0xeb, 0x51, 0x0e, 0xb1, 0xf6, 0xce, 0xbf,
  0xe9, 0x32, 0x02, 0x3a, 0x37, 0x0d, 0xca, 0xdb, 0x16, 0x99, 0x18, 0xf2,
  0x2f, 0xe4, 0x18, 0xce, 0x50, 0x34, 0x07, 0x0d, 0x13, 0x09, 0x01, 0x22,
  0x20, 0x48, 0x57, 0x3d, 0xfa, 0xc6, 0x02, 0x3b, 0x50, 0x16, 0xc9, 0xa8,
  0xfa, 0x4d, 0xd0, 0x46, 0xfe, 0xea, 0xd4, 0x45, 0xf8, 0x3d, 0x56, 0x2c,
  0xd5, 0xf3, 0xc6, 0xf7, 0x09, 0x53, 0xd9, 0x4b, 0x06, 0xdd, 0x7f, 0x21,
  0x42, 0xdb, 0x28, 0x1a, 0x41, 0xf8, 0xce, 0xf8, 0x27, 0x1e, 0xf3, 0xfd,
  0x0c, 0x2b, 0xcb, 0xd8, 0x4c, 0xe0, 0xd1, 0xe8, 0xcb, 0x16, 0xbc, 0x01,
  0x06, 0xde, 0xb3, 0x0a, 0xdf, 0xd5, 0xa5, 0x17, 0xea, 0xf0, 0x1a, 0xde,
  0x0d, 0xda, 0x9d, 0x45, 0x2f, 0xab, 0xf7, 0xc7, 0xe9, 0x27, 0xe4, 0xf3,
  0xed, 0xe4, 0x59, 0x0e, 0xd1, 0x4e, 0x60, 0x3d, 0x14, 0x37, 0x14, 0xd2,
  0xb7, 0x23, 0xe7, 0xf8, 0xde, 0x01, 0xe0, 0xec, 0xef, 0xf1, 0xca, 0x13,
  0xd4, 0xfe, 0x29, 0x2a, 0xf3, 0xdb, 0xf9, 0xed, 0x0e, 0x20, 0xea, 0x14,
  0x57, 0xdd, 0xd4, 0x0b, 0x08, 0x22, 0x2b, 0xee, 0xf4, 0xd4, 0xdb, 0x2c,
  0x44, 0x17, 0x07, 0xc1, 0xba, 0x32, 0x09, 0xe9, 0xea, 0x06, 0xfc, 0xf8,
  0xe0, 0xdb, 0x2e, 0x3e, 0xef, 0x1b, 0xff, 0x56, 0x71, 0x15, 0xdd, 0x12,
  0x5a, 0x01, 0xfe, 0x0b, 0x1b, 0x00, 0x14, 0x2c, 0x5b, 0x35, 0x1e, 0x4b,
  0x19, 0x11, 0xe6, 0x12, 0x40, 0x2e, 0x0b, 0xb7, 0xf4, 0x30, 0xae, 0xdf,
  0x6d, 0x17, 0x3c, 0xf1, 0xb0, 0xeb, 0x03, 0xf5, 0x9b, 0xe0, 0xe4, 0xf7,
  0xfc, 0xbd, 0x09, 0xe5, 0xc3, 0xca, 0xf2, 0x0d, 0x62, 0xe6, 0x3c, 0xc0,
  0x37, 0x22, 0x25, 0x0b, 0x3d, 0xf0, 0x19, 0xc8, 0x7f, 0x0a, 0x3c, 0xfd,
  0x15, 0x2c, 0x1d, 0x3d, 0xf2, 0xd6, 0xf5, 0x32, 0x12, 0x0d, 0xe0, 0x90,
  0x4c, 0xfb, 0xdb, 0xa9, 0xfd, 0xf6, 0x1d, 0x07, 0xea, 0xda, 0xf6, 0xea,
  0xb1, 0x05, 0x46, 0x91, 0xbd, 0xcc, 0xdd, 0x3e, 0x34, 0x9d, 0x92, 0x4b,
  0xe7, 0xc9, 0xaa, 0xf8, 0x31, 0xc2, 0x1b, 0x20, 0x33, 0x21, 0xf4, 0xe9,
  0xa4, 0xb1, 0xc5, 0xec, 0x88, 0xfd, 0x3a, 0xb1, 0xab, 0x95, 0x01, 0xea,
  0x48, 0x0e, 0xfd, 0xc4, 0xb2, 0x8b, 0xb0, 0x46, 0xc9, 0x25, 0x32, 0xe5,
  0x93, 0xf3, 0xda, 0x91, 0xd9, 0xec, 0x2c, 0x0e, 0xb2, 0x3e, 0x05, 0x11,
  0xc8, 0xa7, 0xaf, 0xd0, 0x25, 0xcb, 0x41, 0xfb, 0x1c, 0xc2, 0xa2, 0x12,
  0xc8, 0xca, 0x03, 0xa3, 0xf5, 0x3c, 0xe7, 0x24, 0xa3, 0xf1, 0xed, 0xfa,
  0xc3, 0xa1, 0xd5, 0xc3, 0xd0, 0xe0, 0xc4, 0x34, 0x8c, 0x9c, 0x0d, 0x10,
  0x81, 0x42, 0xf5, 0xe6, 0xfb, 0x3e, 0x34, 0xdd, 0x0c, 0xaf, 0xa8, 0x90,
  0x82, 0x00, 0x34, 0xb8, 0xdc, 0xeb, 0x37, 0x93, 0xf0, 0xc7, 0xbc, 0x88,
  0xf7, 0x8e, 0x31, 0xad, 0xd0, 0xf9, 0x01, 0x26, 0xf6, 0x38, 0xdc, 0xcc,
  0x23, 0x50, 0x96, 0xb0, 0x3a, 0x9f, 0x68, 0x48, 0x5e, 0xc0, 0xa2, 0x14,
  0xed, 0x64, 0x19, 0x62, 0x3c, 0x33, 0xfe, 0x51, 0x4c, 0x34, 0x20, 0xe4,
  0x45, 0x0c, 0xbf, 0x36, 0x2e, 0xfe, 0xc4, 0xa5, 0x4c, 0x2a, 0x24, 0xe7,
  0xfa, 0x43, 0x38, 0x1e, 0x13, 0x4a, 0x32, 0x1d, 0x13, 0x27, 0xe0, 0x9c,
  0x4a, 0xda, 0x1e, 0x9e, 0x98, 0x0b, 0xe2, 0x2e, 0xcb, 0x10, 0xe5, 0x0b,
  0xe2, 0x08, 0x38, 0x31, 0xf1, 0x10, 0xe0, 0x16, 0xef, 0xd3, 0x20, 0x81,
  0x5a, 0x1b, 0x1f, 0x0b, 0x2a, 0x33, 0x05, 0x10, 0x49, 0x13, 0x3e, 0xfb,
  0x1d, 0x46, 0x54, 0xdb, 0x36, 0xb8, 0xe3, 0x13, 0xf0, 0xc7, 0x24, 0x02,
  0x53, 0x05, 0xe4, 0xb7, 0xdb, 0xd5, 0xfb, 0xd0, 0xb1, 0x2a, 0x9c, 0x26,
  0xe7, 0x16, 0x57, 0x33, 0x10, 0xaf, 0xb5, 0x22, 0xf5, 0xb4, 0xbd, 0xe8,
  0xe5, 0x08, 0x36, 0xb9, 0xe9, 0x20, 0xfd, 0x25, 0x23, 0xbd, 0xf8, 0xc0,
  0x1e, 0xdc, 0xf7, 0x2c, 0x11, 0x27, 0x05, 0xe5, 0x51, 0x43, 0x22, 0x16,
  0xc7, 0xd1, 0x1b, 0xcf, 0x32, 0x0b, 0xbe, 0x30, 0xd3, 0x22, 0x3d, 0xf4,
  0xb9, 0x4f, 0x02, 0x9c, 0x6b, 0x28, 0xf6, 0xed, 0x2d, 0xc1, 0xba, 0x09,
  0x82, 0xc0, 0x05, 0x18, 0xbf, 0x37, 0x03, 0xd0, 0x08, 0xa7, 0xec, 0xc8,
  0x22, 0x0b, 0xd9, 0xa4, 0x3a, 0xad, 0x46, 0x6c, 0x5e, 0xfa, 0x0b, 0xc3,
  0x41, 0x5f, 0x36, 0x0f, 0x1b, 0x2a, 0x5d, 0x74, 0x21, 0x28, 0xae, 0xd7,
  0xb2, 0xf5, 0xfb, 0xd5, 0xe8, 0x81, 0xe9, 0x17, 0x22, 0x31, 0x05, 0xf2,
  0x51, 0x89, 0xaa, 0xee, 0xf3, 0xa7, 0x0b, 0x33, 0xae, 0x1b, 0xfd, 0xca,
  0xc7, 0xa9, 0x8c, 0xe6, 0xe8, 0xf6, 0x1e, 0x3f, 0x93, 0x97, 0x98, 0x00,
  0x85, 0x5a, 0xdf, 0xe2, 0x1a, 0xc1, 0x4a, 0x26, 0x56, 0x05, 0xed, 0xb1,
  0xea, 0xbe, 0x5a, 0xde, 0x23, 0xc7, 0x2c, 0x12, 0x1c, 0x52, 0x5e, 0xe5,
  0x34, 0xb5, 0xed, 0xd8, 0xbf, 0x22, 0x07, 0x65, 0x54, 0xb8, 0x0c, 0xf9,
  0xdc, 0x34, 0x38, 0xf1, 0x11, 0x87, 0x9f, 0x8d, 0xbf, 0xf7, 0xbf, 0xf9,
  0xbc, 0x35, 0xb3, 0x22, 0xed, 0x0f, 0xa6, 0xcc, 0xdb, 0xc7, 0x81, 0xe0,
  0x2c, 0xb6, 0x17, 0xf2, 0xb1, 0xc3, 0xc1, 0xf1, 0xd4, 0xdf, 0xf8, 0xf3,
  0xf1, 0xcd, 0x81, 0xaa, 0x42, 0x21, 0x08, 0xdf, 0x31, 0x24, 0xfc, 0xe7,
  0x3c, 0xd3, 0x03, 0xe4, 0xe9, 0x03, 0xd7, 0x0d, 0x35, 0x01, 0x0e, 0xe4,
  0x25, 0xe3, 0xe3, 0xce, 0x30, 0x11, 0xee, 0x2f, 0xf3, 0x26, 0x89, 0xcb,
  0xa8, 0xe7, 0x26, 0x28, 0x0f, 0xc5, 0xd4, 0xb3, 0xe1, 0x2b, 0xdc, 0xc3,
  0xd1, 0xdb, 0x06, 0x25, 0x37, 0x02, 0x42, 0x3a, 0x0e, 0x47, 0xbe, 0x14,
  0x5c, 0x34, 0x4b, 0xf8, 0x4c, 0x16, 0x0b, 0x39, 0x12, 0x15, 0xd7, 0x28,
  0xec, 0x10, 0x57, 0x2b, 0x25, 0x2b, 0xe6, 0x4f, 0x1b, 0xee, 0xbc, 0x08,
  0xba, 0x33, 0xee, 0x2a, 0xf6, 0xfc, 0xac, 0x04, 0x0b, 0x1f, 0xb8, 0xfb,
  0xf6, 0x0e, 0xa9, 0x2b, 0x27, 0x12, 0xc4, 0xa7, 0x21, 0x1d, 0xc8, 0xeb,
  0xee, 0xc0, 0x02, 0xc3, 0x0a, 0x16, 0x3b, 0xe7, 0x32, 0x33, 0x2a, 0x8f,
  0x41, 0x41, 0xc7, 0xd9, 0xc6, 0x1e, 0xa7, 0xf1, 0x17, 0x9f, 0xbc, 0x01,
  0x87, 0xe9, 0xe4, 0xdc, 0xa0, 0x1b, 0xe2, 0xfe, 0x00, 0xd5, 0xf5, 0xac,
  0xba, 0x16, 0x17, 0x26, 0x71, 0x36, 0xf7, 0xe8, 0xbf, 0x3b, 0x2a, 0xcc,
  0x6e, 0x2a, 0x06, 0x31, 0x21, 0xcf, 0xfe, 0xf9, 0x37, 0xe7, 0x3e, 0xb8,
  0x75, 0x15, 0xe2, 0xc2, 0x92, 0x3c, 0x14, 0x0e, 0x41, 0x24, 0x1d, 0xff,
  0x1f, 0xec, 0xe1, 0x75, 0xc9, 0xe2, 0xd2, 0x5e, 0x56, 0xab, 0xc9, 0xfa,
  0xf1, 0xe0, 0x4d, 0xc3, 0x16, 0x43, 0x7f, 0xf4, 0x40, 0x4f, 0x5c, 0x40,
  0x68, 0x47, 0x22, 0x6e, 0x43, 0x58, 0x09, 0x46, 0xb6, 0x14, 0xce, 0x09,
  0xf8, 0xd4, 0xe4, 0x1e, 0x0b, 0xe5, 0x33, 0x18, 0xfd, 0x13, 0xc6, 0x03,
  0xc3, 0xc4, 0xfe, 0xfc, 0xb9, 0xa9, 0xd6, 0xde, 0x9f, 0xb9, 0x01, 0x1b,
  0xae, 0xb3, 0x0a, 0xe5, 0x1f, 0x27, 0xbf, 0x2c, 0x35, 0xfc, 0x40, 0x96,
  0x1d, 0x26, 0x03, 0x38, 0x36, 0x31, 0x17, 0x05, 0x15, 0xbd, 0x21, 0xf1,
  0x0c, 0xd2, 0x25, 0xe9, 0x2e, 0xb6, 0xe3, 0x03, 0x2b, 0xdd, 0x0e, 0x33,
  0xdb, 0x32, 0x91, 0xd4, 0x35, 0xfd, 0xfb, 0x0d, 0xa1, 0xe7, 0xc3, 0x04,
  0xd2, 0x18, 0xec, 0xd0, 0xc7, 0xe7, 0x4a, 0x08, 0xd4, 0xff, 0xe7, 0xf3,
  0x2f, 0x1d, 0xe7, 0x20, 0x34, 0xcb, 0xdf, 0x01, 0x18, 0x19, 0xf3, 0x1b,
  0xf7, 0xd0, 0x06, 0x0a, 0xdd, 0xec, 0x21, 0x1b, 0x39, 0x1d, 0xf9, 0x23,
  0x0d, 0xdd, 0x19, 0xec, 0xe2, 0x19, 0xfb, 0xf8, 0x4c, 0xd4, 0xff, 0xde,
  0xe2, 0xd3, 0x11, 0x13, 0x0c, 0xd7, 0x02, 0x16, 0xb3, 0xd7, 0xe8, 0x29,
  0x1b, 0xf5, 0xed, 0x13, 0x07, 0x09, 0x3b, 0x1c, 0xfe, 0x00, 0xfd, 0xfb,
  0xb8, 0xf7, 0xd8, 0x19, 0x1b, 0xf5, 0x00, 0xd0, 0xc5, 0xfe, 0xe5, 0xf6,
  0x4f, 0x16, 0x13, 0xfe, 0x56, 0x05, 0x1f, 0x38, 0x18, 0xfa, 0x0f, 0x1d,
  0xec, 0x2f, 0x3e, 0x22, 0x23, 0x2e, 0x7f, 0xfe, 0xe9, 0x27, 0x00, 0x15,
  0xfc, 0xf4, 0xdc, 0xcb, 0x01, 0xf1, 0x12, 0x31, 0x03, 0xd2, 0x03, 0xe3,
  0xd5, 0xd0, 0x2f, 0x45, 0x19, 0x08, 0x12, 0x17, 0xeb, 0xc1, 0x1a, 0xfa,
  0x5f, 0xec, 0x21, 0x2e, 0x57, 0xd1, 0x4c, 0xf6, 0x2f, 0xeb, 0x15, 0xfc,
  0xc2, 0x00, 0x1c, 0x33, 0x0c, 0xd3, 0xee, 0x06, 0xd2, 0xea, 0xd8, 0x54,
  0x14, 0xee, 0x0d, 0x11, 0xe7, 0xf9, 0x1e, 0xf6, 0x2d, 0x31, 0xde, 0x3b,
  0xfc, 0x5f, 0xe7, 0x40, 0x32, 0x2b, 0x0c, 0x3b, 0x02, 0x2f, 0xe9, 0x32,
  0x07, 0x4a, 0xd7, 0x47, 0x21, 0x2e, 0x31, 0x01, 0xe0, 0x22, 0xf3, 0x52,
  0xf5, 0x71, 0x32, 0x3e, 0x38, 0x59, 0xde, 0xd0, 0xbd, 0xe7, 0x36, 0xfd,
  0xb1, 0xc9, 0xf9, 0x36, 0xcc, 0x01, 0xc4, 0xf6, 0x2a, 0x13, 0xed, 0xfa,
  0x2c, 0x12, 0x0d, 0x6a, 0x1f, 0x05, 0xa0, 0x12, 0x4e, 0x7f, 0x1f, 0x2f,
  0xdb, 0x48, 0xcc, 0xc8, 0x21, 0xd5, 0x19, 0xe0, 0xaf, 0x1b, 0x0d, 0x3d,
  0xcb, 0x36, 0xcd, 0x4b, 0x3b, 0xd1, 0x36, 0xc9, 0xdb, 0x36, 0x0b, 0x16,
  0xc8, 0xd6, 0x0a, 0x0f, 0xc2, 0xbb, 0xcd, 0xfe, 0xb2, 0x39, 0x3a, 0x1e,
  0xdd, 0xc3, 0x16, 0x18, 0x17, 0x34, 0x5e, 0x08, 0x49, 0x05, 0x25, 0x13,
  0xc5, 0x22, 0x30, 0xea, 0x07, 0x47, 0x4a, 0x37, 0xeb, 0xee, 0x52, 0xdd,
  0xd2, 0xff, 0xef, 0xef, 0x11, 0xdd, 0xef, 0xf0, 0xb5, 0x04, 0xf5, 0xbc,
  0xaf, 0xff, 0xf9, 0x1d, 0xf2, 0xde, 0x14, 0xce, 0xa2, 0x06, 0x3c, 0x07,
  0xc3, 0x1c, 0x01, 0xf1, 0xf2, 0xb9, 0xc8, 0xcb, 0xdc, 0x1d, 0x21, 0xc8,
  0xe1, 0x02, 0xfc, 0xe8, 0x1a, 0xed, 0x22, 0x2f, 0x89, 0x46, 0x41, 0x4d,
  0xd4, 0x28, 0xdc, 0x11, 0x04, 0xe7, 0xe3, 0xe7, 0xe0, 0xcf, 0x10, 0xdb,
  0x92, 0x2b, 0x0d, 0x08, 0xe0, 0x9c, 0xee, 0xfd, 0xf2, 0xbe, 0x0e, 0xb0,
  0x4a, 0x29, 0xb2, 0x08, 0x20, 0xb8, 0xe9, 0xe7, 0x06, 0xc7, 0x43, 0xd1,
  0x6c, 0x4c, 0x1d, 0x6e, 0x51, 0xf8, 0xed, 0xe1, 0x02, 0x0d, 0x81, 0x34,
  0x19, 0xfc, 0xa1, 0xec, 0x38, 0x0e, 0xf8, 0x1f, 0xf5, 0xbc, 0x02, 0xef,
  0xd8, 0xb4, 0xde, 0x46, 0xe1, 0x01, 0xe6, 0x0b, 0xc2, 0x11, 0xe7, 0xb5,
  0x04, 0xda, 0xfe, 0xf2, 0xeb, 0xd4, 0xbf, 0xf7, 0x11, 0x16, 0xfb, 0xdc,
  0xe3, 0x08, 0xfb, 0xd0, 0xde, 0xba, 0x8c, 0x0e, 0xb5, 0xbd, 0xbc, 0xe2,
  0x12, 0x13, 0xa4, 0xe4, 0x29, 0x1d, 0x15, 0xba, 0x00, 0xff, 0x0a, 0xae,
  0xdd, 0xa5, 0x28, 0x42, 0x28, 0xbe, 0xbb, 0xdf, 0x34, 0xb9, 0xda, 0xc9,
  0x3d, 0xe0, 0x38, 0x1b, 0x62, 0xb4, 0x30, 0x41, 0x7f, 0xe8, 0x33, 0x47,
  0x4c, 0x8a, 0x3d, 0xd0, 0xf9, 0x21, 0x46, 0x17, 0x99, 0x02, 0xab, 0xa9,
  0xf9, 0x9c, 0xa8, 0xeb, 0xc3, 0xa0, 0x3d, 0xbd, 0x92, 0xb1, 0xe0, 0xdb,
  0x13, 0x16, 0xbf, 0x2b, 0xf1, 0x94, 0xf7, 0x05, 0x18, 0x06, 0x4b, 0x28,
  0x97, 0xe0, 0x10, 0xbb, 0xf2, 0xdd, 0xca, 0x8d, 0xf4, 0xdf, 0x05, 0xef,
  0x2f, 0xf3, 0x54, 0x31, 0xbe, 0x28, 0x4d, 0xeb, 0x06, 0x18, 0x15, 0x17,
  0x23, 0xbb, 0xce, 0xc7, 0xa9, 0xdd, 0xdb, 0x5b, 0x3f, 0x40, 0xef, 0xad,
  0x46, 0xbc, 0xa7, 0xc3, 0x34, 0x0e, 0x20, 0xc9, 0x1f, 0xc1, 0x23, 0x3f,
  0x1f, 0xcf, 0x93, 0x72, 0x7e, 0xec, 0xf1, 0x89, 0x46, 0x2b, 0x7f, 0xf6,
  0x26, 0x00, 0x1e, 0x14, 0xbb, 0xd8, 0x3c, 0xec, 0x33, 0xfe, 0xf2, 0xa7,
  0xfa, 0x04, 0x32, 0xec, 0x12, 0x06, 0xe3, 0xe1, 0xa8, 0xcd, 0xbb, 0x13,
  0xbf, 0xc9, 0xbf, 0xc7, 0xd3, 0x2f, 0xd0, 0x49, 0x29, 0x02, 0x56, 0x6e,
  0x32, 0x03, 0xef, 0xe4, 0x41, 0xd1, 0xfb, 0x1d, 0xd2, 0x4b, 0x05, 0x40,
  0xd4, 0xda, 0xae, 0x6c, 0x71, 0xb8, 0x24, 0xee, 0x0f, 0x1d, 0x00, 0x0f,
  0xd0, 0x37, 0x2d, 0xcd, 0xc9, 0x1b, 0x01, 0x40, 0xdb, 0x54, 0xea, 0x0e,
  0xef, 0xc4, 0xf0, 0x9f, 0x3e, 0x03, 0xd4, 0xc7, 0x2e, 0xfe, 0x05, 0x17,
  0x98, 0x0d, 0x04, 0x13, 0x4d, 0x23, 0x7f, 0xae, 0x31, 0x20, 0x0b, 0x4c,
  0x2c, 0xd1, 0xd1, 0x17, 0x87, 0xb1, 0xca, 0x05, 0xd5, 0x2c, 0xf9, 0x88,
  0xa6, 0xb3, 0xf0, 0xeb, 0xdd, 0xe4, 0x00, 0xc5, 0xae, 0x37, 0x27, 0x3e,
  0xf9, 0x6d, 0x43, 0xcf, 0x3e, 0xf2, 0x2c, 0x2e, 0xfc, 0xc3, 0x7b, 0x4d,
  0x22, 0xfb, 0xf2, 0x54, 0x08, 0x66, 0x32, 0xab, 0x58, 0x7a, 0x47, 0x44,
  0x29, 0xd7, 0x1f, 0xcc, 0xdc, 0xe7, 0x19, 0xc1, 0xe9, 0x09, 0xc4, 0xf9,
  0x22, 0xf0, 0x15, 0x19, 0x35, 0xc5, 0x8b, 0x45, 0xdb, 0x00, 0x1a, 0x3b,
  0xe0, 0xd7, 0xb6, 0xf7, 0x0e, 0xdd, 0x76, 0x26, 0xd9, 0x46, 0x8d, 0x30,
  0xd7, 0xae, 0x75, 0x1b, 0xfe, 0xe5, 0xdf, 0xc3, 0x14, 0xe2, 0x9f, 0xbd,
  0xd5, 0xc2, 0x4d, 0xfc, 0x23, 0x17, 0x13, 0xb3, 0x60, 0xa8, 0x9f, 0x43,
  0x33, 0xc2, 0x16, 0x0f, 0xe0, 0xba, 0xd8, 0xfb, 0x49, 0x26, 0xfd, 0xa8,
  0xdf, 0x0c, 0x18, 0xbc, 0x17, 0x1d, 0x2c, 0xd3, 0x31, 0x38, 0x0c, 0x15,
  0x41, 0xe3, 0xf4, 0x31, 0x81, 0x49, 0x37, 0x26, 0x15, 0x19, 0xb1, 0xb4,
  0x03, 0xfc, 0x44, 0x23, 0xd5, 0x12, 0xca, 0x71, 0x53, 0xf4, 0x27, 0xb7,
  0xfd, 0x1f, 0xc2, 0xef, 0x2e, 0xd0, 0x69, 0x76, 0x09, 0x43, 0xd2, 0x10,
  0x6a, 0x43, 0x45, 0xbe, 0x6e, 0xff, 0x3a, 0x38, 0xe0, 0x50, 0xe2, 0xc5,
  0x22, 0x1d, 0xe1, 0x2a, 0x3f, 0xdc, 0xea, 0x1d, 0xf6, 0xe1, 0xf3, 0xf9,
  0x2d, 0x3a, 0xfc, 0x3f, 0xf2, 0xe6, 0x13, 0xf8, 0xf4, 0x23, 0x60, 0x01,
  0x17, 0x39, 0x38, 0x4d, 0x0b, 0x66, 0x37, 0xfc, 0x0b, 0x23, 0xe5, 0xc3,
  0xe9, 0x4a, 0x21, 0x46, 0x2b, 0x22, 0x1d, 0x28, 0xc5, 0x4b, 0x2c, 0x01,
  0xdc, 0x42, 0x1b, 0xd0, 0xd7, 0x05, 0x23, 0x01, 0x2c, 0xdf, 0x29, 0xf6,
  0x99, 0xc9, 0xb4, 0x35, 0xff, 0xf7, 0x1a, 0xf3, 0x95, 0x47, 0xd2, 0xe1,
  0xde, 0x24, 0x31, 0x0c, 0xe8, 0xe7, 0xea, 0x2c, 0xe4, 0x34, 0xcf, 0x1e,
  0x7f, 0x2f, 0x19, 0x31, 0x46, 0x37, 0x48, 0x0c, 0x3f, 0x00, 0x5d, 0x2c,
  0x4a, 0xeb, 0x06, 0x2d, 0x26, 0xea, 0xfb, 0x07, 0x02, 0xec, 0x61, 0x4d,
  0xdc, 0x1b, 0xf7, 0x49, 0xd1, 0x2a, 0xf0, 0x26, 0xc7, 0xd1, 0xbf, 0x45,
  0x28, 0xf7, 0x18, 0x41, 0xfb, 0x37, 0xc9, 0xbe, 0x8e, 0xf9, 0x2a, 0x3c,
  0x04, 0xfa, 0x40, 0x0b, 0xc0, 0x17, 0xd2, 0x3c, 0xfc, 0x40, 0xfa, 0x2b,
  0xff, 0x00, 0xee, 0xca, 0xce, 0x13, 0x1d, 0xf1, 0x1a, 0x31, 0x20, 0xbf,
  0xca, 0x3d, 0x05, 0xb6, 0x06, 0x3f, 0xa7, 0xf5, 0x1d, 0xb3, 0xf9, 0x25,
  0xaa, 0xaa, 0xab, 0xe1, 0x43, 0xc1, 0x7f, 0x64, 0xff, 0x05, 0x16, 0x1a,
  0x46, 0xac, 0xfe, 0xe4, 0x2d, 0x1f, 0xea, 0x1c, 0xc6, 0x2a, 0x15, 0xe3,
  0x39, 0x41, 0x06, 0x9d, 0xa2, 0xe4, 0x32, 0xdb, 0x04, 0xfb, 0x2e, 0x57,
  0x96, 0xc5, 0xb4, 0xe5, 0x84, 0x81, 0x29, 0xac, 0x9e, 0xe6, 0x23, 0xed,
  0xd5, 0x2d, 0x94, 0xbb, 0x95, 0x4b, 0x13, 0xb4, 0x0c, 0xc8, 0xaa, 0x9f,
  0xd5, 0xef, 0x44, 0x0c, 0x28, 0x74, 0x2d, 0x1a, 0x01, 0xea, 0x70, 0xc5,
  0x0b, 0xce, 0x3d, 0x42, 0x6e, 0xb9, 0xde, 0x15, 0xfa, 0x9c, 0x5a, 0xc9,
  0x0a, 0x0d, 0xb1, 0x14, 0xf8, 0xab, 0xb8, 0xfc, 0x33, 0x24, 0xbf, 0x86,
  0x1b, 0xe9, 0xe9, 0xba, 0xe6, 0xc7, 0xb0, 0xf9, 0xe0, 0x0e, 0xd2, 0xff,
  0x23, 0xa6, 0x44, 0xfc, 0x98, 0x32, 0xd8, 0x95, 0x3e, 0xd9, 0x04, 0xc5,
  0x7c, 0x4a, 0x67, 0x0a, 0xcd, 0x4c, 0xcf, 0xb2, 0xaf, 0xcc, 0x42, 0xa0,
  0xa6, 0xef, 0xff, 0xff, 0x04, 0x00, 0x00, 0x00, 0x80, 0x04, 0x00, 0x00,
  0x59, 0xea, 0x29, 0xd9, 0x2a, 0xc5, 0xa5, 0x81, 0x3a, 0x0f, 0xdd, 0x04,
  0x05, 0xf6, 0x94, 0x06, 0xc6, 0xe8, 0x3c, 0xd3, 0x13, 0xbc, 0xde, 0xe7,
  0x2a, 0x17, 0xc8, 0xe4, 0xbf, 0xe1, 0xed, 0xd9, 0xdd, 0xe1, 0x54, 0x16,
  0x39, 0x1d, 0x32, 0x88, 0x09, 0xed, 0x00, 0x1a, 0x05, 0xe0, 0x2e, 0xd5,
  0xc7, 0x31, 0xeb, 0xcc, 0xdd, 0x23, 0xe0, 0xb5, 0xd9, 0x45, 0x4a, 0x59,
  0x28, 0xf2, 0x3c, 0x03, 0xc7, 0x28, 0x2a, 0x76, 0x3e, 0xb3, 0xc8, 0xce,
  0xf6, 0x0a, 0x24, 0x0b, 0xf2, 0x1f, 0x15, 0xb9, 0xca, 0x40, 0x38, 0xbe,
  0x09, 0xaa, 0x06, 0xa1, 0xfd, 0x20, 0x2f, 0xff, 0x2f, 0xcb, 0x00, 0x42,
  0xea, 0x15, 0x50, 0x62, 0x48, 0x37, 0x50, 0x54, 0xf8, 0xfe, 0x04, 0x1e,
  0x14, 0x02, 0xe3, 0xd2, 0xa5, 0xbb, 0xd9, 0xf5, 0xf4, 0xd9, 0x28, 0x01,
  0x1c, 0xdc, 0xe9, 0xb9, 0xa0, 0x0d, 0xbd, 0x4c, 0xbc, 0xc7, 0xad, 0x05,
  0xcd, 0x14, 0xe2, 0xdb, 0xac, 0xde, 0x81, 0x18, 0xb0, 0x00, 0x08, 0x93,
  0x4b, 0xf9, 0x24, 0xf3, 0xea, 0x1f, 0xbc, 0xb8, 0xc7, 0xc1, 0x9f, 0xde,
  0xfc, 0xfa, 0xe0, 0xd9, 0xc8, 0x07, 0xd1, 0xbe, 0xf1, 0xd0, 0x0c, 0xcd,
  0x04, 0xbd, 0xcf, 0x29, 0x1f, 0xe6, 0x10, 0x9b, 0xda, 0x1f, 0xf5, 0xe7,
  0xdb, 0x4e, 0xaf, 0x05, 0x45, 0x81, 0xf5, 0x9f, 0x06, 0x91, 0x13, 0xdc,
  0xcd, 0x15, 0xfd, 0x68, 0xf9, 0xe0, 0x0b, 0xf5, 0x51, 0x73, 0xfd, 0x09,
  0xd1, 0x7e, 0x5e, 0x4d, 0xea, 0xd5, 0x11, 0x23, 0x74, 0x10, 0xfd, 0x36,
  0xe5, 0x10, 0x25, 0xee, 0xcd, 0x06, 0x92, 0xa7, 0x2c, 0x56, 0xc4, 0xcb,
  0xdb, 0x30, 0x91, 0x3e, 0x49, 0x46, 0xbe, 0x9a, 0x0f, 0x1a, 0xb0, 0xa2,
  0xf3, 0xe1, 0xce, 0x09, 0xfc, 0x05, 0xed, 0xf5, 0x7f, 0xd7, 0xca, 0xc2,
  0x11, 0xd9, 0x0e, 0x12, 0x5a, 0xfc, 0xee, 0xd8, 0x53, 0xd8, 0xd8, 0x43,
  0x23, 0xc8, 0xf4, 0x3e, 0x2c, 0x19, 0x99, 0xc3, 0x21, 0xe7, 0xd1, 0x6a,
  0xbb, 0x21, 0xf2, 0x2e, 0xf8, 0xde, 0xcd, 0x57, 0x1f, 0xe7, 0x7c, 0x5e,
  0xcf, 0xda, 0x27, 0xb2, 0xd6, 0x59, 0xbc, 0x45, 0x05, 0x0d, 0x5e, 0xb8,
  0x52, 0xd7, 0xcd, 0x0f, 0x9b, 0xcb, 0xec, 0x32, 0xf5, 0xdf, 0x8f, 0x2e,
  0xd7, 0x31, 0x44, 0x65, 0xec, 0x3e, 0x50, 0xb6, 0xec, 0xf1, 0x04, 0xd2,
  0xc3, 0xe0, 0xf8, 0x4e, 0x81, 0xae, 0x5c, 0xcb, 0x48, 0xbe, 0x1e, 0x6a,
  0x30, 0xb9, 0xf2, 0x04, 0x35, 0x29, 0x42, 0x9b, 0x94, 0xca, 0xf5, 0x36,
  0xb2, 0xb4, 0x65, 0xbd, 0xbd, 0x37, 0xbe, 0xcf, 0x52, 0xaf, 0xa5, 0x1f,
  0xef, 0x19, 0x2a, 0xb5, 0xf6, 0xf9, 0x25, 0x96, 0x1a, 0xe6, 0x2f, 0xdc,
  0xe3, 0xd2, 0xcd, 0x83, 0xd2, 0xf3, 0x30, 0xcf, 0xf6, 0xd9, 0x18, 0xf3,
  0x27, 0x41, 0xa6, 0x25, 0xed, 0x3a, 0x9b, 0x27, 0x18, 0xd4, 0x0c, 0xf4,
  0x04, 0x06, 0x03, 0x03, 0xcd, 0xd5, 0x09, 0x1e, 0xc8, 0xd9, 0xe7, 0x56,
  0x0c, 0x32, 0xf1, 0xff, 0xcc, 0xcf, 0xc2, 0x81, 0x34, 0x4b, 0x47, 0xe4,
  0x4c, 0xe7, 0x01, 0x14, 0x8e, 0xe2, 0xfd, 0x47, 0x1f, 0x0b, 0x34, 0x56,
  0x1f, 0x04, 0xf7, 0xbe, 0xaa, 0xe3, 0xd5, 0xd6, 0xf2, 0xe2, 0x27, 0x63,
  0x03, 0x3d, 0x51, 0x0e, 0xd5, 0xa1, 0xcb, 0x36, 0x28, 0x18, 0xaf, 0x1c,
  0x01, 0xd3, 0x39, 0xf4, 0x2d, 0xfe, 0x06, 0x14, 0x1b, 0x65, 0x2c, 0x7f,
  0xf0, 0xb5, 0xcd, 0x43, 0xac, 0xac, 0xf8, 0x2a, 0xf4, 0xd7, 0x24, 0x33,
  0x24, 0xe0, 0xe5, 0x47, 0x0c, 0x36, 0x16, 0xf9, 0xa5, 0xc0, 0x50, 0xe3,
  0x33, 0xd5, 0x91, 0xcc, 0x0f, 0x50, 0xb6, 0xfe, 0xeb, 0x97, 0xcd, 0xc6,
  0xd4, 0xe1, 0xbf, 0x1e, 0xbb, 0xd1, 0xd9, 0xd1, 0xc6, 0xeb, 0xcb, 0xe9,
  0xb4, 0x09, 0xbe, 0xf8, 0x2f, 0xf1, 0xc1, 0x15, 0xbf, 0xe7, 0x08, 0x2b,
  0xd8, 0x4e, 0xf8, 0xd3, 0x0d, 0xf1, 0xfd, 0x0f, 0xfa, 0x59, 0xff, 0x14,
  0x19, 0x30, 0xd6, 0x21, 0x07, 0x7f, 0xef, 0xd0, 0x17, 0x2b, 0x17, 0xf2,
  0x32, 0xd6, 0xee, 0x17, 0xe9, 0x31, 0x04, 0x01, 0x32, 0xdb, 0xde, 0x0e,
  0xe1, 0xfe, 0x07, 0x13, 0x0d, 0xac, 0x11, 0x00, 0x21, 0x2c, 0x3c, 0xe3,
  0xe0, 0x00, 0xeb, 0x04, 0x02, 0xf4, 0xfa, 0xd0, 0x19, 0xcf, 0xf8, 0x1c,
  0x23, 0x0a, 0xda, 0xf8, 0x03, 0x27, 0xf9, 0xd1, 0x2b, 0x04, 0xa7, 0x20,
  0x16, 0x0f, 0xde, 0xcb, 0xd5, 0xd8, 0xf6, 0x98, 0x5b, 0x40, 0xdf, 0xc9,
  0xdd, 0xe0, 0xe1, 0x17, 0xc8, 0xe1, 0x41, 0xb1, 0xf6, 0xdf, 0x3b, 0x31,
  0xf9, 0xd2, 0xbf, 0x34, 0xdb, 0xf3, 0xe8, 0x81, 0x37, 0xc1, 0xf3, 0x1e,
  0xc6, 0x39, 0xb9, 0x05, 0xd3, 0x20, 0x4b, 0x09, 0x17, 0x22, 0x5a, 0x71,
  0x2e, 0xf3, 0xc3, 0x4d, 0x19, 0x1c, 0xe0, 0xc9, 0x07, 0xc2, 0x3a, 0xbc,
  0x39, 0x10, 0x48, 0x0b, 0x25, 0x08, 0x3e, 0x49, 0xd6, 0x1c, 0x2a, 0xc5,
  0x2b, 0xf6, 0xb9, 0x11, 0x9e, 0xfd, 0x16, 0x2b, 0xec, 0xec, 0x0f, 0xfe,
  0xca, 0xfc, 0xf3, 0x26, 0x18, 0x24, 0xfe, 0xa2, 0x15, 0x1c, 0x17, 0xd0,
  0x9e, 0x1f, 0xc0, 0x04, 0x19, 0x20, 0xf4, 0x27, 0xcd, 0x2e, 0x02, 0x79,
  0x16, 0xa4, 0x31, 0xf2, 0x14, 0xfa, 0xfd, 0xc4, 0xe7, 0xbe, 0xd9, 0x7f,
  0xd3, 0x2a, 0xe4, 0xc6, 0xc8, 0x23, 0xeb, 0xa2, 0xd2, 0x14, 0x37, 0x55,
  0xf9, 0xe2, 0x51, 0xf2, 0xe0, 0x03, 0x60, 0x00, 0x0d, 0xfc, 0x3b, 0x86,
  0x0d, 0xe2, 0x8d, 0xd7, 0xb6, 0x21, 0x0d, 0x3a, 0xea, 0xdd, 0xe1, 0xb8,
  0x36, 0xf1, 0x16, 0x1c, 0xc3, 0xf3, 0x0e, 0xf4, 0xc8, 0x17, 0xc0, 0xd0,
  0xe4, 0xaa, 0x32, 0xd3, 0xf0, 0x43, 0x59, 0x5f, 0x8d, 0x0d, 0xef, 0xbf,
  0x50, 0x18, 0x24, 0x13, 0xc4, 0x24, 0xd0, 0xc1, 0x00, 0x1f, 0x81, 0xa2,
  0x1e, 0x27, 0xe8, 0x5c, 0x0c, 0xe6, 0x39, 0x00, 0xf1, 0xd2, 0x6a, 0xce,
  0x14, 0x28, 0x28, 0x01, 0xea, 0xf3, 0x21, 0xdd, 0xfd, 0xac, 0xc3, 0x5f,
  0xc4, 0x8b, 0x33, 0x7f, 0xe5, 0x06, 0xfd, 0x2d, 0x3b, 0xb2, 0x0c, 0x22,
  0x4c, 0xab, 0x9c, 0xeb, 0xbb, 0x08, 0xef, 0xcc, 0xe8, 0x9c, 0x07, 0x39,
  0xf7, 0xfd, 0x6d, 0x51, 0x2c, 0x90, 0x73, 0x01, 0xec, 0xaa, 0x4d, 0x6c,
  0x06, 0x19, 0x29, 0x2a, 0xc7, 0xa9, 0x05, 0x36, 0x93, 0xc9, 0xa9, 0xf7,
  0x24, 0x2e, 0xeb, 0x0b, 0xb9, 0xea, 0x03, 0xe7, 0x11, 0xd1, 0x19, 0x2d,
  0x29, 0xe0, 0xe5, 0x28, 0x1e, 0xf9, 0x13, 0x00, 0x31, 0x0e, 0xd8, 0xff,
  0x3c, 0xf1, 0x09, 0xcd, 0x05, 0xde, 0x2e, 0xc0, 0x34, 0xfd, 0xaa, 0x2b,
  0xa9, 0x34, 0x23, 0xdd, 0xf9, 0x62, 0xfb, 0x09, 0x3b, 0x3f, 0xcb, 0xba,
  0x0f, 0xc5, 0xb0, 0x27, 0xb1, 0x12, 0xeb, 0xce, 0x57, 0x20, 0xc1, 0x81,
  0xad, 0x2a, 0xfe, 0xe8, 0xed, 0x9b, 0x0c, 0xe4, 0x2f, 0x1b, 0x4a, 0x2b,
  0xf4, 0x12, 0xec, 0xe9, 0xd6, 0xdb, 0x09, 0xb9, 0x2e, 0xed, 0x1d, 0xef,
  0xee, 0x36, 0x34, 0xe6, 0xdd, 0x1a, 0x4d, 0x1c, 0x5b, 0xda, 0xd9, 0xcc,
  0x18, 0x17, 0x07, 0xf1, 0x05, 0xf3, 0xc7, 0x0b, 0xd3, 0x2d, 0xf9, 0x38,
  0x16, 0xde, 0x41, 0xfa, 0x0d, 0xe5, 0x16, 0x20, 0x3a, 0x10, 0xfb, 0x4e,
  0xdb, 0xf2, 0xfd, 0x7f, 0xe1, 0xa8, 0xf1, 0x1b, 0x01, 0xf1, 0x01, 0xb7,
  0xdd, 0xb3, 0xc4, 0xf4, 0x3c, 0x14, 0xc8, 0xf0, 0xba, 0x12, 0xc2, 0x14,
  0x37, 0xd6, 0xbe, 0x81, 0xf8, 0x0d, 0x9d, 0xf1, 0x43, 0x29, 0x2a, 0xa2,
  0x4c, 0xfa, 0xd6, 0x02, 0xc8, 0x26, 0xf4, 0x2d, 0xde, 0xf8, 0x48, 0xb9,
  0x3c, 0xfd, 0x00, 0xb3, 0xdd, 0x0a, 0xd4, 0x15, 0x12, 0x05, 0x0d, 0x1c,
  0x05, 0xf3, 0x4a, 0xc9, 0xf8, 0x08, 0xc6, 0x40, 0xd0, 0x3e, 0x24, 0xbd,
  0x18, 0xfe, 0xe9, 0xf6, 0xf4, 0xf6, 0xb8, 0x2a, 0x1e, 0x30, 0xc1, 0xcf,
  0x2b, 0xd4, 0xd9, 0xcd, 0xdd, 0xe8, 0x2b, 0xd9, 0x22, 0x24, 0x97, 0x0b,
  0xe8, 0xae, 0xdd, 0x0e, 0xcd, 0x03, 0xd5, 0xb8, 0xe8, 0xfa, 0xbb, 0x3b,
  0x2f, 0x3e, 0x87, 0xcf, 0x92, 0x92, 0x35, 0xf0, 0x1c, 0x38, 0x07, 0xf8,
  0xa8, 0x07, 0x1b, 0xd1, 0x33, 0xed, 0x7f, 0xd6, 0x0c, 0x3a, 0x3d, 0xba,
  0x21, 0x22, 0xb9, 0xd5, 0xb4, 0x66, 0xff, 0x58, 0x31, 0xd2, 0x04, 0xd2,
  0xb1, 0x16, 0x0b, 0x40, 0xf6, 0xe5, 0xe4, 0x56, 0xd3, 0x23, 0xc6, 0xf5,
  0x07, 0xdc, 0xf1, 0x2f, 0x0c, 0x2e, 0x35, 0xc6, 0xad, 0x1d, 0x2c, 0x52,
  0x32, 0xf4, 0xff, 0xff, 0x04, 0x00, 0x00, 0x00, 0x20, 0x01, 0x00, 0x00,
  0xae, 0xbf, 0x12, 0xa2, 0xe7, 0xc6, 0xec, 0x30, 0xa3, 0x66, 0x7a, 0x57,
  0x46, 0x81, 0xd7, 0x29, 0x08, 0xdb, 0x9c, 0x6f, 0x96, 0xed, 0x26, 0x4f,
  0xe4, 0xf3, 0xe5, 0xb6, 0xdb, 0x47, 0xf8, 0xd6, 0xd2, 0x43, 0x15, 0x46,
  0xcc, 0x13, 0xe5, 0xa9, 0xd3, 0xb7, 0x0d, 0x88, 0x12, 0xf3, 0xdd, 0xcb,
  0x8f, 0x0f, 0xd3, 0xda, 0x9e, 0x09, 0x42, 0xcb, 0x2a, 0xf6, 0x6d, 0x7f,
  0x68, 0xc9, 0x97, 0xf8, 0x21, 0x4f, 0xda, 0x72, 0x73, 0xc3, 0xa4, 0xb7,
  0x6a, 0xf0, 0x56, 0xc1, 0xa7, 0xbf, 0xd0, 0x81, 0xb0, 0xfc, 0x43, 0x17,
  0x25, 0xef, 0x5c, 0xe6, 0x4e, 0xed, 0xc1, 0xd9, 0x03, 0x08, 0xef, 0x26,
  0x73, 0x5f, 0x39, 0x03, 0x76, 0x14, 0xe0, 0x05, 0x4c, 0x81, 0x9b, 0xf1,
  0xce, 0x3b, 0x24, 0x1e, 0x2d, 0xe4, 0x1e, 0x55, 0x0d, 0x4b, 0x81, 0xd2,
  0x12, 0x2f, 0xb1, 0xe9, 0x6e, 0x04, 0xeb, 0xac, 0x0e, 0xc2, 0xbd, 0x18,
  0x12, 0x94, 0xee, 0xd1, 0xb8, 0xe2, 0x34, 0x73, 0x3f, 0xbf, 0x25, 0x23,
  0xb8, 0x5a, 0x0f, 0x23, 0x13, 0xe0, 0x19, 0x32, 0x03, 0xed, 0x9f, 0x8e,
  0x7f, 0x3b, 0xdb, 0x14, 0x39, 0xba, 0x40, 0xd9, 0xee, 0x40, 0xfb, 0x0b,
  0x71, 0x6f, 0xed, 0x36, 0x56, 0xe2, 0xce, 0xeb, 0x1d, 0xa1, 0x24, 0x9f,
  0x4d, 0xda, 0x32, 0x35, 0x15, 0xc9, 0xdf, 0x88, 0x50, 0x4a, 0xca, 0x9c,
  0x81, 0xac, 0xbe, 0xe7, 0x1b, 0x18, 0x57, 0xbf, 0x00, 0x29, 0x49, 0xcf,
  0xd8, 0x92, 0x29, 0xc8, 0xc0, 0xb0, 0xfa, 0xea, 0xc2, 0x56, 0x41, 0x1c,
  0x88, 0xdf, 0x4d, 0xa9, 0xf3, 0x51, 0x20, 0x49, 0xef, 0x54, 0x05, 0x23,
  0x83, 0x3f, 0x63, 0xf9, 0x7f, 0xe0, 0xa6, 0xc9, 0x16, 0xc3, 0xbd, 0x8f,
  0x0a, 0xe1, 0xe5, 0x21, 0xe5, 0xb4, 0x1a, 0xc2, 0xac, 0xb0, 0xe9, 0x3f,
  0x86, 0x2e, 0xdb, 0x52, 0x57, 0x37, 0xcc, 0x61, 0x4e, 0xda, 0x39, 0x81,
  0xee, 0xc6, 0xba, 0xa1, 0x74, 0xfd, 0x05, 0xfd, 0x52, 0x98, 0x49, 0x23,
  0xef, 0x0d, 0x67, 0x52, 0xa8, 0xe1, 0xac, 0xea, 0xcb, 0xa5, 0xdb, 0x0b,
  0x5e, 0xf5, 0xff, 0xff, 0x04, 0x00, 0x00, 0x00, 0x48, 0x00, 0x00, 0x00,
  0xf5, 0x56, 0x3a, 0x7f, 0xff, 0xc4, 0x29, 0xde, 0x3e, 0xbe, 0x4f, 0xba,
  0x17, 0xf6, 0x92, 0x4b, 0x47, 0xaf, 0x8a, 0x40, 0xb7, 0xf1, 0x09, 0x6d,
  0x19, 0x9e, 0x5f, 0x29, 0xa2, 0xbc, 0x97, 0xe7, 0x67, 0xcb, 0x7f, 0x74,
  0x6a, 0xb5, 0xde, 0xb5, 0x95, 0x50, 0x34, 0xe8, 0x96, 0x98, 0x0e, 0x46,
  0x8e, 0x42, 0xb8, 0x2f, 0x81, 0x6f, 0xb3, 0x85, 0x6e, 0xe6, 0x81, 0x06,
  0xfe, 0x13, 0xa9, 0x9c, 0x44, 0x73, 0xcc, 0x5f, 0xd1, 0xe4, 0x95, 0xcc,
  0xb2, 0xf5, 0xff, 0xff, 0x04, 0x00, 0x00, 0x00, 0x12, 0x00, 0x00, 0x00,
  0x28, 0xcb, 0x43, 0x9a, 0x97, 0x0c, 0x81, 0x3a, 0xbd, 0x13, 0xf0, 0x81,
  0xfa, 0x57, 0x74, 0x0f, 0xb0, 0x22, 0x00, 0x00, 0xd2, 0xf5, 0xff, 0xff,
  0x04, 0x00, 0x00, 0x00, 0x00, 0x08, 0x00, 0x00, 0xf9, 0xdf, 0x02, 0xf9,
  0x0c, 0xf2, 0xde, 0xfa, 0xff, 0x00, 0xf2, 0xff, 0x0a, 0x1f, 0x09, 0xe4,
  0x0b, 0xfa, 0xf1, 0xe1, 0xf8, 0x03, 0x07, 0x46, 0xf1, 0x0d, 0x0c, 0x0f,
  0xf3, 0xf0, 0xfd, 0x03, 0x00, 0x18, 0x07, 0x0f, 0xf6, 0xfa, 0xdc, 0x03,
  0x21, 0x11, 0x08, 0xfd, 0xf0, 0x13, 0x16, 0x11, 0x00, 0x0e, 0x12, 0x17,
  0x0d, 0x06, 0xfb, 0xd5, 0xe2, 0xea, 0xd8, 0xf9, 0x09, 0x07, 0x1e, 0x06,
  0x1d, 0xf8, 0xf0, 0x20, 0xd8, 0xf3, 0xff, 0x06, 0x08, 0xdf, 0x14, 0xed,
  0xec, 0x11, 0x0f, 0x02, 0x1a, 0xf1, 0x10, 0xfe, 0x12, 0xf8, 0x0e, 0x03,
  0x23, 0xf9, 0xf8, 0xf5, 0x08, 0x0a, 0xef, 0x18, 0xfa, 0x01, 0xf2, 0xf5,
  0x15, 0xfa, 0x03, 0xf7, 0x03, 0x18, 0x2a, 0x23, 0xed, 0xf8, 0x01, 0x19,
  0xf2, 0x10, 0xf8, 0xf8, 0x09, 0x05, 0x17, 0x0e, 0x08, 0x0b, 0x00, 0xf4,
  0x11, 0xf6, 0xfc, 0xef, 0x30, 0xf8, 0x11, 0xf2, 0x08, 0x1e, 0xfc, 0x37,
  0x11, 0xe6, 0x14, 0x09, 0x11, 0xe8, 0x09, 0x15, 0x21, 0x14, 0x13, 0x0a,
  0x09, 0x08, 0xf3, 0xfb, 0x14, 0xf7, 0x14, 0xf3, 0x02, 0xfc, 0xfa, 0xea,
  0xe9, 0x12, 0x25, 0xf8, 0xf7, 0x09, 0x5b, 0x2c, 0x13, 0x03, 0xf6, 0x05,
  0x18, 0xfc, 0x0d, 0xf2, 0xfc, 0xf4, 0x10, 0x08, 0x0c, 0xee, 0xf1, 0x0d,
  0x1e, 0xf6, 0x15, 0xf9, 0xed, 0x08, 0x0f, 0xfa, 0x1b, 0x1e, 0xee, 0x04,
  0xf9, 0x11, 0xd7, 0xef, 0x00, 0x3a, 0xf8, 0x0e, 0xff, 0xf4, 0x0c, 0x04,
  0xf4, 0x03, 0x1b, 0x22, 0x00, 0x16, 0xfc, 0x0f, 0x1e, 0x0d, 0xf4, 0xf1,
  0x0d, 0x15, 0xf4, 0x05, 0x1c, 0x31, 0x18, 0x09, 0x12, 0x1c, 0x0a, 0xfa,
  0x06, 0xf9, 0x09, 0x0d, 0xfe, 0x14, 0xfe, 0x01, 0x33, 0x02, 0xfe, 0x2c,
  0xf4, 0xf2, 0x04, 0xf7, 0xee, 0x07, 0x09, 0x14, 0xee, 0xf8, 0xf7, 0x32,
  0x16, 0xe9, 0xee, 0xf2, 0xf0, 0x0e, 0xed, 0x0b, 0x14, 0x17, 0xdf, 0x0b,
  0xf9, 0xf5, 0x08, 0x23, 0xf5, 0xfa, 0xf9, 0xc8, 0xe7, 0xe0, 0x02, 0x27,
  0x24, 0x02, 0x09, 0x17, 0x02, 0x18, 0xf6, 0xed, 0x02, 0x23, 0x10, 0xfa,
  0xef, 0x21, 0xf4, 0x0b, 0x13, 0x02, 0x08, 0xff, 0xf6, 0x05, 0x00, 0xed,
  0xf7, 0x10, 0x0b, 0x01, 0xf9, 0xce, 0xcc, 0x04, 0x0a, 0xf8, 0x14, 0x0b,
  0x04, 0xf2, 0x1f, 0x17, 0x13, 0xea, 0xf5, 0xfc, 0x12, 0x06, 0x03, 0x13,
  0x0c, 0xdb, 0xfe, 0x04, 0x0e, 0x01, 0x0d, 0xec, 0xfb, 0x0b, 0x05, 0xde,
  0xeb, 0xeb, 0xe3, 0x2a, 0x0a, 0x04, 0x29, 0x15, 0x06, 0xfa, 0xed, 0x08,
  0xf2, 0x0d, 0xf0, 0x1a, 0x03, 0x1a, 0xfc, 0xf5, 0x16, 0x17, 0xd4, 0xfc,
  0x12, 0x1c, 0xed, 0x0e, 0xfd, 0x0b, 0x0b, 0x1a, 0x0b, 0xe7, 0xf0, 0x0c,
  0xfd, 0x2d, 0xef, 0xf4, 0x0c, 0xf9, 0x15, 0xff, 0xff, 0xef, 0xf4, 0x0a,
  0xf4, 0xef, 0x02, 0xe9, 0x09, 0x1c, 0x2b, 0xff, 0xf7, 0x0d, 0x11, 0xf9,
  0xfd, 0xf5, 0xf3, 0xea, 0x08, 0xf9, 0xf9, 0x03, 0xe9, 0xf3, 0xf9, 0x0c,
  0x01, 0x17, 0x17, 0x02, 0x1a, 0xef, 0xff, 0xe9, 0x15, 0xfd, 0x25, 0xdc,
  0xe9, 0xf7, 0x10, 0xf5, 0x0c, 0x03, 0x01, 0xf7, 0xee, 0x13, 0xeb, 0x12,
  0x1e, 0x03, 0xfa, 0xf4, 0xf8, 0xe0, 0xfb, 0x00, 0xfa, 0x1e, 0xf3, 0xfc,
  0xf6, 0x21, 0x08, 0xe7, 0xf1, 0x24, 0x12, 0xf6, 0xef, 0x0b, 0xf7, 0x1a,
  0xf8, 0x06, 0xfa, 0xfb, 0x16, 0x10, 0xf3, 0x00, 0xf4, 0xf7, 0xe7, 0x31,
  0x23, 0xf5, 0x04, 0x19, 0xf8, 0xf2, 0x11, 0xe9, 0xea, 0x34, 0x0e, 0x0e,
  0x21, 0x03, 0xf4, 0xf2, 0x2c, 0x25, 0xda, 0x0a, 0x1a, 0x19, 0xff, 0x08,
  0x06, 0x0b, 0x06, 0x2a, 0xf6, 0x18, 0x0d, 0xfc, 0x12, 0x07, 0xe5, 0x0d,
  0x08, 0xfe, 0xf7, 0x1d, 0xfb, 0x0a, 0xf4, 0x0d, 0x11, 0xe5, 0xf1, 0xd6,
  0x2f, 0x16, 0x1a, 0xf3, 0x04, 0x11, 0xfc, 0xf8, 0x0b, 0x01, 0x16, 0x04,
  0x21, 0x4e, 0x21, 0x08, 0x14, 0xfc, 0x18, 0x1e, 0x05, 0x09, 0xfd, 0x11,
  0x2b, 0x03, 0xe9, 0x00, 0xe0, 0xf3, 0xf5, 0xed, 0x1c, 0x34, 0x1b, 0xf9,
  0xea, 0xf6, 0xf2, 0xea, 0xf5, 0xf3, 0xed, 0xde, 0x08, 0xfc, 0x05, 0xef,
  0x01, 0x19, 0xff, 0xee, 0x0c, 0xf0, 0x14, 0x16, 0xe0, 0x14, 0x1e, 0x11,
  0x13, 0x20, 0x15, 0xf6, 0x03, 0x1b, 0xf6, 0xfb, 0x05, 0xfc, 0x10, 0x15,
  0x0b, 0xef, 0x05, 0xde, 0x24, 0xe8, 0x0a, 0x02, 0x1c, 0xf6, 0x19, 0xf5,
  0x09, 0xf3, 0xf7, 0xfc, 0xe1, 0x24, 0xfa, 0xec, 0xf7, 0x09, 0xf9, 0xfa,
  0xfb, 0xfc, 0x1b, 0xeb, 0x15, 0x12, 0xea, 0xf5, 0x1b, 0xf9, 0xf3, 0xf6,
  0xf1, 0x0a, 0x03, 0xf1, 0xf4, 0x10, 0xf9, 0x13, 0xf4, 0x0e, 0xef, 0x15,
  0x1f, 0xff, 0x08, 0xed, 0xfd, 0xed, 0x08, 0xf4, 0x05, 0x01, 0x1a, 0x16,
  0xfd, 0xef, 0xf1, 0xff, 0xe1, 0xf5, 0x22, 0x00, 0x0c, 0x12, 0x2b, 0xf1,
  0x12, 0x2b, 0x08, 0x19, 0x0a, 0xf3, 0xef, 0x06, 0xf7, 0x0e, 0xf9, 0xfc,
  0x05, 0xeb, 0x0e, 0xf9, 0xf7, 0x0c, 0x08, 0x13, 0x01, 0x0b, 0x07, 0x0d,
  0x06, 0xed, 0xfa, 0x04, 0x22, 0x0f, 0xfe, 0xf7, 0xf1, 0x14, 0x0c, 0xe9,
  0xfb, 0x0b, 0xfc, 0x00, 0x08, 0x20, 0x11, 0xf6, 0xeb, 0x21, 0x21, 0xfe,
  0x10, 0x2b, 0x2a, 0xfd, 0x14, 0xdf, 0x09, 0x06, 0x23, 0xf9, 0xf9, 0x14,
  0x1d, 0x25, 0x16, 0x13, 0x00, 0xf3, 0x06, 0xfc, 0xff, 0x0e, 0x06, 0xf1,
  0x25, 0x07, 0x00, 0xfd, 0x19, 0x18, 0x0e, 0x20, 0xfd, 0x02, 0xfd, 0x16,
  0x07, 0x02, 0x1f, 0x15, 0xd8, 0x06, 0x0a, 0x19, 0x16, 0x05, 0x36, 0x03,
  0xea, 0x2a, 0xf9, 0xdf, 0x08, 0xf5, 0x00, 0x1a, 0xe2, 0xed, 0x07, 0xe3,
  0xfc, 0xff, 0x04, 0xf1, 0x06, 0x13, 0x06, 0x05, 0x01, 0xf7, 0x0d, 0x23,
  0xf5, 0xf6, 0xf2, 0xd7, 0xeb, 0x2d, 0x07, 0xdc, 0xfa, 0xf6, 0xf0, 0x06,
  0x06, 0x0f, 0x0d, 0xfe, 0x00, 0x15, 0x32, 0x15, 0x1d, 0xfc, 0x19, 0x0c,
  0xf2, 0x13, 0xf7, 0x01, 0x15, 0xe7, 0xf7, 0x19, 0xf9, 0xe7, 0x20, 0xeb,
  0xf3, 0x17, 0x1c, 0xc0, 0x00, 0xfa, 0xfc, 0x14, 0x15, 0x06, 0xed, 0x14,
  0x1c, 0x20, 0xee, 0xfd, 0x09, 0xf4, 0xe6, 0xe6, 0xf8, 0xed, 0xeb, 0xed,
  0x08, 0x16, 0x09, 0xeb, 0xeb, 0xf7, 0xfe, 0x07, 0xee, 0x34, 0x1b, 0xfe,
  0x04, 0x17, 0xdf, 0x1c, 0xff, 0x07, 0x10, 0xe5, 0xd3, 0x27, 0x03, 0x1e,
  0x1a, 0xf7, 0xef, 0xef, 0x1e, 0xf0, 0x16, 0xed, 0xeb, 0xf0, 0x10, 0x02,
  0xfe, 0xfb, 0x11, 0x18, 0xeb, 0xfe, 0x23, 0x1c, 0xda, 0x1e, 0xfa, 0xe0,
  0xf3, 0x0b, 0xfc, 0x0a, 0x25, 0xf8, 0x0a, 0xf2, 0xec, 0xe3, 0x2e, 0x07,
  0xf9, 0x1d, 0x21, 0x0a, 0x01, 0x09, 0xfe, 0x0a, 0xf9, 0xf6, 0xf3, 0x06,
  0xea, 0xfd, 0xff, 0x06, 0xf0, 0x24, 0xfe, 0x13, 0xfe, 0x03, 0x07, 0x09,
  0x23, 0xf4, 0xf1, 0xf8, 0x07, 0xfd, 0x63, 0x09, 0xf9, 0xfa, 0x47, 0x12,
  0xf4, 0x11, 0x0d, 0xf9, 0xe7, 0x0b, 0xfa, 0xf0, 0x03, 0x1f, 0x09, 0xff,
  0xf1, 0xfe, 0x00, 0x0f, 0x03, 0x15, 0x13, 0xf8, 0x4a, 0xf2, 0xf8, 0x1d,
  0xf6, 0xda, 0xfa, 0x0d, 0xeb, 0xd5, 0xdc, 0x0b, 0x00, 0x17, 0x11, 0x18,
  0xfb, 0x05, 0x0e, 0xfd, 0xfc, 0x0b, 0xff, 0xf9, 0x0f, 0xff, 0xde, 0xfe,
  0xf1, 0xee, 0xfd, 0x06, 0x06, 0x2f, 0x23, 0x18, 0x27, 0x0a, 0xf0, 0xd7,
  0x03, 0xdd, 0x18, 0xf3, 0x06, 0xf2, 0x12, 0x11, 0x1e, 0xfd, 0x0f, 0x17,
  0x1a, 0xfb, 0x10, 0x04, 0x19, 0x07, 0xf8, 0x2e, 0x05, 0xe9, 0x0a, 0x07,
  0xe3, 0x04, 0xfc, 0x0a, 0xfd, 0x03, 0x2c, 0x1c, 0x07, 0xec, 0x1e, 0x10,
  0xe9, 0x12, 0x06, 0xfa, 0xde, 0xeb, 0xe9, 0x15, 0x0f, 0x58, 0x05, 0xf3,
  0x34, 0xf0, 0xf0, 0xff, 0xee, 0xee, 0x0b, 0xef, 0xfd, 0x08, 0x08, 0xf7,
  0xf3, 0xe8, 0x19, 0x20, 0xea, 0xe9, 0xeb, 0xf1, 0xed, 0xec, 0x14, 0xee,
  0xd5, 0x0e, 0xde, 0x2a, 0x18, 0x13, 0xfa, 0x00, 0xe1, 0xf0, 0x04, 0x1a,
  0xf7, 0xf0, 0xf9, 0x00, 0xfc, 0x12, 0xfa, 0xf8, 0xf0, 0xea, 0xfb, 0xfa,
  0xea, 0xf4, 0xfc, 0x09, 0x0a, 0x0c, 0x0c, 0x02, 0x0a, 0x01, 0x2e, 0x03,
  0x14, 0x1a, 0xe0, 0xff, 0x7f, 0x03, 0xfb, 0xe9, 0x07, 0x10, 0xf3, 0xf4,
  0x0c, 0x46, 0x0f, 0xe8, 0x05, 0xf4, 0xea, 0x26, 0xff, 0xf7, 0xfa, 0xf8,
  0x09, 0x06, 0xf8, 0xfb, 0x16, 0x0d, 0x05, 0x0f, 0x17, 0xf8, 0xf3, 0x16,
  0xf7, 0xe8, 0xf6, 0x14, 0x19, 0xfc, 0xf2, 0x1b, 0x05, 0x1a, 0x08, 0x17,
  0x0c, 0xf9, 0x06, 0x3a, 0xfe, 0xe8, 0xf7, 0xf0, 0x10, 0x0e, 0xf9, 0x0d,
  0xf0, 0xfc, 0x08, 0x1e, 0x07, 0xea, 0xf2, 0xff, 0x1a, 0xd2, 0x0f, 0xf2,
  0x08, 0xed, 0xf4, 0xfe, 0x00, 0xea, 0xf2, 0xf6, 0x0d, 0x01, 0x23, 0x17,
  0x00, 0x17, 0xfb, 0xe0, 0xee, 0xf9, 0xf6, 0xf8, 0x01, 0x10, 0xfd, 0xfe,
  0xde, 0xfb, 0xd8, 0x00, 0xfe, 0xb5, 0x16, 0x0e, 0x0a, 0xf3, 0x12, 0x10,
  0x1d, 0x0f, 0xfe, 0xfa, 0xf2, 0xef, 0xf4, 0x0c, 0x02, 0x25, 0x03, 0xc2,
  0xed, 0x06, 0xec, 0xec, 0xfc, 0x0a, 0x04, 0xfb, 0xeb, 0x11, 0xd7, 0xf9,
  0xea, 0x0e, 0x05, 0x08, 0xf8, 0x0f, 0x19, 0xf2, 0x23, 0x26, 0x0d, 0x02,
  0x1d, 0x1b, 0x02, 0x1c, 0x27, 0xf0, 0x01, 0xe7, 0xf0, 0xf4, 0x14, 0x1d,
  0xe4, 0x00, 0xf9, 0x27, 0xf7, 0xf2, 0x03, 0x02, 0xe3, 0xce, 0x00, 0x19,
  0x21, 0x27, 0xf6, 0x02, 0x32, 0xfd, 0x35, 0x06, 0x11, 0x10, 0x11, 0xfb,
  0x05, 0x0c, 0xe7, 0x09, 0x21, 0x24, 0x17, 0x19, 0x19, 0x11, 0x30, 0xf3,
  0xf3, 0x21, 0x01, 0x13, 0x0e, 0xf6, 0x17, 0xf1, 0xfa, 0xed, 0xf7, 0x06,
  0x02, 0xdb, 0xef, 0xf9, 0x00, 0x33, 0xf0, 0x12, 0xdf, 0xf6, 0xfb, 0x0e,
  0x03, 0x28, 0xe9, 0x01, 0x09, 0xfd, 0xdf, 0x11, 0x0b, 0xfb, 0x00, 0x0b,
  0x0e, 0xe2, 0x04, 0xf0, 0xf3, 0x01, 0x12, 0xf3, 0x11, 0xfe, 0x17, 0xf5,
  0x06, 0xf5, 0x00, 0xef, 0xeb, 0x0c, 0xe4, 0x0c, 0x0e, 0xf4, 0xfa, 0x0e,
  0x1d, 0x0a, 0x01, 0x29, 0xf7, 0x24, 0xff, 0xfa, 0x21, 0xe5, 0xe7, 0x08,
  0xfd, 0x12, 0xef, 0x21, 0xeb, 0x06, 0xf1, 0x06, 0xfe, 0x08, 0xfb, 0x06,
  0xe5, 0x11, 0xf1, 0x15, 0xec, 0x0a, 0xff, 0x17, 0xde, 0x0e, 0x01, 0x19,
  0x10, 0x0d, 0x02, 0xf3, 0x46, 0xff, 0x01, 0xf6, 0x04, 0xf8, 0x13, 0x05,
  0x2b, 0xf0, 0xfe, 0x1d, 0x0b, 0x17, 0xed, 0x30, 0x0e, 0x06, 0xee, 0xf1,
  0xf1, 0xfd, 0x02, 0xf1, 0xe6, 0xf2, 0x08, 0x11, 0xeb, 0xf8, 0xd4, 0x0e,
  0xeb, 0x03, 0xfb, 0xfc, 0xea, 0xf8, 0x0c, 0xfe, 0xfa, 0xf3, 0x06, 0xf1,
  0x0d, 0xf7, 0xf8, 0x21, 0x13, 0xf1, 0xf3, 0xeb, 0x0d, 0x10, 0xed, 0xff,
  0x00, 0x07, 0xf6, 0xf6, 0xfe, 0x08, 0xf3, 0x14, 0x03, 0xd9, 0x03, 0x0b,
  0xec, 0xf3, 0xfb, 0xf4, 0xfd, 0xf3, 0xee, 0xd3, 0x11, 0x29, 0x12, 0xef,
  0xe7, 0xd4, 0x63, 0xdc, 0x05, 0xf7, 0xe9, 0xf7, 0xe3, 0x09, 0x0d, 0xf9,
  0x03, 0x1a, 0xf7, 0xe3, 0x2a, 0x11, 0x1e, 0xed, 0xf7, 0xf3, 0xe1, 0x01,
  0xf8, 0x24, 0x01, 0xfb, 0x2f, 0xfe, 0x01, 0xdf, 0xf3, 0x0d, 0x08, 0x06,
  0x10, 0xf6, 0xf1, 0x0d, 0x11, 0x0b, 0xf6, 0x38, 0x15, 0xeb, 0x0a, 0x12,
  0x13, 0xe8, 0x01, 0xf3, 0x1d, 0x07, 0xf0, 0x00, 0xfa, 0xec, 0x14, 0xfd,
  0xee, 0xf9, 0xef, 0xd1, 0x2e, 0xe3, 0xf0, 0x06, 0x1e, 0x16, 0x08, 0x06,
  0x14, 0x13, 0x1c, 0xe9, 0x0f, 0xcc, 0xe4, 0xeb, 0xe6, 0x23, 0xe7, 0x17,
  0xf1, 0xff, 0x01, 0xfd, 0xea, 0xfc, 0xf5, 0x00, 0xfa, 0x06, 0x15, 0x41,
  0xfe, 0xfd, 0x1c, 0x07, 0xf3, 0xcd, 0xfb, 0xde, 0x16, 0xf2, 0x0e, 0x05,
  0x11, 0x0a, 0x03, 0xfc, 0xf6, 0x18, 0x0a, 0x05, 0xea, 0xf4, 0xf2, 0xe1,
  0xda, 0xfb, 0x15, 0x06, 0xf2, 0x13, 0x08, 0x21, 0xff, 0x1e, 0x00, 0x01,
  0x01, 0xe9, 0xec, 0x0f, 0x1b, 0xfa, 0xf3, 0x3a, 0x01, 0xef, 0xf5, 0xf2,
  0x24, 0x09, 0xf3, 0xeb, 0x16, 0x04, 0x0c, 0x10, 0x05, 0x01, 0x01, 0x07,
  0x02, 0x04, 0x18, 0x0e, 0xfa, 0xf9, 0xf8, 0xe4, 0x00, 0xf9, 0xf1, 0xde,
  0x10, 0xef, 0x0e, 0x2b, 0x1a, 0x04, 0x17, 0x07, 0xec, 0x04, 0xfd, 0x18,
  0xf7, 0xf3, 0xf8, 0x16, 0xe0, 0x02, 0xf6, 0xef, 0xfb, 0xfb, 0x05, 0xfa,
  0x15, 0x25, 0xed, 0x00, 0xf4, 0x03, 0xfe, 0xf5, 0x03, 0x14, 0xf3, 0xec,
  0xe0, 0x00, 0x11, 0x04, 0x16, 0xee, 0xfb, 0xff, 0x00, 0xfe, 0x06, 0x14,
  0x34, 0x0f, 0xf5, 0x26, 0x01, 0xf5, 0xdc, 0x21, 0x18, 0xfd, 0xff, 0x08,
  0x07, 0x07, 0x16, 0xfd, 0x17, 0x09, 0xfd, 0xfd, 0xe6, 0xe0, 0x18, 0xdf,
  0xee, 0x01, 0xf3, 0xf6, 0xf1, 0x0e, 0x14, 0x07, 0x16, 0xea, 0xee, 0xf0,
  0xe5, 0xf4, 0x08, 0xe0, 0xe4, 0xf8, 0x42, 0x18, 0x14, 0xf3, 0x04, 0xf4,
  0x03, 0x00, 0xfd, 0xf8, 0x10, 0x09, 0x0c, 0xf2, 0x2c, 0x0f, 0xef, 0xf7,
  0x0c, 0x12, 0x15, 0x05, 0xda, 0x2c, 0x04, 0x02, 0x17, 0x17, 0x0e, 0xe8,
  0x09, 0xef, 0xf1, 0xff, 0xfe, 0x05, 0x0b, 0x18, 0xea, 0xfb, 0xf0, 0x04,
  0x14, 0xfd, 0xff, 0x01, 0xfc, 0x12, 0x10, 0x26, 0x26, 0xfa, 0x09, 0x0d,
  0xfa, 0x1d, 0x07, 0x17, 0xf7, 0x11, 0xde, 0x12, 0x0b, 0x2a, 0x0d, 0xf0,
  0xf9, 0xd7, 0xfe, 0x2a, 0xe8, 0xf1, 0xf8, 0xfe, 0x0a, 0xe8, 0x0a, 0x27,
  0xfe, 0x05, 0xf0, 0x25, 0x0c, 0xf5, 0xf4, 0x21, 0xe7, 0xfc, 0xfa, 0xfb,
  0xea, 0xb1, 0xf3, 0xf0, 0x18, 0x21, 0x12, 0x19, 0x0a, 0x0a, 0xff, 0x02,
  0x12, 0x18, 0xed, 0x14, 0xe9, 0x30, 0x19, 0xff, 0x09, 0x21, 0x0c, 0x30,
  0xfa, 0x0c, 0xef, 0x11, 0x30, 0xf3, 0xf1, 0x08, 0x09, 0x28, 0x0b, 0x1c,
  0x02, 0xce, 0x09, 0xf1, 0xea, 0x14, 0xf2, 0x17, 0xed, 0xfe, 0xf2, 0x17,
  0x02, 0xe3, 0x08, 0x0c, 0x0a, 0xf4, 0x12, 0x06, 0xf0, 0xff, 0x00, 0xe7,
  0xef, 0xf5, 0x24, 0x0c, 0xee, 0x42, 0x19, 0xcb, 0xf6, 0x21, 0x0d, 0x0d,
  0xf9, 0xf4, 0x11, 0x07, 0x1a, 0x04, 0xff, 0xed, 0x08, 0x0f, 0x03, 0x0a,
  0xdd, 0xef, 0x16, 0xff, 0xfa, 0x09, 0x16, 0xfa, 0xde, 0x03, 0xfc, 0x0b,
  0x09, 0x1a, 0xec, 0xe4, 0xfa, 0x1f, 0x0f, 0x0b, 0x02, 0x06, 0x05, 0x06,
  0xeb, 0xf7, 0x0c, 0xf7, 0x00, 0x07, 0xf3, 0x02, 0xe2, 0x14, 0xf2, 0x03,
  0x1a, 0xf5, 0x10, 0xfe, 0x3c, 0xfa, 0xfc, 0xfb, 0x02, 0xb4, 0xed, 0x17,
  0x16, 0xfc, 0xe9, 0xf6, 0x13, 0x0e, 0xfd, 0x07, 0x05, 0xf0, 0x04, 0xf4,
  0x02, 0xf7, 0x05, 0xe8, 0x04, 0x16, 0xf1, 0xe2, 0x0e, 0x0d, 0xf8, 0xf6,
  0x26, 0xf3, 0x15, 0x07, 0x0f, 0xf2, 0x28, 0xe7, 0x0a, 0xef, 0x1a, 0x07,
  0x10, 0x08, 0x0c, 0xf6, 0xe4, 0x11, 0xf7, 0xf3, 0xf5, 0x10, 0xfe, 0xe8,
  0x0a, 0x13, 0xff, 0x03, 0xe9, 0xe7, 0x10, 0x24, 0xef, 0x1c, 0x0a, 0xe0,
  0xf2, 0x09, 0xe4, 0xea, 0x0b, 0xfc, 0xfa, 0xfd, 0xf2, 0xf9, 0x03, 0x25,
  0xf9, 0xfc, 0xef, 0x43, 0x0f, 0x09, 0x3c, 0x12, 0x0a, 0x08, 0x0c, 0x07,
  0x2c, 0x1c, 0xf7, 0xfe, 0xde, 0xfd, 0xff, 0xff, 0x04, 0x00, 0x00, 0x00,
  0x08, 0x00, 0x00, 0x00, 0xff, 0xff, 0xff, 0xff, 0x00, 0x08, 0x00, 0x00,
  0xf2, 0xfd, 0xff, 0xff, 0x04, 0x00, 0x00, 0x00, 0x08, 0x00, 0x00, 0x00,
  0xe6, 0xff, 0xff, 0xff, 0xbd, 0xff, 0xff, 0xff, 0x06, 0xfe, 0xff, 0xff,
  0x04, 0x00, 0x00, 0x00, 0x10, 0x00, 0x00, 0x00, 0x96, 0xff, 0xff, 0xff,
  0x31, 0x00, 0x00, 0x00, 0x3c, 0xff, 0xff, 0xff, 0x3f, 0x00, 0x00, 0x00,
  0x22, 0xfe, 0xff, 0xff, 0x04, 0x00, 0x00, 0x00, 0x20, 0x00, 0x00, 0x00,
  0x88, 0xff, 0xff, 0xff, 0x86, 0xff, 0xff, 0xff, 0xc4, 0xfe, 0xff, 0xff,
  0xe9, 0xff, 0xff, 0xff, 0x22, 0xfe, 0xff, 0xff, 0x0f, 0xfe, 0xff, 0xff,
  0xde, 0xfe, 0xff, 0xff, 0xfc, 0xff, 0xff, 0xff, 0x4e, 0xfe, 0xff, 0xff,
  0x04, 0x00, 0x00, 0x00, 0x40, 0x00, 0x00, 0x00, 0xef, 0xfe, 0xff, 0xff,
  0xd6, 0xfe, 0xff, 0xff, 0xb4, 0xfe, 0xff, 0xff, 0x7d, 0xff, 0xff, 0xff,
  0xa3, 0xff, 0xff, 0xff, 0xb9, 0xfc, 0xff, 0xff, 0x74, 0xff, 0xff, 0xff,
  0x08, 0xff, 0xff, 0xff, 0x40, 0xff, 0xff, 0xff, 0xdf, 0xfd, 0xff, 0xff,
  0x7f, 0xfe, 0xff, 0xff, 0x1c, 0xff, 0xff, 0xff, 0x9f, 0xfd, 0xff, 0xff,
  0xb9, 0xfe, 0xff, 0xff, 0xe8, 0xfe, 0xff, 0xff, 0xbb, 0xfe, 0xff, 0xff,
  0x9a, 0xfe, 0xff, 0xff, 0x04, 0x00, 0x00, 0x00, 0x80, 0x00, 0x00, 0x00,
  0xda, 0x00, 0x00, 0x00, 0x38, 0xff, 0xff, 0xff, 0x4a, 0x00, 0x00, 0x00,
  0x1d, 0x01, 0x00, 0x00, 0xae, 0x00, 0x00, 0x00, 0x45, 0x00, 0x00, 0x00,
  0xab, 0xfe, 0xff, 0xff, 0x3e, 0x00, 0x00, 0x00, 0xef, 0x00, 0x00, 0x00,
  0x60, 0xff, 0xff, 0xff, 0x7a, 0x00, 0x00, 0x00, 0x06, 0x00, 0x00, 0x00,
  0xe6, 0x00, 0x00, 0x00, 0x6b, 0xff, 0xff, 0xff, 0x76, 0x00, 0x00, 0x00,
  0xc7, 0x00, 0x00, 0x00, 0xa8, 0xff, 0xff, 0xff, 0x64, 0x00, 0x00, 0x00,
  0x48, 0x00, 0x00, 0x00, 0x03, 0xff, 0xff, 0xff, 0x77, 0x00, 0x00, 0x00,
  0xb6, 0x00, 0x00, 0x00, 0xdc, 0xff, 0xff, 0xff, 0xf5, 0x01, 0x00, 0x00,
  0x50, 0xff, 0xff, 0xff, 0x13, 0x00, 0x00, 0x00, 0x9b, 0x00, 0x00, 0x00,
  0xf7, 0xff, 0xff, 0xff, 0xbf, 0xff, 0xff, 0xff, 0xae, 0xff, 0xff, 0xff,
  0x97, 0x01, 0x00, 0x00, 0x69, 0xff, 0xff, 0xff, 0x26, 0xff, 0xff, 0xff,
  0x04, 0x00, 0x00, 0x00, 0x40, 0x00, 0x00, 0x00, 0x98, 0x00, 0x00, 0x00,
  0x58, 0xff, 0xff, 0xff, 0x6d, 0x00, 0x00, 0x00, 0x50, 0xff, 0xff, 0xff,
  0xc5, 0x00, 0x00, 0x00, 0x5b, 0x00, 0x00, 0x00, 0x62, 0x00, 0x00, 0x00,
  0x34, 0x00, 0x00, 0x00, 0xec, 0xff, 0xff, 0xff, 0x0a, 0x00, 0x00, 0x00,
  0xf4, 0xff, 0xff, 0xff, 0xa3, 0xff, 0xff, 0xff, 0xf3, 0xff, 0xff, 0xff,
  0xfb, 0xff, 0xff, 0xff, 0x5b, 0x00, 0x00, 0x00, 0x11, 0x01, 0x00, 0x00,
  0x72, 0xff, 0xff, 0xff, 0x04, 0x00, 0x00, 0x00, 0x80, 0x00, 0x00, 0x00,
  0xc5, 0xff, 0xff, 0xff, 0xa6, 0x00, 0x00, 0x00, 0x9e, 0xff, 0xff, 0xff,
  0x6f, 0x00, 0x00, 0x00, 0xef, 0xff, 0xff, 0xff, 0x46, 0x00, 0x00, 0x00,
  0x62, 0x01, 0x00, 0x00, 0xf3, 0x00, 0x00, 0x00, 0x7a, 0x00, 0x00, 0x00,
  0x3d, 0x00, 0x00, 0x00, 0x94, 0x00, 0x00, 0x00, 0x95, 0xff, 0xff, 0xff,
  0xe5, 0xff, 0xff, 0xff, 0x17, 0x00, 0x00, 0x00, 0x63, 0xff, 0xff, 0xff,
  0x65, 0x00, 0x00, 0x00, 0xcf, 0xff, 0xff, 0xff, 0x5a, 0xff, 0xff, 0xff,
  0x75, 0xff, 0xff, 0xff, 0x65, 0x01, 0x00, 0x00, 0xad, 0xff, 0xff, 0xff,
  0x6f, 0x01, 0x00, 0x00, 0x6e, 0x00, 0x00, 0x00, 0xe5, 0xff, 0xff, 0xff,
  0xd5, 0x00, 0x00, 0x00, 0xcb, 0xff, 0xff, 0xff, 0xb8, 0xff, 0xff, 0xff,
  0x07, 0x00, 0x00, 0x00, 0xc1, 0xff, 0xff, 0xff, 0xf9, 0xff, 0xff, 0xff,
  0x4d, 0x00, 0x00, 0x00, 0x2a, 0x00, 0x00, 0x00, 0x00, 0x00, 0x06, 0x00,
  0x08, 0x00, 0x04, 0x00, 0x06, 0x00, 0x00, 0x00, 0x04, 0x00, 0x00, 0x00,
  0x04, 0x00, 0x00, 0x00, 0xb9, 0xff, 0xff, 0xff, 0x78, 0xe7, 0xff, 0xff,
  0x7c, 0xe7, 0xff, 0xff, 0x0f, 0x00, 0x00, 0x00, 0x4d, 0x4c, 0x49, 0x52,
  0x20, 0x43, 0x6f, 0x6e, 0x76, 0x65, 0x72, 0x74, 0x65, 0x64, 0x2e, 0x00,
  0x01, 0x00, 0x00, 0x00, 0x14, 0x00, 0x00, 0x00, 0x00, 0x00, 0x0e, 0x00,
  0x18, 0x00, 0x14, 0x00, 0x10, 0x00, 0x0c, 0x00, 0x08, 0x00, 0x04, 0x00,
  0x0e, 0x00, 0x00, 0x00, 0x14, 0x00, 0x00, 0x00, 0x1c, 0x00, 0x00, 0x00,
  0xb8, 0x03, 0x00, 0x00, 0xbc, 0x03, 0x00, 0x00, 0xc0, 0x03, 0x00, 0x00,
  0x04, 0x00, 0x00, 0x00, 0x6d, 0x61, 0x69, 0x6e, 0x00, 0x00, 0x00, 0x00,
  0x0e, 0x00, 0x00, 0x00, 0x54, 0x03, 0x00, 0x00, 0xf0, 0x02, 0x00, 0x00,
  0xa0, 0x02, 0x00, 0x00, 0x5c, 0x02, 0x00, 0x00, 0x1c, 0x02, 0x00, 0x00,
  0xd8, 0x01, 0x00, 0x00, 0x98, 0x01, 0x00, 0x00, 0x54, 0x01, 0x00, 0x00,
  0x14, 0x01, 0x00, 0x00, 0xd4, 0x00, 0x00, 0x00, 0x94, 0x00, 0x00, 0x00,
  0x6c, 0x00, 0x00, 0x00, 0x28, 0x00, 0x00, 0x00, 0x04, 0x00, 0x00, 0x00,
  0xaa, 0xff, 0xff, 0xff, 0x0c, 0x00, 0x00, 0x00, 0x10, 0x00, 0x00, 0x00,
  0x04, 0x00, 0x00, 0x00, 0x01, 0x00, 0x00, 0x00, 0x1f, 0x00, 0x00, 0x00,
  0x01, 0x00, 0x00, 0x00, 0x1e, 0x00, 0x00, 0x00, 0x72, 0xfd, 0xff, 0xff,
  0x14, 0x00, 0x00, 0x00, 0x00, 0x00, 0x00, 0x08, 0x10, 0x00, 0x00, 0x00,
  0x14, 0x00, 0x00, 0x00, 0x03, 0x00, 0x00, 0x00, 0x44, 0xe8, 0xff, 0xff,
  0x01, 0x00, 0x00, 0x00, 0x1e, 0x00, 0x00, 0x00, 0x03, 0x00, 0x00, 0x00,
  0x1d, 0x00, 0x00, 0x00, 0x0a, 0x00, 0x00, 0x00, 0x01, 0x00, 0x00, 0x00,
  0x00, 0x00, 0x0a, 0x00, 0x10, 0x00, 0x0c, 0x00, 0x08, 0x00, 0x04, 0x00,
  0x0a, 0x00, 0x00, 0x00, 0x0c, 0x00, 0x00, 0x00, 0x10, 0x00, 0x00, 0x00,
  0x02, 0x00, 0x00, 0x00, 0x01, 0x00, 0x00, 0x00, 0x1d, 0x00, 0x00, 0x00,
  0x02, 0x00, 0x00, 0x00, 0x1c, 0x00, 0x00, 0x00, 0x09, 0x00, 0x00, 0x00,
  0x76, 0xfd, 0xff, 0xff, 0x10, 0x00, 0x00, 0x00, 0x00, 0x00, 0x00, 0x01,
  0x18, 0x00, 0x00, 0x00, 0x1c, 0x00, 0x00, 0x00, 0x68, 0xfd, 0xff, 0xff,
  0x00, 0x00, 0x00, 0x01, 0x01, 0x00, 0x00, 0x00, 0x01, 0x00, 0x00, 0x00,
  0x01, 0x00, 0x00, 0x00, 0x1c, 0x00, 0x00, 0x00, 0x03, 0x00, 0x00, 0x00,
  0x1b, 0x00, 0x00, 0x00, 0x11, 0x00, 0x00, 0x00, 0x02, 0x00, 0x00, 0x00,
  0xb2, 0xfd, 0xff, 0xff, 0x10, 0x00, 0x00, 0x00, 0x00, 0x00, 0x00, 0x01,
  0x18, 0x00, 0x00, 0x00, 0x1c, 0x00, 0x00, 0x00, 0xa4, 0xfd, 0xff, 0xff,
  0x00, 0x00, 0x00, 0x01, 0x01, 0x00, 0x00, 0x00, 0x01, 0x00, 0x00, 0x00,
  0x01, 0x00, 0x00, 0x00, 0x1b, 0x00, 0x00, 0x00, 0x03, 0x00, 0x00, 0x00,
  0x1a, 0x00, 0x00, 0x00, 0x10, 0x00, 0x00, 0x00, 0x03, 0x00, 0x00, 0x00,
  0xee, 0xfd, 0xff, 0xff, 0x10, 0x00, 0x00, 0x00, 0x00, 0x00, 0x00, 0x01,
  0x18, 0x00, 0x00, 0x00, 0x1c, 0x00, 0x00, 0x00, 0xe0, 0xfd, 0xff, 0xff,
  0x00, 0x00, 0x00, 0x01, 0x01, 0x00, 0x00, 0x00, 0x01, 0x00, 0x00, 0x00,
  0x01, 0x00, 0x00, 0x00, 0x1a, 0x00, 0x00, 0x00, 0x03, 0x00, 0x00, 0x00,
  0x19, 0x00, 0x00, 0x00, 0x0f, 0x00, 0x00, 0x00, 0x04, 0x00, 0x00, 0x00,
  0x8a, 0xfe, 0xff, 0xff, 0x14, 0x00, 0x00, 0x00, 0x00, 0x00, 0x00, 0x05,
  0x24, 0x00, 0x00, 0x00, 0x28, 0x00, 0x00, 0x00, 0x01, 0x00, 0x00, 0x00,
  0x7a, 0xfe, 0xff, 0xff, 0x02, 0x00, 0x00, 0x00, 0x02, 0x00, 0x00, 0x00,
  0x02, 0x00, 0x00, 0x00, 0x02, 0x00, 0x00, 0x00, 0x00, 0x00, 0x00, 0x01,
  0x01, 0x00, 0x00, 0x00, 0x19, 0x00, 0x00, 0x00, 0x01, 0x00, 0x00, 0x00,
  0x18, 0x00, 0x00, 0x00, 0x6a, 0xfe, 0xff, 0xff, 0x10, 0x00, 0x00, 0x00,
  0x00, 0x00, 0x00, 0x01, 0x18, 0x00, 0x00, 0x00, 0x1c, 0x00, 0x00, 0x00,
  0x5c, 0xfe, 0xff, 0xff, 0x00, 0x00, 0x00, 0x01, 0x01, 0x00, 0x00, 0x00,
  0x01, 0x00, 0x00, 0x00, 0x01, 0x00, 0x00, 0x00, 0x18, 0x00, 0x00, 0x00,
  0x03, 0x00, 0x00, 0x00, 0x17, 0x00, 0x00, 0x00, 0x0e, 0x00, 0x00, 0x00,
  0x05, 0x00, 0x00, 0x00, 0x06, 0xff, 0xff, 0xff, 0x14, 0x00, 0x00, 0x00,
  0x00, 0x00, 0x00, 0x05, 0x24, 0x00, 0x00, 0x00, 0x28, 0x00, 0x00, 0x00,
  0x01, 0x00, 0x00, 0x00, 0xf6, 0xfe, 0xff, 0xff, 0x02, 0x00, 0x00, 0x00,
  0x02, 0x00, 0x00, 0x00, 0x02, 0x00, 0x00, 0x00, 0x02, 0x00, 0x00, 0x00,
  0x00, 0x00, 0x00, 0x01, 0x01, 0x00, 0x00, 0x00, 0x17, 0x00, 0x00, 0x00,
  0x01, 0x00, 0x00, 0x00, 0x16, 0x00, 0x00, 0x00, 0xe6, 0xfe, 0xff, 0xff,
  0x10, 0x00, 0x00, 0x00, 0x00, 0x00, 0x00, 0x01, 0x18, 0x00, 0x00, 0x00,
  0x1c, 0x00, 0x00, 0x00, 0xd8, 0xfe, 0xff, 0xff, 0x00, 0x00, 0x00, 0x01,
  0x01, 0x00, 0x00, 0x00, 0x01, 0x00, 0x00, 0x00, 0x01, 0x00, 0x00, 0x00,
  0x16, 0x00, 0x00, 0x00, 0x03, 0x00, 0x00, 0x00, 0x15, 0x00, 0x00, 0x00,
  0x0d, 0x00, 0x00, 0x00, 0x06, 0x00, 0x00, 0x00, 0x82, 0xff, 0xff, 0xff,
  0x14, 0x00, 0x00, 0x00, 0x00, 0x00, 0x00, 0x05, 0x24, 0x00, 0x00, 0x00,
  0x28, 0x00, 0x00, 0x00, 0x01, 0x00, 0x00, 0x00, 0x72, 0xff, 0xff, 0xff,
  0x02, 0x00, 0x00, 0x00, 0x02, 0x00, 0x00, 0x00, 0x02, 0x00, 0x00, 0x00,
  0x02, 0x00, 0x00, 0x00, 0x00, 0x00, 0x00, 0x01, 0x01, 0x00, 0x00, 0x00,
  0x15, 0x00, 0x00, 0x00, 0x01, 0x00, 0x00, 0x00, 0x14, 0x00, 0x00, 0x00,
  0x62, 0xff, 0xff, 0xff, 0x10, 0x00, 0x00, 0x00, 0x00, 0x00, 0x00, 0x01,
  0x18, 0x00, 0x00, 0x00, 0x1c, 0x00, 0x00, 0x00, 0x54, 0xff, 0xff, 0xff,
  0x00, 0x00, 0x00, 0x01, 0x01, 0x00, 0x00, 0x00, 0x01, 0x00, 0x00, 0x00,
  0x01, 0x00, 0x00, 0x00, 0x14, 0x00, 0x00, 0x00, 0x03, 0x00, 0x00, 0x00,
  0x13, 0x00, 0x00, 0x00, 0x0c, 0x00, 0x00, 0x00, 0x07, 0x00, 0x00, 0x00,
  0x00, 0x00, 0x0e, 0x00, 0x1a, 0x00, 0x14, 0x00, 0x10, 0x00, 0x0c, 0x00,
  0x0b, 0x00, 0x04, 0x00, 0x0e, 0x00, 0x00, 0x00, 0x24, 0x00, 0x00, 0x00,
  0x00, 0x00, 0x00, 0x05, 0x34, 0x00, 0x00, 0x00, 0x38, 0x00, 0x00, 0x00,
  0x01, 0x00, 0x00, 0x00, 0x00, 0x00, 0x0e, 0x00, 0x18, 0x00, 0x17, 0x00,
  0x10, 0x00, 0x0c, 0x00, 0x08, 0x00, 0x04, 0x00, 0x0e, 0x00, 0x00, 0x00,
  0x02, 0x00, 0x00, 0x00, 0x02, 0x00, 0x00, 0x00, 0x02, 0x00, 0x00, 0x00,
  0x02, 0x00, 0x00, 0x00, 0x00, 0x00, 0x00, 0x01, 0x01, 0x00, 0x00, 0x00,
  0x13, 0x00, 0x00, 0x00, 0x01, 0x00, 0x00, 0x00, 0x12, 0x00, 0x00, 0x00,
  0x00, 0x00, 0x0e, 0x00, 0x14, 0x00, 0x00, 0x00, 0x10, 0x00, 0x0c, 0x00,
  0x0b, 0x00, 0x04, 0x00, 0x0e, 0x00, 0x00, 0x00, 0x1c, 0x00, 0x00, 0x00,
  0x00, 0x00, 0x00, 0x01, 0x24, 0x00, 0x00, 0x00, 0x28, 0x00, 0x00, 0x00,
  0x0c, 0x00, 0x10, 0x00, 0x00, 0x00, 0x0c, 0x00, 0x08, 0x00, 0x07, 0x00,
  0x0c, 0x00, 0x00, 0x00, 0x00, 0x00, 0x00, 0x01, 0x01, 0x00, 0x00, 0x00,
  0x01, 0x00, 0x00, 0x00, 0x01, 0x00, 0x00, 0x00, 0x12, 0x00, 0x00, 0x00,
  0x03, 0x00, 0x00, 0x00, 0x00, 0x00, 0x00, 0x00, 0x0b, 0x00, 0x00, 0x00,
  0x08, 0x00, 0x00, 0x00, 0x01, 0x00, 0x00, 0x00, 0x1f, 0x00, 0x00, 0x00,
  0x01, 0x00, 0x00, 0x00, 0x00, 0x00, 0x00, 0x00, 0x20, 0x00, 0x00, 0x00,
  0x4c, 0x1c, 0x00, 0x00, 0xd0, 0x1b, 0x00, 0x00, 0xf0, 0x19, 0x00, 0x00,
  0xe4, 0x18, 0x00, 0x00, 0x18, 0x17, 0x00, 0x00, 0x0c, 0x16, 0x00, 0x00,
  0x60, 0x15, 0x00, 0x00, 0xe4, 0x14, 0x00, 0x00, 0x80, 0x14, 0x00, 0x00,
  0x40, 0x14, 0x00, 0x00, 0xc8, 0x13, 0x00, 0x00, 0x34, 0x13, 0x00, 0x00,
  0x78, 0x12, 0x00, 0x00, 0x6c, 0x11, 0x00, 0x00, 0xc0, 0x0f, 0x00, 0x00,
  0xd4, 0x0c, 0x00, 0x00, 0x28, 0x0b, 0x00, 0x00, 0x3c, 0x08, 0x00, 0x00,
  0xa0, 0x07, 0x00, 0x00, 0x0c, 0x07, 0x00, 0x00, 0x70, 0x06, 0x00, 0x00,
  0xd4, 0x05, 0x00, 0x00, 0x38, 0x05, 0x00, 0x00, 0x9c, 0x04, 0x00, 0x00,
  0x00, 0x04, 0x00, 0x00, 0x64, 0x03, 0x00, 0x00, 0xc8, 0x02, 0x00, 0x00,
  0x2c, 0x02, 0x00, 0x00, 0x90, 0x01, 0x00, 0x00, 0x0c, 0x01, 0x00, 0x00,
  0x80, 0x00, 0x00, 0x00, 0x04, 0x00, 0x00, 0x00, 0x48, 0xe4, 0xff, 0xff,
  0x18, 0x00, 0x00, 0x00, 0x20, 0x00, 0x00, 0x00, 0x3c, 0x00, 0x00, 0x00,
  0x20, 0x00, 0x00, 0x00, 0x00, 0x00, 0x00, 0x09, 0x54, 0x00, 0x00, 0x00,
  0x02, 0x00, 0x00, 0x00, 0xff, 0xff, 0xff, 0xff, 0x01, 0x00, 0x00, 0x00,
  0xbc, 0xe4, 0xff, 0xff, 0x08, 0x00, 0x00, 0x00, 0x10, 0x00, 0x00, 0x00,
  0x01, 0x00, 0x00, 0x00, 0x80, 0xff, 0xff, 0xff, 0xff, 0xff, 0xff, 0xff,
  0x01, 0x00, 0x00, 0x00, 0x00, 0x00, 0x80, 0x3b, 0x1e, 0x00, 0x00, 0x00,
  0x53, 0x74, 0x61, 0x74, 0x65, 0x66, 0x75, 0x6c, 0x50, 0x61, 0x72, 0x74,
  0x69, 0x74, 0x69, 0x6f, 0x6e, 0x65, 0x64, 0x43, 0x61, 0x6c, 0x6c, 0x3a,
  0x30, 0x5f, 0x69, 0x6e, 0x74, 0x38, 0x00, 0x00, 0x02, 0x00, 0x00, 0x00,
  0x01, 0x00, 0x00, 0x00, 0x01, 0x00, 0x00, 0x00, 0xc0, 0xe4, 0xff, 0xff,
  0x18, 0x00, 0x00, 0x00, 0x20, 0x00, 0x00, 0x00, 0x58, 0x00, 0x00, 0x00,
  0x1f, 0x00, 0x00, 0x00, 0x00, 0x00, 0x00, 0x09, 0x64, 0x00, 0x00, 0x00,
  0x02, 0x00, 0x00, 0x00, 0xff, 0xff, 0xff, 0xff, 0x01, 0x00, 0x00, 0x00,
  0xa4, 0xe4, 0xff, 0xff, 0x10, 0x00, 0x00, 0x00, 0x1c, 0x00, 0x00, 0x00,
  0x20, 0x00, 0x00, 0x00, 0x24, 0x00, 0x00, 0x00, 0x01, 0x00, 0x00, 0x00,
  0x90, 0xff, 0xff, 0xff, 0xff, 0xff, 0xff, 0xff, 0x00, 0x00, 0x00, 0x00,
  0x01, 0x00, 0x00, 0x00, 0xda, 0xf1, 0x0b, 0x3e, 0x01, 0x00, 0x00, 0x00,
  0x88, 0x85, 0x02, 0x42, 0x01, 0x00, 0x00, 0x00, 0xfd, 0x05, 0x0e, 0xc0,
  0x13, 0x00, 0x00, 0x00, 0x74, 0x66, 0x6c, 0x2e, 0x66, 0x75, 0x6c, 0x6c,
  0x79, 0x5f, 0x63, 0x6f, 0x6e, 0x6e, 0x65, 0x63, 0x74, 0x65, 0x64, 0x00,
  0x02, 0x00, 0x00, 0x00, 0x01, 0x00, 0x00, 0x00, 0x01, 0x00, 0x00, 0x00,
  0x48, 0xe5, 0xff, 0xff, 0x18, 0x00, 0x00, 0x00, 0x20, 0x00, 0x00, 0x00,
  0x58, 0x00, 0x00, 0x00, 0x1e, 0x00, 0x00, 0x00, 0x00, 0x00, 0x00, 0x09,
  0x5c, 0x00, 0x00, 0x00, 0x02, 0x00, 0x00, 0x00, 0xff, 0xff, 0xff, 0xff,
  0x00, 0x08, 0x00, 0x00, 0x2c, 0xe5, 0xff, 0xff, 0x10, 0x00, 0x00, 0x00,
  0x1c, 0x00, 0x00, 0x00, 0x20, 0x00, 0x00, 0x00, 0x24, 0x00, 0x00, 0x00,
  0x01, 0x00, 0x00, 0x00, 0x80, 0xff, 0xff, 0xff, 0xff, 0xff, 0xff, 0xff,
  0x00, 0x00, 0x00, 0x00, 0x01, 0x00, 0x00, 0x00, 0x03, 0x9c, 0x96, 0x3d,
  0x01, 0x00, 0x00, 0x00, 0x67, 0x05, 0x96, 0x41, 0x01, 0x00, 0x00, 0x00,
  0x00, 0x00, 0x00, 0x00, 0x0b, 0x00, 0x00, 0x00, 0x74, 0x66, 0x6c, 0x2e,
  0x72, 0x65, 0x73, 0x68, 0x61, 0x70, 0x65, 0x00, 0x02, 0x00, 0x00, 0x00,
  0x01, 0x00, 0x00, 0x00, 0x00, 0x08, 0x00, 0x00, 0xc8, 0xe5, 0xff, 0xff,
  0x18, 0x00, 0x00, 0x00, 0x28, 0x00, 0x00, 0x00, 0x60, 0x00, 0x00, 0x00,
  0x1d, 0x00, 0x00, 0x00, 0x00, 0x00, 0x00, 0x09, 0x6c, 0x00, 0x00, 0x00,
