
/* Copyright 2019 The TensorFlow Authors. All Rights Reserved.

Licensed under the Apache License, Version 2.0 (the "License");
you may not use this file except in compliance with the License.
You may obtain a copy of the License at

    http://www.apache.org/licenses/LICENSE-2.0

Unless required by applicable law or agreed to in writing, software
distributed under the License is distributed on an "AS IS" BASIS,
WITHOUT WARRANTIES OR CONDITIONS OF ANY KIND, either express or implied.
See the License for the specific language governing permissions and
limitations under the License.
==============================================================================*/

// This is a TensorFlow Lite model file that has been converted into a C data
// array using the tensorflow.lite.util.convert_bytes_to_c_source() function.
// This form is useful for compiling into a binary for devices that don't have a
// file system.

#include "model_data.h"

// Keep model aligned to 8 bytes to guarantee aligned 64-bit accesses.
// just switch between { }
// change model len far below too
alignas(8) const unsigned char g_model[] = {
  0x20, 0x00, 0x00, 0x00, 0x54, 0x46, 0x4c, 0x33, 0x00, 0x00, 0x00, 0x00,
  0x14, 0x00, 0x20, 0x00, 0x1c, 0x00, 0x18, 0x00, 0x14, 0x00, 0x10, 0x00,
  0x0c, 0x00, 0x00, 0x00, 0x08, 0x00, 0x04, 0x00, 0x14, 0x00, 0x00, 0x00,
  0x1c, 0x00, 0x00, 0x00, 0x88, 0x00, 0x00, 0x00, 0xe0, 0x00, 0x00, 0x00,
  0x8c, 0x13, 0x00, 0x00, 0x9c, 0x13, 0x00, 0x00, 0x14, 0x29, 0x00, 0x00,
  0x03, 0x00, 0x00, 0x00, 0x01, 0x00, 0x00, 0x00, 0x04, 0x00, 0x00, 0x00,
  0xb2, 0xeb, 0xff, 0xff, 0x0c, 0x00, 0x00, 0x00, 0x1c, 0x00, 0x00, 0x00,
  0x38, 0x00, 0x00, 0x00, 0x0f, 0x00, 0x00, 0x00, 0x73, 0x65, 0x72, 0x76,
  0x69, 0x6e, 0x67, 0x5f, 0x64, 0x65, 0x66, 0x61, 0x75, 0x6c, 0x74, 0x00,
  0x01, 0x00, 0x00, 0x00, 0x04, 0x00, 0x00, 0x00, 0x94, 0xff, 0xff, 0xff,
  0x19, 0x00, 0x00, 0x00, 0x04, 0x00, 0x00, 0x00, 0x05, 0x00, 0x00, 0x00,
  0x64, 0x65, 0x6e, 0x73, 0x65, 0x00, 0x00, 0x00, 0x01, 0x00, 0x00, 0x00,
  0x04, 0x00, 0x00, 0x00, 0xfa, 0xec, 0xff, 0xff, 0x04, 0x00, 0x00, 0x00,
  0x0c, 0x00, 0x00, 0x00, 0x63, 0x6f, 0x6e, 0x76, 0x32, 0x64, 0x5f, 0x69,
  0x6e, 0x70, 0x75, 0x74, 0x00, 0x00, 0x00, 0x00, 0x02, 0x00, 0x00, 0x00,
  0x34, 0x00, 0x00, 0x00, 0x04, 0x00, 0x00, 0x00, 0xdc, 0xff, 0xff, 0xff,
  0x1c, 0x00, 0x00, 0x00, 0x04, 0x00, 0x00, 0x00, 0x13, 0x00, 0x00, 0x00,
  0x43, 0x4f, 0x4e, 0x56, 0x45, 0x52, 0x53, 0x49, 0x4f, 0x4e, 0x5f, 0x4d,
  0x45, 0x54, 0x41, 0x44, 0x41, 0x54, 0x41, 0x00, 0x08, 0x00, 0x0c, 0x00,
  0x08, 0x00, 0x04, 0x00, 0x08, 0x00, 0x00, 0x00, 0x1b, 0x00, 0x00, 0x00,
  0x04, 0x00, 0x00, 0x00, 0x13, 0x00, 0x00, 0x00, 0x6d, 0x69, 0x6e, 0x5f,
  0x72, 0x75, 0x6e, 0x74, 0x69, 0x6d, 0x65, 0x5f, 0x76, 0x65, 0x72, 0x73,
  0x69, 0x6f, 0x6e, 0x00, 0x1d, 0x00, 0x00, 0x00, 0xa8, 0x12, 0x00, 0x00,
  0xa0, 0x12, 0x00, 0x00, 0x88, 0x12, 0x00, 0x00, 0x60, 0x12, 0x00, 0x00,
  0x48, 0x12, 0x00, 0x00, 0xf0, 0x11, 0x00, 0x00, 0xd0, 0x11, 0x00, 0x00,
  0xa0, 0x10, 0x00, 0x00, 0x70, 0x10, 0x00, 0x00, 0x20, 0x0a, 0x00, 0x00,
  0xf0, 0x09, 0x00, 0x00, 0x60, 0x05, 0x00, 0x00, 0x10, 0x05, 0x00, 0x00,
  0x00, 0x01, 0x00, 0x00, 0xec, 0x00, 0x00, 0x00, 0xe4, 0x00, 0x00, 0x00,
  0xdc, 0x00, 0x00, 0x00, 0xd4, 0x00, 0x00, 0x00, 0xcc, 0x00, 0x00, 0x00,
  0xc4, 0x00, 0x00, 0x00, 0xbc, 0x00, 0x00, 0x00, 0xb4, 0x00, 0x00, 0x00,
  0xac, 0x00, 0x00, 0x00, 0xa4, 0x00, 0x00, 0x00, 0x9c, 0x00, 0x00, 0x00,
  0x94, 0x00, 0x00, 0x00, 0x8c, 0x00, 0x00, 0x00, 0x6c, 0x00, 0x00, 0x00,
  0x04, 0x00, 0x00, 0x00, 0xea, 0xed, 0xff, 0xff, 0x04, 0x00, 0x00, 0x00,
  0x58, 0x00, 0x00, 0x00, 0x0c, 0x00, 0x00, 0x00, 0x08, 0x00, 0x0e, 0x00,
  0x08, 0x00, 0x04, 0x00, 0x08, 0x00, 0x00, 0x00, 0x10, 0x00, 0x00, 0x00,
  0x28, 0x00, 0x00, 0x00, 0x00, 0x00, 0x06, 0x00, 0x08, 0x00, 0x04, 0x00,
  0x06, 0x00, 0x00, 0x00, 0x04, 0x00, 0x00, 0x00, 0x01, 0x00, 0x00, 0x00,
  0xeb, 0x03, 0x00, 0x00, 0x00, 0x00, 0x0a, 0x00, 0x10, 0x00, 0x0c, 0x00,
  0x08, 0x00, 0x04, 0x00, 0x0a, 0x00, 0x00, 0x00, 0x02, 0x00, 0x00, 0x00,
  0x02, 0x00, 0x00, 0x00, 0x04, 0x00, 0x00, 0x00, 0x05, 0x00, 0x00, 0x00,
  0x32, 0x2e, 0x39, 0x2e, 0x32, 0x00, 0x00, 0x00, 0x4e, 0xee, 0xff, 0xff,
  0x04, 0x00, 0x00, 0x00, 0x10, 0x00, 0x00, 0x00, 0x31, 0x2e, 0x31, 0x34,
  0x2e, 0x30, 0x00, 0x00, 0x00, 0x00, 0x00, 0x00, 0x00, 0x00, 0x00, 0x00,
  0x94, 0xd9, 0xff, 0xff, 0x98, 0xd9, 0xff, 0xff, 0x9c, 0xd9, 0xff, 0xff,
  0xa0, 0xd9, 0xff, 0xff, 0xa4, 0xd9, 0xff, 0xff, 0xa8, 0xd9, 0xff, 0xff,
  0xac, 0xd9, 0xff, 0xff, 0xb0, 0xd9, 0xff, 0xff, 0xb4, 0xd9, 0xff, 0xff,
  0xb8, 0xd9, 0xff, 0xff, 0xbc, 0xd9, 0xff, 0xff, 0xc0, 0xd9, 0xff, 0xff,
  0x9a, 0xee, 0xff, 0xff, 0x04, 0x00, 0x00, 0x00, 0x04, 0x00, 0x00, 0x00,
  0x99, 0x00, 0x00, 0x00, 0xaa, 0xee, 0xff, 0xff, 0x04, 0x00, 0x00, 0x00,
  0x00, 0x04, 0x00, 0x00, 0x01, 0x04, 0xeb, 0x1b, 0x06, 0x0e, 0xec, 0xea,
  0x24, 0xf4, 0x24, 0xfc, 0x05, 0x07, 0x17, 0x00, 0xe6, 0x11, 0x12, 0x19,
  0xe8, 0x08, 0x0a, 0x0a, 0x0d, 0xf1, 0x01, 0x2d, 0x3c, 0x09, 0xfb, 0xec,
  0x07, 0x03, 0x0f, 0x07, 0xf1, 0xf4, 0xef, 0xe3, 0x03, 0x01, 0x02, 0x27,
  0x0d, 0x10, 0x26, 0x0d, 0xc9, 0x17, 0xf6, 0x0b, 0xfa, 0xfb, 0xe6, 0xdb,
  0xe6, 0x08, 0x03, 0x1b, 0xf3, 0x12, 0x26, 0x05, 0x28, 0x1a, 0x09, 0xf1,
  0x20, 0x08, 0x0b, 0x1f, 0xf0, 0x1e, 0x04, 0xf3, 0x0d, 0x12, 0xf7, 0xd4,
  0x19, 0xd0, 0xff, 0x04, 0x2d, 0x06, 0xdf, 0x25, 0x07, 0x09, 0xef, 0x2e,
  0x26, 0xe3, 0x11, 0xd4, 0x12, 0x00, 0xf3, 0x09, 0x16, 0x07, 0xf7, 0x62,
  0x14, 0x03, 0x09, 0xe0, 0x1f, 0xff, 0x05, 0x15, 0xe5, 0xf8, 0x0b, 0x1a,
  0xf2, 0xfe, 0x17, 0x1f, 0x04, 0x01, 0x08, 0xe9, 0x07, 0x17, 0x36, 0x01,
  0xea, 0x05, 0x02, 0x09, 0xe0, 0xef, 0x0f, 0x01, 0xec, 0xf8, 0x0c, 0x11,
  0x00, 0x0d, 0x30, 0x0b, 0x0c, 0x3d, 0x17, 0xec, 0xef, 0xe9, 0x0a, 0x06,
  0xe5, 0x08, 0x0d, 0x18, 0x3c, 0x1b, 0x03, 0x04, 0x1e, 0xfc, 0x15, 0xf5,
  0x0c, 0x08, 0x03, 0x45, 0x2c, 0x20, 0xe7, 0xe0, 0xf4, 0x23, 0xee, 0x21,
  0x4a, 0x0e, 0x12, 0xca, 0xe5, 0xea, 0x2a, 0x04, 0x1f, 0x0f, 0x1c, 0xe3,
  0xec, 0xdc, 0x0f, 0xff, 0xf9, 0xde, 0x10, 0x19, 0xa8, 0xeb, 0x03, 0x30,
  0xfd, 0x0d, 0xfb, 0x00, 0xc3, 0xe7, 0xf3, 0x04, 0xfa, 0xff, 0xf8, 0xee,
  0xf9, 0xdb, 0xf1, 0xde, 0xf6, 0xfa, 0xd2, 0x15, 0x03, 0x0d, 0xd9, 0x07,
  0xe6, 0xf0, 0xf2, 0x0f, 0xd4, 0x01, 0x09, 0xe9, 0xee, 0xd9, 0x0e, 0x0b,
  0x06, 0x1d, 0x0a, 0xf6, 0xf6, 0x35, 0x13, 0x0d, 0x0e, 0x05, 0x12, 0x26,
  0x16, 0xf0, 0x02, 0xe1, 0x0d, 0x14, 0x02, 0xfd, 0x0a, 0x13, 0xf7, 0xe6,
  0xf2, 0xf4, 0xea, 0xf6, 0x29, 0xef, 0x0f, 0x06, 0x00, 0xf1, 0xfa, 0xe2,
  0x0d, 0x17, 0x08, 0xef, 0x01, 0x53, 0x06, 0xfd, 0x17, 0x05, 0xfe, 0xdd,
  0x08, 0xfe, 0xf7, 0x02, 0xf9, 0x09, 0xfc, 0x01, 0x3e, 0x04, 0x16, 0x0b,
  0x33, 0x26, 0xe2, 0xde, 0x19, 0xf2, 0x16, 0x08, 0x01, 0xea, 0x19, 0x05,
  0xdd, 0xe2, 0x12, 0xfb, 0x19, 0x0e, 0x04, 0xc7, 0xc2, 0x30, 0x17, 0x11,
  0x11, 0xeb, 0xd5, 0x08, 0x04, 0x01, 0x25, 0xf0, 0x26, 0x3f, 0xfa, 0x06,
  0x1b, 0xe4, 0x03, 0x0d, 0x2c, 0x31, 0x0d, 0xef, 0xbf, 0x15, 0xf2, 0x1b,
  0xc7, 0x14, 0xf0, 0x29, 0x09, 0x0d, 0xe5, 0xfa, 0x0d, 0xe5, 0x06, 0xdc,
  0x00, 0x12, 0x17, 0xff, 0xe8, 0x27, 0x0d, 0x20, 0x17, 0xdf, 0x1e, 0x29,
  0xdd, 0x2a, 0x14, 0x1b, 0x0c, 0xf4, 0x1b, 0xec, 0x21, 0x0b, 0x11, 0x21,
  0x19, 0xf0, 0xea, 0xea, 0xfc, 0xf3, 0x20, 0x05, 0xed, 0xfd, 0xf6, 0x0e,
  0xed, 0xfb, 0x06, 0xf3, 0xf8, 0x29, 0xff, 0xf6, 0xf6, 0xfc, 0x02, 0xe7,
  0x00, 0x27, 0xff, 0x14, 0x11, 0x0c, 0xce, 0xee, 0xde, 0xf6, 0x26, 0xe0,
  0xf3, 0xdf, 0xe3, 0x1d, 0x27, 0xfe, 0x11, 0xe9, 0xf0, 0x0a, 0x02, 0x29,
  0x21, 0x4b, 0x02, 0x1a, 0xe4, 0xe5, 0x12, 0x04, 0xdc, 0xe8, 0x16, 0x0a,
  0x0f, 0x08, 0x09, 0xdc, 0x02, 0x34, 0xf9, 0x23, 0x37, 0x0e, 0xd0, 0x10,
  0x4e, 0xe1, 0x3d, 0x40, 0xba, 0xf6, 0xfe, 0x22, 0xf3, 0x07, 0xe0, 0x28,
  0x08, 0x20, 0xce, 0x0f, 0xef, 0x7f, 0xc9, 0xe1, 0x35, 0xd6, 0xc4, 0xff,
  0x0a, 0x0b, 0x04, 0x19, 0xd6, 0xde, 0xd9, 0xdf, 0x20, 0x24, 0xfd, 0xff,
  0x36, 0x46, 0xf5, 0x11, 0x1e, 0xd6, 0x10, 0x1b, 0x05, 0xdc, 0x14, 0x16,
  0x0e, 0xe3, 0x0c, 0xe7, 0x19, 0xf7, 0x0d, 0x04, 0x29, 0xd0, 0x17, 0xe0,
  0xf0, 0x18, 0xfa, 0xf9, 0x0d, 0xfc, 0xfc, 0x17, 0xe7, 0xdf, 0x1f, 0x00,
  0xf6, 0xf1, 0x03, 0x11, 0x10, 0xfd, 0xf1, 0xec, 0x01, 0xf9, 0x09, 0xd3,
  0x11, 0xf1, 0xcb, 0x16, 0x02, 0x14, 0xbf, 0xea, 0x50, 0xf5, 0xff, 0x19,
  0x32, 0xf8, 0xe3, 0x3a, 0x1c, 0x18, 0xcf, 0xe9, 0x0c, 0x4d, 0xde, 0xe3,
  0xf2, 0xc4, 0xd9, 0x57, 0x19, 0xfd, 0xef, 0xfa, 0x00, 0xca, 0xb3, 0x01,
  0x36, 0xd7, 0xdc, 0x09, 0xd1, 0x0f, 0xfd, 0x2f, 0xe4, 0xc7, 0x04, 0x1e,
  0xdd, 0x84, 0x18, 0x13, 0x02, 0xe2, 0xe3, 0xf9, 0x01, 0x09, 0xe5, 0xe0,
  0x1d, 0xf4, 0xe3, 0x07, 0x32, 0xd0, 0x25, 0xf4, 0x17, 0x1f, 0xee, 0xca,
  0xf6, 0xe6, 0x1c, 0xed, 0x40, 0xf2, 0xf3, 0x10, 0x06, 0x15, 0x07, 0xdf,
  0xde, 0x1e, 0x26, 0xf6, 0xfb, 0xfa, 0x08, 0x33, 0x00, 0x06, 0xfb, 0x03,
  0xee, 0x05, 0x1d, 0x3a, 0xe1, 0xea, 0x0d, 0x08, 0xf3, 0x0e, 0x31, 0x15,
  0x00, 0xf1, 0xfe, 0xce, 0x01, 0xfd, 0x34, 0x05, 0x0d, 0xe1, 0xfb, 0x02,
  0xf1, 0xe7, 0xe5, 0xd0, 0xf7, 0xd6, 0x12, 0xe7, 0xdb, 0xee, 0xdb, 0x0e,
  0xe7, 0xdf, 0x10, 0xf9, 0xf7, 0x79, 0x1a, 0xe3, 0x0c, 0xa9, 0xf4, 0x2b,
  0x0a, 0x2e, 0x13, 0x18, 0x02, 0x2d, 0x3d, 0xe5, 0x0b, 0xed, 0xf7, 0x31,
  0xd2, 0x52, 0xf4, 0x0c, 0x00, 0x10, 0x40, 0x1a, 0xec, 0x44, 0x12, 0xf1,
  0xfa, 0x0e, 0x03, 0xe8, 0x11, 0x31, 0x07, 0xd2, 0x5a, 0xe4, 0x01, 0x13,
  0x4f, 0xb5, 0xe1, 0x08, 0x02, 0x0e, 0x11, 0xe5, 0xbc, 0xe9, 0xee, 0x01,
  0x03, 0xd3, 0x09, 0x00, 0xea, 0xe5, 0xd9, 0xe5, 0x0d, 0x0b, 0x02, 0x12,
  0x0d, 0x16, 0x12, 0x2a, 0xd1, 0x10, 0xd2, 0x02, 0xf0, 0x11, 0xf8, 0x30,
  0xd8, 0x2b, 0x0f, 0x29, 0xe7, 0xf3, 0x03, 0x28, 0xd9, 0x0b, 0x1d, 0xd0,
  0x02, 0x0c, 0xea, 0xfc, 0x07, 0x0b, 0x45, 0x2c, 0x25, 0x0e, 0x15, 0x25,
  0x40, 0x05, 0x30, 0x0b, 0x19, 0x2c, 0xf9, 0xfe, 0x03, 0x06, 0xe3, 0xdd,
  0xef, 0xe5, 0x10, 0x0c, 0xfe, 0x0d, 0x19, 0x12, 0x17, 0xe1, 0x0d, 0x07,
  0x57, 0x0f, 0x17, 0xf3, 0xe6, 0xfc, 0x05, 0xcf, 0x32, 0x11, 0x38, 0xff,
  0x15, 0x37, 0x08, 0xf4, 0x33, 0x0e, 0x48, 0x10, 0xe7, 0x1b, 0x1c, 0x16,
  0xec, 0x11, 0x22, 0x02, 0x0c, 0xdb, 0x16, 0xdd, 0x18, 0x0e, 0xfc, 0xec,
  0xee, 0x3b, 0x14, 0xe4, 0xe9, 0xfa, 0xf8, 0x2f, 0xe8, 0xd7, 0x0e, 0xf4,
  0xfa, 0xf7, 0x13, 0xdf, 0xfa, 0xec, 0xf7, 0xe9, 0xf5, 0x09, 0x3d, 0x26,
  0xc6, 0x21, 0xfd, 0x04, 0x09, 0x10, 0x29, 0xe3, 0xef, 0x1c, 0x05, 0xf5,
  0xfc, 0x28, 0xd5, 0x02, 0xe4, 0x0c, 0x0c, 0x0e, 0xf9, 0xfe, 0x04, 0xe6,
  0x03, 0xd4, 0x22, 0x0d, 0xeb, 0xfd, 0xfd, 0x12, 0xfd, 0xf3, 0xfd, 0x20,
  0xfd, 0xf4, 0xed, 0x40, 0xf7, 0x10, 0xed, 0x20, 0x00, 0xe1, 0xfb, 0x05,
  0xf5, 0x11, 0xf4, 0x0c, 0xec, 0xf9, 0xe0, 0x71, 0x1f, 0x27, 0x09, 0x01,
  0x22, 0xed, 0x18, 0x0e, 0x0b, 0x52, 0x18, 0xf8, 0x4e, 0x42, 0x0b, 0x2a,
  0x17, 0x2f, 0xfa, 0xde, 0x10, 0xed, 0xf2, 0x23, 0x00, 0x18, 0x36, 0x08,
  0x2f, 0x05, 0x02, 0x1a, 0x53, 0x61, 0x0a, 0xd4, 0xfc, 0xe9, 0xd5, 0x33,
  0xfc, 0xfe, 0x13, 0xf9, 0x2d, 0x0c, 0xf8, 0x11, 0xa3, 0x3a, 0x03, 0xd4,
  0xf6, 0xdb, 0x0b, 0x0e, 0xfb, 0xdc, 0xdc, 0xff, 0x6a, 0xfe, 0xff, 0xf5,
  0x10, 0x09, 0xed, 0xf6, 0x11, 0x16, 0xbf, 0xee, 0xfe, 0x11, 0x2f, 0xf5,
  0xf0, 0xe9, 0xf3, 0x16, 0x44, 0xd8, 0x09, 0xe5, 0xff, 0x0a, 0x25, 0xe4,
  0x24, 0xe6, 0x11, 0xea, 0xf8, 0xee, 0xfb, 0x15, 0x17, 0xc7, 0x07, 0x09,
  0x06, 0xef, 0xfb, 0x47, 0xf8, 0xff, 0x0a, 0xef, 0xb6, 0xf2, 0xff, 0xff,
  0x04, 0x00, 0x00, 0x00, 0x40, 0x00, 0x00, 0x00, 0x06, 0x00, 0x00, 0x00,
  0xa4, 0x00, 0x00, 0x00, 0xc7, 0xff, 0xff, 0xff, 0x7d, 0x00, 0x00, 0x00,
  0x99, 0x00, 0x00, 0x00, 0xda, 0x00, 0x00, 0x00, 0xa4, 0xff, 0xff, 0xff,
  0x48, 0x00, 0x00, 0x00, 0x67, 0x00, 0x00, 0x00, 0x7d, 0x00, 0x00, 0x00,
  0xfb, 0xff, 0xff, 0xff, 0x8b, 0x00, 0x00, 0x00, 0x9d, 0x00, 0x00, 0x00,
  0x03, 0x00, 0x00, 0x00, 0x01, 0x00, 0x00, 0x00, 0x13, 0xff, 0xff, 0xff,
  0x02, 0xf3, 0xff, 0xff, 0x04, 0x00, 0x00, 0x00, 0x80, 0x04, 0x00, 0x00,
  0x3e, 0x58, 0xf7, 0xf0, 0xe1, 0xfc, 0x2b, 0x94, 0x1a, 0xdf, 0xfa, 0xfc,
  0xdc, 0xc8, 0x3e, 0x95, 0xd7, 0x14, 0xb9, 0x12, 0x30, 0xe9, 0x33, 0x3f,
  0x22, 0x02, 0x81, 0x16, 0x18, 0x27, 0x0c, 0x34, 0xf4, 0x90, 0xf7, 0xc1,
  0xc9, 0x01, 0x02, 0x15, 0xba, 0x1e, 0x60, 0x0b, 0xda, 0xdc, 0xf3, 0x45,
  0xc8, 0x0b, 0x29, 0x1a, 0xf9, 0xce, 0x02, 0x06, 0x2a, 0x45, 0xeb, 0x0a,
  0x02, 0x10, 0xdb, 0x22, 0xac, 0xe3, 0xd5, 0x1e, 0xf4, 0x1e, 0x03, 0xce,
  0xd1, 0xf2, 0xfe, 0x3a, 0xd3, 0x47, 0xd6, 0x14, 0xf4, 0xa9, 0xa3, 0xa6,
  0x81, 0xcd, 0x68, 0xd0, 0x48, 0xcb, 0xa6, 0xfb, 0x34, 0xd0, 0x2f, 0x8e,
  0x0a, 0x32, 0x20, 0x17, 0x23, 0xcb, 0xff, 0x4a, 0x3a, 0xf4, 0x0c, 0xf1,
  0x30, 0x3b, 0x52, 0xe0, 0x1a, 0xbf, 0xf4, 0x8a, 0x59, 0xc2, 0xe8, 0xf6,
  0xc8, 0x1a, 0x64, 0x2e, 0x06, 0x37, 0x30, 0x32, 0x16, 0xd0, 0x2c, 0xce,
  0xe3, 0x11, 0x92, 0xda, 0xff, 0x05, 0xa2, 0x24, 0x36, 0x16, 0x24, 0xc8,
  0x41, 0xd5, 0xfa, 0x10, 0xfc, 0x60, 0x62, 0xc4, 0xee, 0x08, 0x41, 0xc8,
  0x6c, 0x14, 0x25, 0xca, 0x2d, 0xb5, 0xd9, 0x8b, 0xf3, 0xe5, 0x07, 0x81,
  0x27, 0x11, 0xfc, 0xe7, 0xdd, 0x36, 0x24, 0xa6, 0x17, 0x1c, 0x0d, 0xa4,
  0xef, 0xbd, 0xf7, 0xdb, 0x21, 0x4a, 0x45, 0x9a, 0xcb, 0x41, 0xd3, 0xca,
  0xe2, 0xfd, 0x3e, 0x7a, 0x13, 0x13, 0x41, 0x64, 0xe5, 0x01, 0xe7, 0xbc,
  0xed, 0xf7, 0xde, 0x2e, 0xd7, 0x15, 0x0f, 0x6f, 0xfe, 0xba, 0x00, 0x70,
  0x02, 0x1b, 0x21, 0xf2, 0x24, 0xe8, 0xea, 0xf1, 0xc2, 0xd5, 0xe2, 0x1c,
  0x39, 0x21, 0xbf, 0x3f, 0x08, 0xfa, 0xb9, 0xfa, 0xd9, 0x14, 0x14, 0x76,
  0xf6, 0xd6, 0xc9, 0xef, 0xd5, 0xf6, 0x34, 0xf7, 0x01, 0x3a, 0x2e, 0xe2,
  0xd7, 0xe9, 0xca, 0xbc, 0xf2, 0x2d, 0x45, 0xbe, 0xfd, 0x22, 0xe3, 0xd7,
  0x1d, 0x51, 0xf5, 0x13, 0x7f, 0xdb, 0x46, 0x50, 0x2b, 0x0b, 0x10, 0xdc,
  0x0c, 0x24, 0x20, 0xbe, 0x16, 0xdc, 0xf4, 0x12, 0x22, 0x02, 0xad, 0xdf,
  0x09, 0xe1, 0x5f, 0x32, 0x9e, 0x23, 0xd6, 0x79, 0xbe, 0x19, 0xe4, 0xe7,
  0x61, 0xff, 0x0a, 0x08, 0xca, 0x19, 0x8d, 0x47, 0x3b, 0x46, 0x37, 0x7f,
  0x36, 0xb1, 0xa8, 0xd7, 0xd2, 0xda, 0xdd, 0x9a, 0xc2, 0xe5, 0x02, 0x26,
  0x28, 0xf8, 0xeb, 0xa2, 0xa1, 0x39, 0x27, 0x0b, 0xe8, 0x31, 0xfa, 0xa8,
  0x43, 0xf2, 0xd4, 0x93, 0x40, 0xc2, 0x26, 0xad, 0x00, 0x2f, 0x29, 0x52,
  0xb9, 0xaf, 0xfe, 0x0d, 0xea, 0x53, 0xd6, 0xde, 0x5e, 0xdd, 0x3f, 0xe7,
  0xdb, 0xf8, 0x0e, 0xf2, 0xbe, 0xea, 0x39, 0x81, 0x3e, 0xbb, 0x16, 0xfd,
  0xc8, 0x2a, 0x41, 0xb3, 0x38, 0x61, 0xf7, 0x28, 0xec, 0xd9, 0xe0, 0xc9,
  0xe4, 0x11, 0xda, 0xf4, 0x25, 0xf0, 0x2f, 0xf2, 0x07, 0xe2, 0x31, 0x23,
  0x01, 0x24, 0xd7, 0xf7, 0xd2, 0xfc, 0x4c, 0x3b, 0xf2, 0xe4, 0x1a, 0x17,
  0x14, 0xc3, 0xcc, 0xc2, 0x16, 0x07, 0x12, 0x1d, 0x21, 0xbf, 0xcd, 0x1e,
  0x29, 0x07, 0xf1, 0xd3, 0x02, 0xf4, 0xfa, 0x21, 0x04, 0x23, 0x00, 0xc0,
  0xff, 0x5f, 0xfb, 0x11, 0x3d, 0xbc, 0xdb, 0xda, 0x2e, 0xe1, 0xe9, 0xe1,
  0x0c, 0xcf, 0xfe, 0x0a, 0x48, 0xdb, 0xee, 0x38, 0xac, 0x01, 0x24, 0x92,
  0x12, 0x7f, 0x24, 0x5d, 0x2a, 0x20, 0xee, 0x10, 0x09, 0xce, 0xc2, 0xed,
  0xf4, 0x3d, 0x28, 0x38, 0x2b, 0xf2, 0x19, 0x30, 0xfe, 0x26, 0x09, 0xfe,
  0x86, 0x5c, 0x34, 0xf7, 0x1b, 0xcb, 0xc4, 0xf1, 0xfb, 0xf8, 0x16, 0xb9,
  0xd8, 0xc0, 0x06, 0x13, 0xd1, 0xf5, 0xe0, 0xd0, 0x10, 0x0b, 0xa3, 0xd3,
  0xcc, 0xff, 0x1e, 0xd4, 0x4c, 0x28, 0xdb, 0x9d, 0xcd, 0xf1, 0xf0, 0x27,
  0xd8, 0x03, 0xf9, 0x23, 0xbc, 0x2e, 0x92, 0x32, 0xe1, 0xc7, 0xe8, 0x7f,
  0x09, 0x19, 0x50, 0xf7, 0x2a, 0x1b, 0xbd, 0xc5, 0xf3, 0xdd, 0xd3, 0xca,
  0x61, 0x40, 0xb5, 0x1d, 0x8c, 0xee, 0xea, 0x19, 0xe5, 0x28, 0xc5, 0x55,
  0x67, 0x32, 0x98, 0xd5, 0xad, 0x04, 0x6a, 0x23, 0x09, 0xf8, 0x07, 0xcd,
  0xda, 0x0e, 0x20, 0x22, 0xe9, 0x58, 0xf0, 0x30, 0x19, 0x35, 0xba, 0x0a,
  0xe6, 0x3b, 0xcb, 0xa8, 0xde, 0x2f, 0xf1, 0x7f, 0x1a, 0x1e, 0xb1, 0xc8,
  0xf4, 0xe6, 0x21, 0x01, 0x3e, 0xd8, 0xb5, 0xf0, 0xe8, 0x04, 0xe3, 0xba,
  0xfa, 0xf9, 0x0d, 0xc7, 0xf1, 0xe9, 0x06, 0x08, 0x09, 0xd1, 0x28, 0x03,
  0xfd, 0x1d, 0xbb, 0xc3, 0xdf, 0xd7, 0x17, 0x22, 0x37, 0x00, 0xf5, 0x5b,
  0xda, 0x15, 0x1a, 0xe8, 0xea, 0x1c, 0x1a, 0x1a, 0xdc, 0xc4, 0x3f, 0x43,
  0x11, 0x32, 0x1e, 0xe1, 0xe5, 0x1f, 0x0e, 0x0b, 0xf6, 0xd6, 0xf9, 0xe8,
  0x2d, 0x1a, 0x18, 0x1d, 0xe4, 0x46, 0x44, 0x08, 0x1d, 0xde, 0xe2, 0xac,
  0x2f, 0x08, 0x5a, 0x0c, 0xb5, 0x0c, 0xb7, 0x1d, 0x19, 0xb6, 0xf5, 0xd3,
  0x1e, 0xab, 0xe6, 0xf5, 0xf6, 0xc3, 0xdc, 0x0a, 0xc1, 0x37, 0x12, 0xa9,
  0x4a, 0xd6, 0x0e, 0x18, 0xec, 0x34, 0x0d, 0x32, 0x00, 0x38, 0xac, 0x5d,
  0x10, 0xec, 0x85, 0xea, 0xe9, 0x30, 0x0b, 0xc3, 0xd2, 0xf5, 0x81, 0x10,
  0x2a, 0xfa, 0xdd, 0x19, 0xff, 0x1f, 0x01, 0xce, 0xf9, 0xd6, 0xc6, 0xf0,
  0x27, 0x24, 0x1e, 0x50, 0x17, 0xd8, 0xeb, 0xf6, 0xc6, 0x27, 0x7f, 0xaf,
  0xf3, 0xed, 0x28, 0xa4, 0x31, 0xff, 0x52, 0xec, 0xc3, 0x38, 0x54, 0xd3,
  0x1f, 0x2b, 0x42, 0xd2, 0xf5, 0x20, 0x15, 0x81, 0xcf, 0xb7, 0xd6, 0x45,
  0xcb, 0x0c, 0xd0, 0xe5, 0x5f, 0xe6, 0xdf, 0xba, 0xdb, 0x3f, 0x18, 0xca,
  0x2b, 0x0d, 0xfe, 0x4f, 0x24, 0x0f, 0x09, 0x06, 0xcd, 0xec, 0xed, 0xf0,
  0xde, 0x02, 0xe2, 0x24, 0x06, 0xd8, 0x32, 0x0c, 0x27, 0x05, 0x1c, 0xd3,
  0x38, 0x69, 0xd0, 0x38, 0x56, 0xac, 0xaf, 0x72, 0x04, 0xba, 0x51, 0x43,
  0x94, 0xd7, 0x01, 0x3b, 0x5e, 0x8b, 0xd0, 0xc5, 0x93, 0xca, 0x6b, 0x35,
  0x99, 0xec, 0xde, 0x07, 0xc0, 0x54, 0xed, 0xea, 0x49, 0x1d, 0x81, 0xd1,
  0x9a, 0x33, 0x30, 0x19, 0x41, 0x1e, 0x8d, 0xd2, 0x36, 0x0d, 0xf6, 0x0d,
  0x1a, 0xbb, 0xd6, 0xec, 0xa3, 0x2c, 0xe6, 0x04, 0x57, 0xcf, 0x0d, 0xd1,
  0xa9, 0xde, 0xe8, 0xc5, 0x3b, 0xe4, 0x1c, 0x2f, 0xa9, 0xfb, 0x00, 0x0b,
  0xb1, 0x6e, 0x33, 0xfd, 0x13, 0xc3, 0xf9, 0xf8, 0xce, 0x2c, 0x28, 0x68,
  0x0e, 0x58, 0x14, 0x14, 0x25, 0x06, 0x6f, 0x2e, 0xbd, 0xd3, 0xe0, 0x89,
  0xdd, 0x27, 0x3e, 0x54, 0x31, 0xc8, 0xd9, 0x7f, 0xc5, 0x24, 0x2b, 0x83,
  0xb8, 0xc8, 0x89, 0x0a, 0x01, 0xb2, 0x0b, 0xeb, 0x22, 0xbb, 0x0b, 0x18,
  0xe2, 0xe3, 0xc7, 0x68, 0x0c, 0xd9, 0xe3, 0xf9, 0x24, 0xc2, 0xce, 0xe0,
  0xff, 0xbe, 0x45, 0x1c, 0x05, 0x0a, 0xae, 0xaf, 0x3a, 0xc4, 0xfc, 0x49,
  0x02, 0xb4, 0xf3, 0xeb, 0xb7, 0x2f, 0xde, 0xef, 0x88, 0xb8, 0xc3, 0x5e,
  0x28, 0x1e, 0x09, 0xf0, 0xfb, 0x29, 0xfb, 0x11, 0x56, 0x2d, 0xe6, 0x7f,
  0xc9, 0x72, 0xae, 0x0c, 0xfc, 0xf9, 0x29, 0xfe, 0xf3, 0x25, 0x86, 0x00,
  0x28, 0x43, 0xcd, 0x11, 0xe8, 0xfe, 0x5c, 0x16, 0xa1, 0xcb, 0x04, 0xca,
  0xf2, 0x58, 0x14, 0xf7, 0xab, 0x4c, 0xcf, 0x0c, 0x33, 0x11, 0x3a, 0xc1,
  0x2e, 0x0e, 0xcd, 0xcd, 0xc5, 0x3a, 0x03, 0xca, 0xdf, 0xb6, 0xf2, 0x2f,
  0x3d, 0x12, 0x1f, 0x42, 0xfb, 0x3c, 0xc3, 0xe9, 0x13, 0x5c, 0x43, 0x24,
  0x21, 0xc8, 0xe9, 0x02, 0x23, 0x1f, 0x2d, 0xab, 0xee, 0xca, 0x4f, 0xe1,
  0xd1, 0x01, 0xd2, 0x59, 0x1a, 0xfa, 0x1d, 0xee, 0xcc, 0xbb, 0xff, 0x66,
  0xfa, 0xd4, 0x21, 0x8d, 0xd4, 0xee, 0xce, 0x19, 0xd9, 0x02, 0x47, 0x95,
  0x21, 0xc3, 0x07, 0x5d, 0xcc, 0xf2, 0x20, 0x47, 0xa5, 0x1b, 0x99, 0xca,
  0x40, 0x23, 0xb2, 0xf6, 0xe3, 0xcb, 0x81, 0xee, 0xfe, 0x2d, 0x0c, 0xef,
  0xbe, 0xfd, 0xf3, 0xac, 0x3e, 0x20, 0x01, 0x0d, 0x11, 0xdb, 0xca, 0x03,
  0xe8, 0x23, 0x49, 0x16, 0x49, 0x28, 0xe9, 0x61, 0x09, 0xc5, 0x10, 0xbc,
  0xc8, 0x2f, 0x51, 0x2e, 0x23, 0x17, 0xd5, 0x2b, 0xef, 0x30, 0xf0, 0xdf,
  0x23, 0x02, 0x21, 0x44, 0xdf, 0x2a, 0xe6, 0x1c, 0xe0, 0x03, 0x9c, 0xdc,
  0xe6, 0x66, 0x13, 0xe5, 0x07, 0xd8, 0x81, 0xfb, 0xc6, 0x1d, 0x75, 0x0b,
  0x33, 0xbf, 0xdb, 0xec, 0x2e, 0x9a, 0xe1, 0xc6, 0x13, 0xb2, 0xdc, 0x39,
  0x8e, 0xf7, 0xff, 0xff, 0x04, 0x00, 0x00, 0x00, 0x20, 0x00, 0x00, 0x00,
  0x03, 0x00, 0x00, 0x00, 0x55, 0x00, 0x00, 0x00, 0x32, 0x00, 0x00, 0x00,
  0xd4, 0xff, 0xff, 0xff, 0xf5, 0xff, 0xff, 0xff, 0xa2, 0xff, 0xff, 0xff,
  0xa1, 0xff, 0xff, 0xff, 0xfb, 0xff, 0xff, 0xff, 0xba, 0xf7, 0xff, 0xff,
  0x04, 0x00, 0x00, 0x00, 0x40, 0x06, 0x00, 0x00, 0xc7, 0xdd, 0xe4, 0x05,
  0x0c, 0xc9, 0xc6, 0xff, 0xdf, 0xd8, 0x4f, 0xd6, 0xcf, 0x11, 0xe0, 0x1f,
  0xbe, 0x03, 0xc5, 0xd9, 0xfc, 0xfd, 0x26, 0x11, 0x0a, 0xed, 0xc0, 0x38,
  0xda, 0x10, 0x1d, 0x18, 0xd6, 0x25, 0x08, 0x5b, 0x23, 0x2f, 0x0a, 0xee,
  0xc0, 0xd6, 0x0a, 0xd0, 0xf7, 0xe6, 0xe7, 0xbf, 0x0f, 0xf9, 0x0f, 0xf6,
  0x09, 0xe0, 0xf6, 0xf9, 0xdb, 0x04, 0xdd, 0xcb, 0x11, 0x03, 0x17, 0x19,
  0xd1, 0x18, 0xad, 0xd6, 0xdf, 0x1f, 0x28, 0xe2, 0x29, 0x18, 0xe8, 0x0b,
  0x1c, 0x31, 0x02, 0x05, 0xe0, 0xbc, 0x26, 0x0f, 0xee, 0xff, 0xce, 0xd5,
  0x33, 0xfa, 0x31, 0xb1, 0x23, 0xb2, 0x2d, 0x08, 0xff, 0xfb, 0x9b, 0xce,
  0x36, 0xc2, 0x17, 0x02, 0x3f, 0x29, 0xe5, 0xf7, 0xfa, 0x32, 0x14, 0x20,
  0xf9, 0x20, 0x0c, 0x38, 0xc8, 0x12, 0x04, 0xf6, 0xec, 0x03, 0x01, 0x2e,
  0xea, 0xe5, 0xe5, 0xf3, 0x56, 0x17, 0x15, 0xde, 0x3e, 0x11, 0x0e, 0x06,
  0x01, 0x04, 0xcc, 0xcb, 0xf2, 0x43, 0x41, 0x3c, 0x2a, 0x09, 0x81, 0x1d,
  0x3e, 0x36, 0x31, 0x1d, 0xe2, 0x24, 0xe0, 0xfc, 0x09, 0x2d, 0x45, 0xc0,
  0x46, 0x0a, 0x41, 0xf6, 0xdb, 0xc5, 0xe2, 0xfa, 0x13, 0x2c, 0x2f, 0x24,
  0xe6, 0x24, 0xdb, 0xcc, 0xc5, 0xcf, 0x8c, 0xcf, 0xf3, 0xfc, 0xda, 0x32,
  0x36, 0x33, 0xbc, 0x18, 0x2d, 0x1d, 0x31, 0x28, 0x27, 0xd5, 0x0c, 0x03,
  0xed, 0x15, 0x2d, 0xdb, 0xd1, 0x1a, 0xbb, 0x0b, 0x07, 0x2a, 0xff, 0x2d,
  0xff, 0x2c, 0x45, 0x5a, 0xf3, 0x1c, 0x22, 0xfc, 0x16, 0x08, 0x41, 0x2d,
  0xef, 0xba, 0x3f, 0x0e, 0x19, 0x03, 0x29, 0x00, 0xdc, 0xd8, 0x81, 0xd8,
  0x16, 0x0c, 0xb8, 0x26, 0x06, 0x24, 0xbc, 0x3a, 0x19, 0x44, 0xd1, 0x09,
  0xf9, 0x62, 0x3c, 0xbb, 0xcd, 0xcb, 0x69, 0x2b, 0xe7, 0x64, 0xd3, 0xe9,
  0xf8, 0x27, 0x13, 0x1a, 0xdb, 0xa3, 0xb4, 0xba, 0xf3, 0x1d, 0xff, 0xc4,
  0xd7, 0x06, 0x2f, 0x2a, 0xdd, 0x06, 0x63, 0xfb, 0xf6, 0x14, 0xc6, 0x08,
  0x40, 0x27, 0x04, 0x45, 0x0c, 0xf0, 0xfb, 0xc7, 0xe7, 0xf5, 0x58, 0xfa,
  0x08, 0x18, 0x0d, 0xd9, 0x08, 0xcf, 0x51, 0xd0, 0xe2, 0x97, 0x1a, 0xe5,
  0xed, 0xcc, 0xf1, 0x9b, 0x23, 0xdf, 0x1d, 0xcf, 0xdf, 0xee, 0xce, 0xeb,
  0xe4, 0x29, 0x09, 0x42, 0x51, 0xed, 0x2b, 0x22, 0x3f, 0xdd, 0xec, 0x39,
  0x53, 0x31, 0x17, 0x12, 0x29, 0x1b, 0x27, 0xc5, 0xd7, 0x0a, 0x39, 0xc5,
  0xfe, 0xdc, 0xbd, 0xaa, 0xf1, 0xf2, 0xd4, 0xd1, 0x16, 0xdb, 0x2e, 0xda,
  0xa0, 0xcd, 0xdb, 0xe9, 0xdf, 0x1e, 0xcd, 0x0d, 0x03, 0x12, 0x3d, 0xea,
  0x4e, 0x15, 0x19, 0x2f, 0x50, 0x27, 0x9b, 0xdb, 0xd1, 0xba, 0x37, 0xd4,
  0x16, 0xdb, 0xcb, 0x28, 0xdf, 0x12, 0xee, 0xb4, 0x0a, 0x07, 0x0b, 0xf0,
  0xd7, 0xd1, 0xe0, 0xec, 0xc8, 0x1f, 0x81, 0xb2, 0xd4, 0x5a, 0x0e, 0xf4,
  0x36, 0x1d, 0x6b, 0x3f, 0x20, 0x2a, 0x3e, 0xb3, 0xc9, 0xf5, 0x31, 0x1f,
  0x07, 0x0f, 0x23, 0x18, 0x9d, 0xcb, 0xc6, 0xf2, 0x0b, 0x1b, 0x4a, 0x21,
  0xe7, 0x0b, 0x2a, 0xef, 0x1c, 0x0f, 0xd2, 0xea, 0xed, 0x0d, 0xb6, 0x35,
  0xe6, 0xf7, 0xca, 0x2b, 0x0d, 0xf9, 0xfa, 0x30, 0x0c, 0xde, 0x28, 0x07,
  0x49, 0xe0, 0x95, 0x04, 0xd8, 0xd8, 0xc4, 0x03, 0xf1, 0xcd, 0x8c, 0xd4,
  0xd1, 0xe8, 0xe1, 0x23, 0x0a, 0xd9, 0xa7, 0xe6, 0x1a, 0x0a, 0xde, 0x1b,
  0x04, 0xef, 0xb9, 0xee, 0xfe, 0x2e, 0xce, 0x3b, 0x25, 0x34, 0xb7, 0x3f,
  0xf8, 0xed, 0x22, 0x25, 0xdf, 0x2f, 0x83, 0xe6, 0xd6, 0x19, 0x1d, 0xff,
  0xd1, 0x03, 0xaf, 0x0d, 0xcf, 0xee, 0x08, 0xf8, 0xc7, 0x23, 0x98, 0x17,
  0xc8, 0x10, 0xdc, 0xf8, 0xb9, 0x11, 0xca, 0x21, 0x0c, 0x2a, 0x2c, 0xeb,
  0x19, 0xf4, 0xeb, 0x1b, 0xef, 0x05, 0x0b, 0xf9, 0xe2, 0xf2, 0xc6, 0x06,
  0xcd, 0x05, 0xf7, 0xe5, 0x03, 0xe4, 0xe1, 0x04, 0x05, 0x16, 0x81, 0x3e,
  0xfe, 0x0a, 0xea, 0x00, 0xe1, 0xec, 0x97, 0xdd, 0xa8, 0xda, 0xd4, 0x1e,
  0xd5, 0x21, 0xc8, 0x05, 0x0a, 0x23, 0x9d, 0x3b, 0x0f, 0xd8, 0xe1, 0x00,
  0x54, 0x22, 0xe0, 0xe7, 0xe3, 0xdf, 0xf6, 0x30, 0x29, 0x33, 0xb5, 0x07,
  0xdc, 0xf5, 0xbf, 0x41, 0x0e, 0xe9, 0x20, 0x08, 0x16, 0x1a, 0xbb, 0x27,
  0xc1, 0x3d, 0x3d, 0x12, 0xf9, 0x02, 0xd1, 0x25, 0x15, 0x24, 0x35, 0x1a,
  0x01, 0x11, 0x05, 0x02, 0x09, 0x08, 0xf8, 0xd0, 0xf5, 0x1e, 0xe7, 0xef,
  0x29, 0x00, 0x33, 0x1e, 0x21, 0x18, 0xfc, 0xf1, 0x1a, 0x0a, 0xd6, 0x2d,
  0xfd, 0x05, 0x49, 0xfd, 0xed, 0xc2, 0x9d, 0xcf, 0xef, 0xd7, 0xe0, 0xe9,
  0x0e, 0x04, 0x2a, 0xd9, 0x0d, 0x00, 0xf6, 0x22, 0x08, 0x21, 0xf4, 0x0a,
  0x31, 0x12, 0x34, 0xf6, 0x24, 0x28, 0xc9, 0xf7, 0xe9, 0xf0, 0x58, 0xb6,
  0xbe, 0x06, 0xc6, 0x11, 0x06, 0xcc, 0xf6, 0xfc, 0xdb, 0xcd, 0xbc, 0xfb,
  0xf4, 0xe8, 0xd1, 0xee, 0xcc, 0xfc, 0x41, 0x25, 0xce, 0x39, 0x08, 0x06,
  0xeb, 0x10, 0x07, 0x2b, 0xd1, 0x3e, 0xe5, 0xce, 0xd5, 0x05, 0x19, 0xf0,
  0xdc, 0x00, 0x44, 0x24, 0xc2, 0x15, 0xee, 0xf3, 0xce, 0xa1, 0x0f, 0xd0,
  0x12, 0x02, 0xd2, 0xc1, 0x05, 0xa7, 0x93, 0x0f, 0x40, 0x2a, 0x61, 0x11,
  0x12, 0xed, 0x37, 0xe3, 0x07, 0x06, 0xd1, 0x2a, 0xed, 0xcf, 0x15, 0xd6,
  0xf6, 0x14, 0x08, 0x20, 0xe9, 0x34, 0xe9, 0x00, 0xe1, 0x00, 0x04, 0xdb,
  0x0e, 0xba, 0xbf, 0xf4, 0x2b, 0xe7, 0x60, 0xeb, 0xec, 0x20, 0x1e, 0x30,
  0xee, 0xd6, 0x7f, 0x12, 0xdf, 0xf4, 0x16, 0xd2, 0xfb, 0x01, 0xe0, 0x21,
  0xf0, 0xfb, 0xaa, 0xc2, 0x1c, 0x24, 0xdd, 0x0f, 0xf7, 0xff, 0xdf, 0xff,
  0xd5, 0xf5, 0xd1, 0x1b, 0xf8, 0x38, 0xce, 0x3a, 0xff, 0x02, 0x2e, 0x22,
  0x0b, 0xeb, 0x01, 0x0d, 0xed, 0x10, 0xc1, 0x03, 0xf3, 0x13, 0xb0, 0xe5,
  0xfe, 0x02, 0xcb, 0x0d, 0xe9, 0xef, 0xcf, 0x09, 0x11, 0x23, 0x02, 0x2f,
  0x14, 0x1e, 0xea, 0xe6, 0x1c, 0x16, 0xf1, 0x24, 0x1f, 0x2d, 0x3e, 0x12,
  0xf2, 0xe5, 0x52, 0xf4, 0xf9, 0xe6, 0x2a, 0x16, 0xdf, 0x1d, 0x81, 0x10,
  0xdb, 0x3e, 0x20, 0x30, 0xee, 0x32, 0xa6, 0x26, 0x09, 0x21, 0x1c, 0x1e,
  0xfc, 0x11, 0x09, 0x18, 0xff, 0x35, 0x0e, 0xda, 0xd7, 0x18, 0x02, 0x09,
  0x11, 0xf6, 0x0d, 0x13, 0xf8, 0x1b, 0x2a, 0x0f, 0xfa, 0xcf, 0xe0, 0x1f,
  0xdc, 0x03, 0xbd, 0xe5, 0x19, 0x3d, 0x06, 0x10, 0x1d, 0x08, 0x96, 0x38,
  0xf7, 0x41, 0x10, 0xb9, 0xd2, 0xdc, 0xd3, 0xed, 0xe8, 0xe9, 0x1b, 0xe8,
  0xf7, 0xf8, 0xcf, 0xe8, 0xfe, 0x17, 0x32, 0xf7, 0xda, 0x0c, 0x1f, 0x1a,
  0xea, 0xe9, 0xd2, 0xd2, 0x3a, 0x1d, 0xfb, 0x21, 0x33, 0xfc, 0x11, 0x31,
  0xfc, 0xf6, 0x9c, 0x17, 0x16, 0xee, 0x1e, 0xcf, 0xf0, 0xf2, 0xfa, 0x0b,
  0xde, 0xcb, 0xca, 0x04, 0xe1, 0xc9, 0xe9, 0xd4, 0xf5, 0xd1, 0xeb, 0xfd,
  0xe1, 0xc6, 0xcb, 0xce, 0xd2, 0xb3, 0xda, 0xfb, 0x45, 0x07, 0xbd, 0x0b,
  0x4d, 0xf1, 0x0b, 0x3f, 0x18, 0x3f, 0xe6, 0xe2, 0xff, 0xe0, 0xfb, 0xf5,
  0x13, 0x23, 0xf3, 0x08, 0x1f, 0x0d, 0xdc, 0xf2, 0xef, 0x26, 0x07, 0xf3,
  0xd9, 0xe1, 0xf5, 0xd2, 0x04, 0xe5, 0x32, 0xdc, 0xd3, 0xcf, 0x05, 0xef,
  0x9c, 0x57, 0x0f, 0x2a, 0xe1, 0xde, 0x9b, 0x03, 0xe4, 0x3e, 0x44, 0xb7,
  0xc6, 0xae, 0x3c, 0xf7, 0xb2, 0x1c, 0x0e, 0xcb, 0xeb, 0x98, 0x17, 0xb6,
  0x26, 0xb9, 0x14, 0x30, 0xf7, 0xd2, 0x0b, 0x20, 0x16, 0xc1, 0xcb, 0x10,
  0xb9, 0x2d, 0x27, 0xcc, 0xba, 0xcc, 0x30, 0x40, 0xae, 0xce, 0xb7, 0x1c,
  0x19, 0x11, 0xe6, 0x05, 0xbf, 0xf8, 0x04, 0xf3, 0x06, 0xd4, 0xfe, 0x1b,
  0x27, 0xd1, 0xb1, 0xe3, 0xff, 0x86, 0xd7, 0x8b, 0x36, 0x3e, 0xd9, 0xbd,
  0xe1, 0xc7, 0x3b, 0xde, 0x1a, 0x91, 0xa5, 0xe7, 0xff, 0xb6, 0x0d, 0x2e,
  0xc6, 0xac, 0x9a, 0x03, 0xc6, 0x9f, 0x2a, 0x93, 0xa3, 0x8b, 0xb4, 0x49,
  0xfa, 0x34, 0x30, 0xfc, 0xaf, 0xbe, 0xa1, 0xbb, 0x9b, 0x81, 0xc6, 0xd1,
  0x93, 0x33, 0x0a, 0x0e, 0x1b, 0xc1, 0xb4, 0xc6, 0xd0, 0xed, 0xee, 0x9b,
  0x0a, 0x8a, 0xc3, 0xfd, 0x93, 0x0f, 0x37, 0x34, 0xd5, 0x9e, 0x1d, 0xb8,
  0x86, 0x35, 0x47, 0xbc, 0xb3, 0x8b, 0xe6, 0xef, 0x93, 0x35, 0x02, 0x01,
  0xdb, 0x06, 0x27, 0xc6, 0x94, 0x07, 0xd1, 0x01, 0x21, 0xe7, 0xb8, 0xd2,
  0xe0, 0x20, 0xe0, 0x94, 0xa3, 0x18, 0x3a, 0xc4, 0xe3, 0x23, 0x36, 0xc0,
  0x95, 0x89, 0x02, 0x27, 0xb0, 0xf6, 0x3f, 0x9b, 0x27, 0xc8, 0x1c, 0x96,
  0xb5, 0x2d, 0x37, 0x8c, 0xb0, 0xdb, 0xeb, 0x20, 0x38, 0x19, 0xb9, 0xd0,
  0xee, 0xbd, 0xbd, 0xae, 0xc0, 0xf1, 0x2b, 0xa5, 0xec, 0xda, 0xcf, 0x15,
  0xea, 0xaf, 0x01, 0x1c, 0x0b, 0x0b, 0x23, 0xc7, 0x07, 0xbd, 0x35, 0x37,
  0xfd, 0xd5, 0xe3, 0xd1, 0xd6, 0xef, 0xf8, 0x2c, 0xc2, 0xd2, 0x3f, 0x13,
  0xcc, 0x20, 0xde, 0xea, 0xed, 0xe6, 0x20, 0x17, 0xda, 0xa9, 0xd9, 0x07,
  0xde, 0x12, 0xff, 0xd7, 0xeb, 0xe3, 0x22, 0x07, 0xfa, 0xf9, 0x1b, 0x06,
  0xdb, 0x19, 0x2e, 0xdc, 0xab, 0xe2, 0xc3, 0xe1, 0xe7, 0x2f, 0xfd, 0xcd,
  0x14, 0x26, 0xcd, 0x11, 0xc8, 0xdd, 0xc8, 0xc7, 0x02, 0xe1, 0x04, 0x0f,
  0x11, 0xf6, 0xf5, 0xec, 0xbb, 0xdd, 0xc6, 0x03, 0xf1, 0xe4, 0xeb, 0x29,
  0xfa, 0x24, 0x2d, 0x11, 0xf5, 0xd5, 0x0e, 0xb9, 0xf7, 0xe8, 0x40, 0x0a,
  0x33, 0xfe, 0xcc, 0xfe, 0x0f, 0x0f, 0x31, 0xba, 0x32, 0xde, 0xf9, 0x26,
  0x0c, 0x19, 0xfc, 0x05, 0xfa, 0x0c, 0x09, 0x5c, 0x2b, 0x30, 0xf8, 0xfe,
  0xdc, 0xf7, 0x30, 0x13, 0xe6, 0x1d, 0xf4, 0xe7, 0xda, 0x01, 0xef, 0xd3,
  0x56, 0x1f, 0x18, 0xb5, 0x2a, 0x02, 0x21, 0x19, 0x7f, 0x16, 0x17, 0xd4,
  0x4f, 0x1f, 0x46, 0x20, 0x44, 0x1e, 0xc3, 0xd9, 0x3b, 0xf3, 0x46, 0x47,
  0x43, 0xdb, 0x29, 0x08, 0x10, 0xe1, 0xc5, 0xbb, 0x0c, 0xc6, 0xd3, 0x16,
  0xff, 0x2d, 0xff, 0x10, 0x0a, 0x09, 0x2f, 0xdb, 0x06, 0x25, 0xfa, 0x45,
  0xff, 0x1d, 0x14, 0x16, 0x08, 0x27, 0x1c, 0xf9, 0x1c, 0xfc, 0x07, 0x21,
  0x29, 0xf2, 0xfc, 0x2e, 0xf1, 0x17, 0xdb, 0x49, 0xe2, 0x5e, 0x1f, 0xef,
  0x2c, 0x16, 0x1f, 0x07, 0x21, 0xed, 0xfb, 0xed, 0x26, 0x2e, 0xfe, 0x1d,
  0x1e, 0x33, 0x32, 0x0a, 0xf4, 0xf3, 0x1c, 0x28, 0x1d, 0x15, 0x2a, 0x09,
  0xfa, 0x05, 0x06, 0xff, 0x0c, 0xce, 0x16, 0x58, 0x0c, 0xf7, 0xdf, 0x07,
  0x03, 0x1e, 0x3b, 0xda, 0xe4, 0x19, 0x30, 0xf2, 0x1f, 0x3c, 0x25, 0xe9,
  0xdc, 0xea, 0xf3, 0x10, 0x23, 0x56, 0x3a, 0xd8, 0xf3, 0xff, 0x07, 0x13,
  0x11, 0x3b, 0x33, 0xe1, 0xd7, 0xf7, 0x1c, 0xdf, 0xed, 0x35, 0x26, 0x3e,
  0x0e, 0xfd, 0x11, 0x1c, 0x07, 0x3a, 0xf7, 0x08, 0xe1, 0xdd, 0xeb, 0x32,
  0xf6, 0xfc, 0x04, 0x85, 0xc7, 0xcd, 0x17, 0x07, 0x10, 0x44, 0xc8, 0xdf,
  0xe6, 0x0b, 0x14, 0xf3, 0xfe, 0xf1, 0x2a, 0xd2, 0xd8, 0xd8, 0xe8, 0x0e,
  0x0e, 0x17, 0xc8, 0x17, 0xfc, 0xf6, 0x02, 0xeb, 0xfb, 0x0d, 0xeb, 0xd4,
  0xe2, 0xfa, 0xeb, 0xeb, 0xd4, 0xc8, 0x2f, 0xd4, 0xec, 0xaa, 0x31, 0xf7,
  0x08, 0x9b, 0xb3, 0xb7, 0x00, 0x07, 0xc5, 0xf3, 0xf8, 0xb5, 0x14, 0xc6,
  0xea, 0xc6, 0x27, 0xcb, 0xfa, 0x1e, 0x9d, 0x20, 0xf7, 0x11, 0x23, 0xcf,
  0xe3, 0x0a, 0xeb, 0xff, 0x19, 0x1e, 0xdb, 0xff, 0xd6, 0xe7, 0xf6, 0x05,
  0x0e, 0xc7, 0x1d, 0xd3, 0xfe, 0xee, 0x08, 0x25, 0x00, 0x1c, 0x07, 0xeb,
  0xeb, 0x81, 0x32, 0xe5, 0xbd, 0xe4, 0xce, 0xce, 0x09, 0x0c, 0xfc, 0x25,
  0x06, 0xfe, 0xff, 0xff, 0x04, 0x00, 0x00, 0x00, 0x20, 0x00, 0x00, 0x00,
  0xba, 0xff, 0xff, 0xff, 0x6e, 0xff, 0xff, 0xff, 0x04, 0x00, 0x00, 0x00,
  0x67, 0xff, 0xff, 0xff, 0xd1, 0xfe, 0xff, 0xff, 0x45, 0xff, 0xff, 0xff,
  0xc8, 0xff, 0xff, 0xff, 0xb1, 0xff, 0xff, 0xff, 0x32, 0xfe, 0xff, 0xff,
  0x04, 0x00, 0x00, 0x00, 0x20, 0x01, 0x00, 0x00, 0x81, 0xe4, 0xdd, 0x06,
  0xc7, 0xf5, 0xe7, 0x18, 0x03, 0xbe, 0x1f, 0xce, 0xef, 0x25, 0x14, 0x09,
  0xb3, 0x0d, 0x34, 0x4d, 0x13, 0xd3, 0xe3, 0x20, 0xf8, 0xf8, 0x3d, 0x3e,
  0xc6, 0x27, 0x22, 0x21, 0x0c, 0x34, 0xe2, 0x0d, 0xdb, 0xe4, 0x1c, 0xbd,
  0xc4, 0xe6, 0xa9, 0xf8, 0x81, 0x33, 0xf4, 0xe8, 0xd5, 0x33, 0x51, 0x38,
  0xe6, 0xb7, 0xe1, 0xee, 0x09, 0xed, 0xab, 0x05, 0xe6, 0x4c, 0x70, 0x43,
  0x05, 0x2c, 0xb5, 0x5b, 0x24, 0xd3, 0xda, 0x28, 0x1d, 0xd3, 0x1f, 0x33,
  0x0c, 0x07, 0x39, 0xf4, 0x4e, 0xdd, 0xf0, 0x38, 0x7f, 0xfc, 0xc9, 0x23,
  0x2c, 0x15, 0x19, 0x61, 0x2a, 0xc2, 0x2c, 0x6a, 0x64, 0xc6, 0xc7, 0xf6,
  0x60, 0x23, 0x21, 0x48, 0x0c, 0xec, 0x13, 0x3e, 0x1d, 0x38, 0xfb, 0x06,
  0x73, 0x2b, 0xc4, 0x0a, 0x5e, 0xc4, 0xd3, 0x3f, 0x49, 0x3d, 0xd8, 0x10,
  0x14, 0xcf, 0xea, 0xf8, 0x4e, 0xf0, 0x81, 0x57, 0x03, 0x39, 0xa8, 0xdc,
  0x40, 0x1e, 0xe2, 0xad, 0x52, 0x14, 0xa3, 0x9e, 0xcd, 0xbc, 0x2e, 0x55,
  0x81, 0x05, 0x01, 0x12, 0xee, 0x03, 0x5d, 0x5e, 0x05, 0x3d, 0x50, 0x32,
  0xf2, 0x25, 0x4a, 0x00, 0xe8, 0xb4, 0x5e, 0x6a, 0xeb, 0xd6, 0x08, 0x18,
  0xc9, 0x05, 0x4b, 0xd8, 0x3c, 0xf3, 0x47, 0x5f, 0x7f, 0xc5, 0xe4, 0xf8,
  0x43, 0x65, 0x54, 0xc1, 0xd5, 0x6a, 0xc7, 0x22, 0xf8, 0x02, 0x5f, 0xd6,
  0x01, 0xc7, 0xcc, 0x0b, 0x8e, 0xef, 0xbb, 0x31, 0xc0, 0x14, 0x11, 0xcc,
  0xf4, 0xc2, 0xc5, 0xf9, 0x14, 0x01, 0xb9, 0x3b, 0x0a, 0x13, 0x5c, 0xf3,
  0xe6, 0xd9, 0x43, 0x00, 0x4c, 0x05, 0xc8, 0x3d, 0x8d, 0x0f, 0x4b, 0x59,
  0x81, 0x0a, 0xf2, 0x4e, 0xa7, 0x13, 0xba, 0x01, 0xca, 0xf1, 0xe6, 0x54,
  0x96, 0xf1, 0xd3, 0x02, 0x0b, 0xf8, 0xdb, 0xc5, 0x04, 0xa3, 0x12, 0xb3,
  0x81, 0x9c, 0x33, 0x96, 0xc9, 0x45, 0x36, 0xbc, 0x4c, 0xe0, 0x4a, 0x63,
  0xf5, 0x5c, 0x0b, 0xb1, 0xf2, 0x15, 0x65, 0x52, 0xc3, 0x91, 0x19, 0x2e,
  0x8c, 0x2f, 0xb9, 0xfd, 0xa3, 0x6c, 0xaa, 0xf1, 0x5e, 0xff, 0xff, 0xff,
  0x04, 0x00, 0x00, 0x00, 0x10, 0x00, 0x00, 0x00, 0x62, 0x00, 0x00, 0x00,
  0xc4, 0xff, 0xff, 0xff, 0xd7, 0xff, 0xff, 0xff, 0xa4, 0xff, 0xff, 0xff,
  0x7a, 0xff, 0xff, 0xff, 0x04, 0x00, 0x00, 0x00, 0x48, 0x00, 0x00, 0x00,
  0x9f, 0x2a, 0xe4, 0xab, 0x69, 0x02, 0x0a, 0xc6, 0xde, 0xe5, 0xd9, 0x17,
  0x7f, 0xa9, 0xe7, 0x10, 0x9c, 0x54, 0x5a, 0x4c, 0x2c, 0xdc, 0x7f, 0x14,
  0xd6, 0x85, 0x3a, 0xe7, 0x19, 0x7f, 0x47, 0x8c, 0x9b, 0x59, 0x1f, 0x10,
  0xc9, 0x81, 0xaa, 0xfd, 0x5e, 0xf4, 0x1a, 0x4e, 0x49, 0xc7, 0xcc, 0x14,
  0x2b, 0x15, 0xb5, 0x8a, 0x59, 0x52, 0x09, 0xcc, 0xf0, 0x6a, 0x4d, 0x43,
  0xe1, 0x7f, 0xed, 0x31, 0xd3, 0xe3, 0xde, 0xbb, 0xf6, 0x0f, 0x2e, 0xc5,
  0xce, 0xff, 0xff, 0xff, 0x04, 0x00, 0x00, 0x00, 0x08, 0x00, 0x00, 0x00,
  0x73, 0xff, 0xff, 0xff, 0xa8, 0xff, 0xff, 0xff, 0xe2, 0xff, 0xff, 0xff,
  0x04, 0x00, 0x00, 0x00, 0x12, 0x00, 0x00, 0x00, 0x4e, 0x7f, 0x86, 0xcf,
  0x96, 0x26, 0xd5, 0x27, 0x75, 0x7f, 0x53, 0x91, 0xfc, 0xf8, 0xe4, 0xe2,
  0xf7, 0xfa, 0x06, 0x00, 0x08, 0x00, 0x04, 0x00, 0x06, 0x00, 0x00, 0x00,
  0x04, 0x00, 0x00, 0x00, 0x08, 0x00, 0x00, 0x00, 0xff, 0xff, 0xff, 0xff,
  0x00, 0x04, 0x00, 0x00, 0x44, 0xeb, 0xff, 0xff, 0x48, 0xeb, 0xff, 0xff,
  0x0f, 0x00, 0x00, 0x00, 0x4d, 0x4c, 0x49, 0x52, 0x20, 0x43, 0x6f, 0x6e,
  0x76, 0x65, 0x72, 0x74, 0x65, 0x64, 0x2e, 0x00, 0x01, 0x00, 0x00, 0x00,
  0x14, 0x00, 0x00, 0x00, 0x00, 0x00, 0x0e, 0x00, 0x18, 0x00, 0x14, 0x00,
  0x10, 0x00, 0x0c, 0x00, 0x08, 0x00, 0x04, 0x00, 0x0e, 0x00, 0x00, 0x00,
  0x14, 0x00, 0x00, 0x00, 0x1c, 0x00, 0x00, 0x00, 0x38, 0x03, 0x00, 0x00,
  0x3c, 0x03, 0x00, 0x00, 0x40, 0x03, 0x00, 0x00, 0x04, 0x00, 0x00, 0x00,
  0x6d, 0x61, 0x69, 0x6e, 0x00, 0x00, 0x00, 0x00, 0x0c, 0x00, 0x00, 0x00,
  0xd4, 0x02, 0x00, 0x00, 0x70, 0x02, 0x00, 0x00, 0x20, 0x02, 0x00, 0x00,
  0xdc, 0x01, 0x00, 0x00, 0x9c, 0x01, 0x00, 0x00, 0x58, 0x01, 0x00, 0x00,
  0x18, 0x01, 0x00, 0x00, 0xd4, 0x00, 0x00, 0x00, 0x94, 0x00, 0x00, 0x00,
  0x6c, 0x00, 0x00, 0x00, 0x28, 0x00, 0x00, 0x00, 0x04, 0x00, 0x00, 0x00,
  0xaa, 0xff, 0xff, 0xff, 0x0c, 0x00, 0x00, 0x00, 0x10, 0x00, 0x00, 0x00,
  0x04, 0x00, 0x00, 0x00, 0x01, 0x00, 0x00, 0x00, 0x19, 0x00, 0x00, 0x00,
  0x01, 0x00, 0x00, 0x00, 0x18, 0x00, 0x00, 0x00, 0xea, 0xfd, 0xff, 0xff,
  0x14, 0x00, 0x00, 0x00, 0x00, 0x00, 0x00, 0x08, 0x10, 0x00, 0x00, 0x00,
  0x14, 0x00, 0x00, 0x00, 0x03, 0x00, 0x00, 0x00, 0x08, 0xec, 0xff, 0xff,
  0x01, 0x00, 0x00, 0x00, 0x18, 0x00, 0x00, 0x00, 0x03, 0x00, 0x00, 0x00,
  0x17, 0x00, 0x00, 0x00, 0x0c, 0x00, 0x00, 0x00, 0x0d, 0x00, 0x00, 0x00,
  0x00, 0x00, 0x0a, 0x00, 0x10, 0x00, 0x0c, 0x00, 0x08, 0x00, 0x04, 0x00,
  0x0a, 0x00, 0x00, 0x00, 0x0c, 0x00, 0x00, 0x00, 0x10, 0x00, 0x00, 0x00,
  0x02, 0x00, 0x00, 0x00, 0x01, 0x00, 0x00, 0x00, 0x17, 0x00, 0x00, 0x00,
  0x02, 0x00, 0x00, 0x00, 0x16, 0x00, 0x00, 0x00, 0x01, 0x00, 0x00, 0x00,
  0xee, 0xfd, 0xff, 0xff, 0x10, 0x00, 0x00, 0x00, 0x00, 0x00, 0x00, 0x01,
  0x18, 0x00, 0x00, 0x00, 0x1c, 0x00, 0x00, 0x00, 0xe0, 0xfd, 0xff, 0xff,
  0x00, 0x00, 0x00, 0x01, 0x01, 0x00, 0x00, 0x00, 0x01, 0x00, 0x00, 0x00,
  0x01, 0x00, 0x00, 0x00, 0x16, 0x00, 0x00, 0x00, 0x03, 0x00, 0x00, 0x00,
  0x15, 0x00, 0x00, 0x00, 0x0a, 0x00, 0x00, 0x00, 0x0b, 0x00, 0x00, 0x00,
  0x8a, 0xfe, 0xff, 0xff, 0x14, 0x00, 0x00, 0x00, 0x00, 0x00, 0x00, 0x05,
  0x24, 0x00, 0x00, 0x00, 0x28, 0x00, 0x00, 0x00, 0x01, 0x00, 0x00, 0x00,
  0x7a, 0xfe, 0xff, 0xff, 0x02, 0x00, 0x00, 0x00, 0x02, 0x00, 0x00, 0x00,
  0x02, 0x00, 0x00, 0x00, 0x02, 0x00, 0x00, 0x00, 0x00, 0x00, 0x00, 0x01,
  0x01, 0x00, 0x00, 0x00, 0x15, 0x00, 0x00, 0x00, 0x01, 0x00, 0x00, 0x00,
  0x14, 0x00, 0x00, 0x00, 0x6a, 0xfe, 0xff, 0xff, 0x10, 0x00, 0x00, 0x00,
  0x00, 0x00, 0x00, 0x01, 0x18, 0x00, 0x00, 0x00, 0x1c, 0x00, 0x00, 0x00,
  0x5c, 0xfe, 0xff, 0xff, 0x00, 0x00, 0x00, 0x01, 0x01, 0x00, 0x00, 0x00,
  0x01, 0x00, 0x00, 0x00, 0x01, 0x00, 0x00, 0x00, 0x14, 0x00, 0x00, 0x00,
  0x03, 0x00, 0x00, 0x00, 0x13, 0x00, 0x00, 0x00, 0x08, 0x00, 0x00, 0x00,
  0x09, 0x00, 0x00, 0x00, 0x06, 0xff, 0xff, 0xff, 0x14, 0x00, 0x00, 0x00,
  0x00, 0x00, 0x00, 0x05, 0x24, 0x00, 0x00, 0x00, 0x28, 0x00, 0x00, 0x00,
  0x01, 0x00, 0x00, 0x00, 0xf6, 0xfe, 0xff, 0xff, 0x02, 0x00, 0x00, 0x00,
  0x02, 0x00, 0x00, 0x00, 0x02, 0x00, 0x00, 0x00, 0x02, 0x00, 0x00, 0x00,
  0x00, 0x00, 0x00, 0x01, 0x01, 0x00, 0x00, 0x00, 0x13, 0x00, 0x00, 0x00,
  0x01, 0x00, 0x00, 0x00, 0x12, 0x00, 0x00, 0x00, 0xe6, 0xfe, 0xff, 0xff,
  0x10, 0x00, 0x00, 0x00, 0x00, 0x00, 0x00, 0x01, 0x18, 0x00, 0x00, 0x00,
  0x1c, 0x00, 0x00, 0x00, 0xd8, 0xfe, 0xff, 0xff, 0x00, 0x00, 0x00, 0x01,
  0x01, 0x00, 0x00, 0x00, 0x01, 0x00, 0x00, 0x00, 0x01, 0x00, 0x00, 0x00,
  0x12, 0x00, 0x00, 0x00, 0x03, 0x00, 0x00, 0x00, 0x11, 0x00, 0x00, 0x00,
  0x06, 0x00, 0x00, 0x00, 0x07, 0x00, 0x00, 0x00, 0x82, 0xff, 0xff, 0xff,
  0x14, 0x00, 0x00, 0x00, 0x00, 0x00, 0x00, 0x05, 0x24, 0x00, 0x00, 0x00,
  0x28, 0x00, 0x00, 0x00, 0x01, 0x00, 0x00, 0x00, 0x72, 0xff, 0xff, 0xff,
  0x02, 0x00, 0x00, 0x00, 0x02, 0x00, 0x00, 0x00, 0x02, 0x00, 0x00, 0x00,
  0x02, 0x00, 0x00, 0x00, 0x00, 0x00, 0x00, 0x01, 0x01, 0x00, 0x00, 0x00,
  0x11, 0x00, 0x00, 0x00, 0x01, 0x00, 0x00, 0x00, 0x10, 0x00, 0x00, 0x00,
  0x62, 0xff, 0xff, 0xff, 0x10, 0x00, 0x00, 0x00, 0x00, 0x00, 0x00, 0x01,
  0x18, 0x00, 0x00, 0x00, 0x1c, 0x00, 0x00, 0x00, 0x54, 0xff, 0xff, 0xff,
  0x00, 0x00, 0x00, 0x01, 0x01, 0x00, 0x00, 0x00, 0x01, 0x00, 0x00, 0x00,
  0x01, 0x00, 0x00, 0x00, 0x10, 0x00, 0x00, 0x00, 0x03, 0x00, 0x00, 0x00,
  0x0f, 0x00, 0x00, 0x00, 0x04, 0x00, 0x00, 0x00, 0x05, 0x00, 0x00, 0x00,
  0x00, 0x00, 0x0e, 0x00, 0x1a, 0x00, 0x14, 0x00, 0x10, 0x00, 0x0c, 0x00,
  0x0b, 0x00, 0x04, 0x00, 0x0e, 0x00, 0x00, 0x00, 0x24, 0x00, 0x00, 0x00,
  0x00, 0x00, 0x00, 0x05, 0x34, 0x00, 0x00, 0x00, 0x38, 0x00, 0x00, 0x00,
  0x01, 0x00, 0x00, 0x00, 0x00, 0x00, 0x0e, 0x00, 0x18, 0x00, 0x17, 0x00,
  0x10, 0x00, 0x0c, 0x00, 0x08, 0x00, 0x04, 0x00, 0x0e, 0x00, 0x00, 0x00,
  0x02, 0x00, 0x00, 0x00, 0x02, 0x00, 0x00, 0x00, 0x02, 0x00, 0x00, 0x00,
  0x02, 0x00, 0x00, 0x00, 0x00, 0x00, 0x00, 0x01, 0x01, 0x00, 0x00, 0x00,
  0x0f, 0x00, 0x00, 0x00, 0x01, 0x00, 0x00, 0x00, 0x0e, 0x00, 0x00, 0x00,
  0x00, 0x00, 0x0e, 0x00, 0x14, 0x00, 0x00, 0x00, 0x10, 0x00, 0x0c, 0x00,
  0x0b, 0x00, 0x04, 0x00, 0x0e, 0x00, 0x00, 0x00, 0x1c, 0x00, 0x00, 0x00,
  0x00, 0x00, 0x00, 0x01, 0x24, 0x00, 0x00, 0x00, 0x28, 0x00, 0x00, 0x00,
  0x0c, 0x00, 0x10, 0x00, 0x00, 0x00, 0x0c, 0x00, 0x08, 0x00, 0x07, 0x00,
  0x0c, 0x00, 0x00, 0x00, 0x00, 0x00, 0x00, 0x01, 0x01, 0x00, 0x00, 0x00,
  0x01, 0x00, 0x00, 0x00, 0x01, 0x00, 0x00, 0x00, 0x0e, 0x00, 0x00, 0x00,
  0x03, 0x00, 0x00, 0x00, 0x00, 0x00, 0x00, 0x00, 0x02, 0x00, 0x00, 0x00,
  0x03, 0x00, 0x00, 0x00, 0x01, 0x00, 0x00, 0x00, 0x19, 0x00, 0x00, 0x00,
  0x01, 0x00, 0x00, 0x00, 0x00, 0x00, 0x00, 0x00, 0x1a, 0x00, 0x00, 0x00,
  0x74, 0x11, 0x00, 0x00, 0x14, 0x11, 0x00, 0x00, 0x88, 0x10, 0x00, 0x00,
  0x04, 0x10, 0x00, 0x00, 0x70, 0x0f, 0x00, 0x00, 0xd4, 0x0e, 0x00, 0x00,
  0x10, 0x0e, 0x00, 0x00, 0x44, 0x0d, 0x00, 0x00, 0x80, 0x0c, 0x00, 0x00,
  0xb4, 0x0b, 0x00, 0x00, 0x90, 0x0a, 0x00, 0x00, 0x64, 0x09, 0x00, 0x00,
  0x00, 0x09, 0x00, 0x00, 0x8c, 0x08, 0x00, 0x00, 0xa8, 0x07, 0x00, 0x00,
  0x14, 0x07, 0x00, 0x00, 0x28, 0x06, 0x00, 0x00, 0x94, 0x05, 0x00, 0x00,
  0x90, 0x04, 0x00, 0x00, 0xfc, 0x03, 0x00, 0x00, 0x10, 0x03, 0x00, 0x00,
  0x7c, 0x02, 0x00, 0x00, 0x90, 0x01, 0x00, 0x00, 0x14, 0x01, 0x00, 0x00,
  0x80, 0x00, 0x00, 0x00, 0x04, 0x00, 0x00, 0x00, 0x08, 0xef, 0xff, 0xff,
  0x18, 0x00, 0x00, 0x00, 0x20, 0x00, 0x00, 0x00, 0x40, 0x00, 0x00, 0x00,
  0x1a, 0x00, 0x00, 0x00, 0x00, 0x00, 0x00, 0x09, 0x54, 0x00, 0x00, 0x00,
  0x02, 0x00, 0x00, 0x00, 0xff, 0xff, 0xff, 0xff, 0x01, 0x00, 0x00, 0x00,
  0xec, 0xee, 0xff, 0xff, 0x08, 0x00, 0x00, 0x00, 0x14, 0x00, 0x00, 0x00,
  0x01, 0x00, 0x00, 0x00, 0x80, 0xff, 0xff, 0xff, 0xff, 0xff, 0xff, 0xff,
  0x00, 0x00, 0x00, 0x00, 0x01, 0x00, 0x00, 0x00, 0x00, 0x00, 0x80, 0x3b,
  0x19, 0x00, 0x00, 0x00, 0x53, 0x74, 0x61, 0x74, 0x65, 0x66, 0x75, 0x6c,
  0x50, 0x61, 0x72, 0x74, 0x69, 0x74, 0x69, 0x6f, 0x6e, 0x65, 0x64, 0x43,
  0x61, 0x6c, 0x6c, 0x3a, 0x30, 0x00, 0x00, 0x00, 0x02, 0x00, 0x00, 0x00,
  0x01, 0x00, 0x00, 0x00, 0x01, 0x00, 0x00, 0x00, 0x80, 0xef, 0xff, 0xff,
  0x18, 0x00, 0x00, 0x00, 0x20, 0x00, 0x00, 0x00, 0x40, 0x00, 0x00, 0x00,
  0x19, 0x00, 0x00, 0x00, 0x00, 0x00, 0x00, 0x09, 0x6c, 0x00, 0x00, 0x00,
  0x02, 0x00, 0x00, 0x00, 0xff, 0xff, 0xff, 0xff, 0x01, 0x00, 0x00, 0x00,
  0x64, 0xef, 0xff, 0xff, 0x08, 0x00, 0x00, 0x00, 0x14, 0x00, 0x00, 0x00,
  0x01, 0x00, 0x00, 0x00, 0xd5, 0xff, 0xff, 0xff, 0xff, 0xff, 0xff, 0xff,
  0x00, 0x00, 0x00, 0x00, 0x01, 0x00, 0x00, 0x00, 0x79, 0xe5, 0x10, 0x3e,
  0x30, 0x00, 0x00, 0x00, 0x73, 0x65, 0x71, 0x75, 0x65, 0x6e, 0x74, 0x69,
  0x61, 0x6c, 0x2f, 0x64, 0x65, 0x6e, 0x73, 0x65, 0x2f, 0x4d, 0x61, 0x74,
  0x4d, 0x75, 0x6c, 0x3b, 0x73, 0x65, 0x71, 0x75, 0x65, 0x6e, 0x74, 0x69,
  0x61, 0x6c, 0x2f, 0x64, 0x65, 0x6e, 0x73, 0x65, 0x2f, 0x42, 0x69, 0x61,
  0x73, 0x41, 0x64, 0x64, 0x00, 0x00, 0x00, 0x00, 0x02, 0x00, 0x00, 0x00,
  0x01, 0x00, 0x00, 0x00, 0x01, 0x00, 0x00, 0x00, 0x10, 0xf0, 0xff, 0xff,
  0x18, 0x00, 0x00, 0x00, 0x20, 0x00, 0x00, 0x00, 0x40, 0x00, 0x00, 0x00,
  0x18, 0x00, 0x00, 0x00, 0x00, 0x00, 0x00, 0x09, 0x54, 0x00, 0x00, 0x00,
  0x02, 0x00, 0x00, 0x00, 0xff, 0xff, 0xff, 0xff, 0x00, 0x04, 0x00, 0x00,
  0xf4, 0xef, 0xff, 0xff, 0x08, 0x00, 0x00, 0x00, 0x14, 0x00, 0x00, 0x00,
  0x01, 0x00, 0x00, 0x00, 0x80, 0xff, 0xff, 0xff, 0xff, 0xff, 0xff, 0xff,
  0x00, 0x00, 0x00, 0x00, 0x01, 0x00, 0x00, 0x00, 0x39, 0x2b, 0x74, 0x3d,
  0x1a, 0x00, 0x00, 0x00, 0x73, 0x65, 0x71, 0x75, 0x65, 0x6e, 0x74, 0x69,
  0x61, 0x6c, 0x2f, 0x66, 0x6c, 0x61, 0x74, 0x74, 0x65, 0x6e, 0x2f, 0x52,
  0x65, 0x73, 0x68, 0x61, 0x70, 0x65, 0x00, 0x00, 0x02, 0x00, 0x00, 0x00,
  0x01, 0x00, 0x00, 0x00, 0x00, 0x04, 0x00, 0x00, 0x88, 0xf0, 0xff, 0xff,
  0x18, 0x00, 0x00, 0x00, 0x28, 0x00, 0x00, 0x00, 0x48, 0x00, 0x00, 0x00,
  0x17, 0x00, 0x00, 0x00, 0x00, 0x00, 0x00, 0x09, 0xbc, 0x00, 0x00, 0x00,
  0x04, 0x00, 0x00, 0x00, 0xff, 0xff, 0xff, 0xff, 0x08, 0x00, 0x00, 0x00,
  0x08, 0x00, 0x00, 0x00, 0x10, 0x00, 0x00, 0x00, 0x74, 0xf0, 0xff, 0xff,
  0x08, 0x00, 0x00, 0x00, 0x14, 0x00, 0x00, 0x00, 0x01, 0x00, 0x00, 0x00,
  0x80, 0xff, 0xff, 0xff, 0xff, 0xff, 0xff, 0xff, 0x00, 0x00, 0x00, 0x00,
  0x01, 0x00, 0x00, 0x00, 0x39, 0x2b, 0x74, 0x3d, 0x7a, 0x00, 0x00, 0x00,
  0x73, 0x65, 0x71, 0x75, 0x65, 0x6e, 0x74, 0x69, 0x61, 0x6c, 0x2f, 0x63,
  0x6f, 0x6e, 0x76, 0x32, 0x64, 0x5f, 0x34, 0x2f, 0x52, 0x65, 0x6c, 0x75,
  0x3b, 0x73, 0x65, 0x71, 0x75, 0x65, 0x6e, 0x74, 0x69, 0x61, 0x6c, 0x2f,
  0x63, 0x6f, 0x6e, 0x76, 0x32, 0x64, 0x5f, 0x34, 0x2f, 0x42, 0x69, 0x61,
  0x73, 0x41, 0x64, 0x64, 0x3b, 0x73, 0x65, 0x71, 0x75, 0x65, 0x6e, 0x74,
  0x69, 0x61, 0x6c, 0x2f, 0x63, 0x6f, 0x6e, 0x76, 0x32, 0x64, 0x5f, 0x34,
  0x2f, 0x43, 0x6f, 0x6e, 0x76, 0x32, 0x44, 0x3b, 0x73, 0x65, 0x71, 0x75,
  0x65, 0x6e, 0x74, 0x69, 0x61, 0x6c, 0x2f, 0x63, 0x6f, 0x6e, 0x76, 0x32,
  0x64, 0x5f, 0x34, 0x2f, 0x42, 0x69, 0x61, 0x73, 0x41, 0x64, 0x64, 0x2f,
  0x52, 0x65, 0x61, 0x64, 0x56, 0x61, 0x72, 0x69, 0x61, 0x62, 0x6c, 0x65,
  0x4f, 0x70, 0x00, 0x00, 0x04, 0x00, 0x00, 0x00, 0x01, 0x00, 0x00, 0x00,
  0x08, 0x00, 0x00, 0x00, 0x08, 0x00, 0x00, 0x00, 0x10, 0x00, 0x00, 0x00,
  0x70, 0xf1, 0xff, 0xff, 0x18, 0x00, 0x00, 0x00, 0x28, 0x00, 0x00, 0x00,
  0x44, 0x00, 0x00, 0x00, 0x16, 0x00, 0x00, 0x00, 0x00, 0x00, 0x00, 0x09,
  0x64, 0x00, 0x00, 0x00, 0x04, 0x00, 0x00, 0x00, 0xff, 0xff, 0xff, 0xff,
  0x08, 0x00, 0x00, 0x00, 0x08, 0x00, 0x00, 0x00, 0x08, 0x00, 0x00, 0x00,
  0x5c, 0xf1, 0xff, 0xff, 0x08, 0x00, 0x00, 0x00, 0x10, 0x00, 0x00, 0x00,
  0x01, 0x00, 0x00, 0x00, 0x80, 0xff, 0xff, 0xff, 0xff, 0xff, 0xff, 0xff,
  0x01, 0x00, 0x00, 0x00, 0xf2, 0x00, 0x18, 0x3e, 0x26, 0x00, 0x00, 0x00,
  0x73, 0x65, 0x71, 0x75, 0x65, 0x6e, 0x74, 0x69, 0x61, 0x6c, 0x2f, 0x61,
  0x76, 0x65, 0x72, 0x61, 0x67, 0x65, 0x5f, 0x70, 0x6f, 0x6f, 0x6c, 0x69,
  0x6e, 0x67, 0x32, 0x64, 0x5f, 0x33, 0x2f, 0x41, 0x76, 0x67, 0x50, 0x6f,
  0x6f, 0x6c, 0x00, 0x00, 0x04, 0x00, 0x00, 0x00, 0x01, 0x00, 0x00, 0x00,
  0x08, 0x00, 0x00, 0x00, 0x08, 0x00, 0x00, 0x00, 0x08, 0x00, 0x00, 0x00,
  0x00, 0xf2, 0xff, 0xff, 0x18, 0x00, 0x00, 0x00, 0x28, 0x00, 0x00, 0x00,
  0x48, 0x00, 0x00, 0x00, 0x15, 0x00, 0x00, 0x00, 0x00, 0x00, 0x00, 0x09,
  0xbc, 0x00, 0x00, 0x00, 0x04, 0x00, 0x00, 0x00, 0xff, 0xff, 0xff, 0xff,
  0x10, 0x00, 0x00, 0x00, 0x10, 0x00, 0x00, 0x00, 0x08, 0x00, 0x00, 0x00,
  0xec, 0xf1, 0xff, 0xff, 0x08, 0x00, 0x00, 0x00, 0x14, 0x00, 0x00, 0x00,
  0x01, 0x00, 0x00, 0x00, 0x80, 0xff, 0xff, 0xff, 0xff, 0xff, 0xff, 0xff,
  0x00, 0x00, 0x00, 0x00, 0x01, 0x00, 0x00, 0x00, 0xf2, 0x00, 0x18, 0x3e,
  0x7a, 0x00, 0x00, 0x00, 0x73, 0x65, 0x71, 0x75, 0x65, 0x6e, 0x74, 0x69,
  0x61, 0x6c, 0x2f, 0x63, 0x6f, 0x6e, 0x76, 0x32, 0x64, 0x5f, 0x33, 0x2f,
  0x52, 0x65, 0x6c, 0x75, 0x3b, 0x73, 0x65, 0x71, 0x75, 0x65, 0x6e, 0x74,
  0x69, 0x61, 0x6c, 0x2f, 0x63, 0x6f, 0x6e, 0x76, 0x32, 0x64, 0x5f, 0x33,
  0x2f, 0x42, 0x69, 0x61, 0x73, 0x41, 0x64, 0x64, 0x3b, 0x73, 0x65, 0x71,
  0x75, 0x65, 0x6e, 0x74, 0x69, 0x61, 0x6c, 0x2f, 0x63, 0x6f, 0x6e, 0x76,
  0x32, 0x64, 0x5f, 0x33, 0x2f, 0x43, 0x6f, 0x6e, 0x76, 0x32, 0x44, 0x3b,
  0x73, 0x65, 0x71, 0x75, 0x65, 0x6e, 0x74, 0x69, 0x61, 0x6c, 0x2f, 0x63,
  0x6f, 0x6e, 0x76, 0x32, 0x64, 0x5f, 0x33, 0x2f, 0x42, 0x69, 0x61, 0x73,
  0x41, 0x64, 0x64, 0x2f, 0x52, 0x65, 0x61, 0x64, 0x56, 0x61, 0x72, 0x69,
  0x61, 0x62, 0x6c, 0x65, 0x4f, 0x70, 0x00, 0x00, 0x04, 0x00, 0x00, 0x00,
  0x01, 0x00, 0x00, 0x00, 0x10, 0x00, 0x00, 0x00, 0x10, 0x00, 0x00, 0x00,
  0x08, 0x00, 0x00, 0x00, 0xe8, 0xf2, 0xff, 0xff, 0x18, 0x00, 0x00, 0x00,
  0x28, 0x00, 0x00, 0x00, 0x44, 0x00, 0x00, 0x00, 0x14, 0x00, 0x00, 0x00,
  0x00, 0x00, 0x00, 0x09, 0x64, 0x00, 0x00, 0x00, 0x04, 0x00, 0x00, 0x00,
  0xff, 0xff, 0xff, 0xff, 0x10, 0x00, 0x00, 0x00, 0x10, 0x00, 0x00, 0x00,
  0x08, 0x00, 0x00, 0x00, 0xd4, 0xf2, 0xff, 0xff, 0x08, 0x00, 0x00, 0x00,
  0x10, 0x00, 0x00, 0x00, 0x01, 0x00, 0x00, 0x00, 0x80, 0xff, 0xff, 0xff,
  0xff, 0xff, 0xff, 0xff, 0x01, 0x00, 0x00, 0x00, 0x0c, 0x85, 0x7b, 0x3e,
  0x26, 0x00, 0x00, 0x00, 0x73, 0x65, 0x71, 0x75, 0x65, 0x6e, 0x74, 0x69,
  0x61, 0x6c, 0x2f, 0x61, 0x76, 0x65, 0x72, 0x61, 0x67, 0x65, 0x5f, 0x70,
  0x6f, 0x6f, 0x6c, 0x69, 0x6e, 0x67, 0x32, 0x64, 0x5f, 0x32, 0x2f, 0x41,
  0x76, 0x67, 0x50, 0x6f, 0x6f, 0x6c, 0x00, 0x00, 0x04, 0x00, 0x00, 0x00,
  0x01, 0x00, 0x00, 0x00, 0x10, 0x00, 0x00, 0x00, 0x10, 0x00, 0x00, 0x00,
  0x08, 0x00, 0x00, 0x00, 0x78, 0xf3, 0xff, 0xff, 0x18, 0x00, 0x00, 0x00,
  0x28, 0x00, 0x00, 0x00, 0x44, 0x00, 0x00, 0x00, 0x13, 0x00, 0x00, 0x00,
  0x00, 0x00, 0x00, 0x09, 0xd4, 0x00, 0x00, 0x00, 0x04, 0x00, 0x00, 0x00,
  0xff, 0xff, 0xff, 0xff, 0x20, 0x00, 0x00, 0x00, 0x20, 0x00, 0x00, 0x00,
  0x08, 0x00, 0x00, 0x00, 0x64, 0xf3, 0xff, 0xff, 0x08, 0x00, 0x00, 0x00,
  0x10, 0x00, 0x00, 0x00, 0x01, 0x00, 0x00, 0x00, 0x80, 0xff, 0xff, 0xff,
  0xff, 0xff, 0xff, 0xff, 0x01, 0x00, 0x00, 0x00, 0x0c, 0x85, 0x7b, 0x3e,
  0x95, 0x00, 0x00, 0x00, 0x73, 0x65, 0x71, 0x75, 0x65, 0x6e, 0x74, 0x69,
  0x61, 0x6c, 0x2f, 0x63, 0x6f, 0x6e, 0x76, 0x32, 0x64, 0x5f, 0x32, 0x2f,
  0x52, 0x65, 0x6c, 0x75, 0x3b, 0x73, 0x65, 0x71, 0x75, 0x65, 0x6e, 0x74,
  0x69, 0x61, 0x6c, 0x2f, 0x63, 0x6f, 0x6e, 0x76, 0x32, 0x64, 0x5f, 0x32,
  0x2f, 0x42, 0x69, 0x61, 0x73, 0x41, 0x64, 0x64, 0x3b, 0x73, 0x65, 0x71,
  0x75, 0x65, 0x6e, 0x74, 0x69, 0x61, 0x6c, 0x2f, 0x63, 0x6f, 0x6e, 0x76,
  0x32, 0x64, 0x5f, 0x33, 0x2f, 0x43, 0x6f, 0x6e, 0x76, 0x32, 0x44, 0x3b,
  0x73, 0x65, 0x71, 0x75, 0x65, 0x6e, 0x74, 0x69, 0x61, 0x6c, 0x2f, 0x63,
  0x6f, 0x6e, 0x76, 0x32, 0x64, 0x5f, 0x32, 0x2f, 0x43, 0x6f, 0x6e, 0x76,
  0x32, 0x44, 0x3b, 0x73, 0x65, 0x71, 0x75, 0x65, 0x6e, 0x74, 0x69, 0x61,
  0x6c, 0x2f, 0x63, 0x6f, 0x6e, 0x76, 0x32, 0x64, 0x5f, 0x32, 0x2f, 0x42,
  0x69, 0x61, 0x73, 0x41, 0x64, 0x64, 0x2f, 0x52, 0x65, 0x61, 0x64, 0x56,
  0x61, 0x72, 0x69, 0x61, 0x62, 0x6c, 0x65, 0x4f, 0x70, 0x00, 0x00, 0x00,
  0x04, 0x00, 0x00, 0x00, 0x01, 0x00, 0x00, 0x00, 0x20, 0x00, 0x00, 0x00,
  0x20, 0x00, 0x00, 0x00, 0x08, 0x00, 0x00, 0x00, 0x78, 0xf4, 0xff, 0xff,
  0x18, 0x00, 0x00, 0x00, 0x28, 0x00, 0x00, 0x00, 0x44, 0x00, 0x00, 0x00,
  0x12, 0x00, 0x00, 0x00, 0x00, 0x00, 0x00, 0x09, 0x64, 0x00, 0x00, 0x00,
  0x04, 0x00, 0x00, 0x00, 0xff, 0xff, 0xff, 0xff, 0x20, 0x00, 0x00, 0x00,
  0x20, 0x00, 0x00, 0x00, 0x04, 0x00, 0x00, 0x00, 0x64, 0xf4, 0xff, 0xff,
  0x08, 0x00, 0x00, 0x00, 0x10, 0x00, 0x00, 0x00, 0x01, 0x00, 0x00, 0x00,
  0x80, 0xff, 0xff, 0xff, 0xff, 0xff, 0xff, 0xff, 0x01, 0x00, 0x00, 0x00,
  0xa0, 0x9d, 0xdf, 0x3e, 0x26, 0x00, 0x00, 0x00, 0x73, 0x65, 0x71, 0x75,
  0x65, 0x6e, 0x74, 0x69, 0x61, 0x6c, 0x2f, 0x61, 0x76, 0x65, 0x72, 0x61,
  0x67, 0x65, 0x5f, 0x70, 0x6f, 0x6f, 0x6c, 0x69, 0x6e, 0x67, 0x32, 0x64,
  0x5f, 0x31, 0x2f, 0x41, 0x76, 0x67, 0x50, 0x6f, 0x6f, 0x6c, 0x00, 0x00,
  0x04, 0x00, 0x00, 0x00, 0x01, 0x00, 0x00, 0x00, 0x20, 0x00, 0x00, 0x00,
  0x20, 0x00, 0x00, 0x00, 0x04, 0x00, 0x00, 0x00, 0x08, 0xf5, 0xff, 0xff,
  0x18, 0x00, 0x00, 0x00, 0x28, 0x00, 0x00, 0x00, 0x48, 0x00, 0x00, 0x00,
  0x11, 0x00, 0x00, 0x00, 0x00, 0x00, 0x00, 0x09, 0xbc, 0x00, 0x00, 0x00,
  0x04, 0x00, 0x00, 0x00, 0xff, 0xff, 0xff, 0xff, 0x40, 0x00, 0x00, 0x00,
  0x40, 0x00, 0x00, 0x00, 0x04, 0x00, 0x00, 0x00, 0xf4, 0xf4, 0xff, 0xff,
  0x08, 0x00, 0x00, 0x00, 0x14, 0x00, 0x00, 0x00, 0x01, 0x00, 0x00, 0x00,
  0x80, 0xff, 0xff, 0xff, 0xff, 0xff, 0xff, 0xff, 0x00, 0x00, 0x00, 0x00,
  0x01, 0x00, 0x00, 0x00, 0xa0, 0x9d, 0xdf, 0x3e, 0x7a, 0x00, 0x00, 0x00,
  0x73, 0x65, 0x71, 0x75, 0x65, 0x6e, 0x74, 0x69, 0x61, 0x6c, 0x2f, 0x63,
  0x6f, 0x6e, 0x76, 0x32, 0x64, 0x5f, 0x31, 0x2f, 0x52, 0x65, 0x6c, 0x75,
  0x3b, 0x73, 0x65, 0x71, 0x75, 0x65, 0x6e, 0x74, 0x69, 0x61, 0x6c, 0x2f,
  0x63, 0x6f, 0x6e, 0x76, 0x32, 0x64, 0x5f, 0x31, 0x2f, 0x42, 0x69, 0x61,
  0x73, 0x41, 0x64, 0x64, 0x3b, 0x73, 0x65, 0x71, 0x75, 0x65, 0x6e, 0x74,
  0x69, 0x61, 0x6c, 0x2f, 0x63, 0x6f, 0x6e, 0x76, 0x32, 0x64, 0x5f, 0x31,
  0x2f, 0x43, 0x6f, 0x6e, 0x76, 0x32, 0x44, 0x3b, 0x73, 0x65, 0x71, 0x75,
  0x65, 0x6e, 0x74, 0x69, 0x61, 0x6c, 0x2f, 0x63, 0x6f, 0x6e, 0x76, 0x32,
  0x64, 0x5f, 0x31, 0x2f, 0x42, 0x69, 0x61, 0x73, 0x41, 0x64, 0x64, 0x2f,
  0x52, 0x65, 0x61, 0x64, 0x56, 0x61, 0x72, 0x69, 0x61, 0x62, 0x6c, 0x65,
  0x4f, 0x70, 0x00, 0x00, 0x04, 0x00, 0x00, 0x00, 0x01, 0x00, 0x00, 0x00,
  0x40, 0x00, 0x00, 0x00, 0x40, 0x00, 0x00, 0x00, 0x04, 0x00, 0x00, 0x00,
  0xf0, 0xf5, 0xff, 0xff, 0x18, 0x00, 0x00, 0x00, 0x28, 0x00, 0x00, 0x00,
  0x44, 0x00, 0x00, 0x00, 0x10, 0x00, 0x00, 0x00, 0x00, 0x00, 0x00, 0x09,
  0x64, 0x00, 0x00, 0x00, 0x04, 0x00, 0x00, 0x00, 0xff, 0xff, 0xff, 0xff,
  0x40, 0x00, 0x00, 0x00, 0x40, 0x00, 0x00, 0x00, 0x02, 0x00, 0x00, 0x00,
  0xdc, 0xf5, 0xff, 0xff, 0x08, 0x00, 0x00, 0x00, 0x10, 0x00, 0x00, 0x00,
  0x01, 0x00, 0x00, 0x00, 0x80, 0xff, 0xff, 0xff, 0xff, 0xff, 0xff, 0xff,
  0x01, 0x00, 0x00, 0x00, 0x68, 0xc9, 0x70, 0x3f, 0x24, 0x00, 0x00, 0x00,
  0x73, 0x65, 0x71, 0x75, 0x65, 0x6e, 0x74, 0x69, 0x61, 0x6c, 0x2f, 0x61,
  0x76, 0x65, 0x72, 0x61, 0x67, 0x65, 0x5f, 0x70, 0x6f, 0x6f, 0x6c, 0x69,
  0x6e, 0x67, 0x32, 0x64, 0x2f, 0x41, 0x76, 0x67, 0x50, 0x6f, 0x6f, 0x6c,
  0x00, 0x00, 0x00, 0x00, 0x04, 0x00, 0x00, 0x00, 0x01, 0x00, 0x00, 0x00,
  0x40, 0x00, 0x00, 0x00, 0x40, 0x00, 0x00, 0x00, 0x02, 0x00, 0x00, 0x00,
  0x80, 0xf6, 0xff, 0xff, 0x18, 0x00, 0x00, 0x00, 0x28, 0x00, 0x00, 0x00,
  0x48, 0x00, 0x00, 0x00, 0x0f, 0x00, 0x00, 0x00, 0x00, 0x00, 0x00, 0x09,
  0xb4, 0x00, 0x00, 0x00, 0x04, 0x00, 0x00, 0x00, 0xff, 0xff, 0xff, 0xff,
  0x80, 0x00, 0x00, 0x00, 0x80, 0x00, 0x00, 0x00, 0x02, 0x00, 0x00, 0x00,
  0x6c, 0xf6, 0xff, 0xff, 0x08, 0x00, 0x00, 0x00, 0x14, 0x00, 0x00, 0x00,
  0x01, 0x00, 0x00, 0x00, 0x80, 0xff, 0xff, 0xff, 0xff, 0xff, 0xff, 0xff,
  0x00, 0x00, 0x00, 0x00, 0x01, 0x00, 0x00, 0x00, 0x68, 0xc9, 0x70, 0x3f,
  0x72, 0x00, 0x00, 0x00, 0x73, 0x65, 0x71, 0x75, 0x65, 0x6e, 0x74, 0x69,
  0x61, 0x6c, 0x2f, 0x63, 0x6f, 0x6e, 0x76, 0x32, 0x64, 0x2f, 0x52, 0x65,
  0x6c, 0x75, 0x3b, 0x73, 0x65, 0x71, 0x75, 0x65, 0x6e, 0x74, 0x69, 0x61,
  0x6c, 0x2f, 0x63, 0x6f, 0x6e, 0x76, 0x32, 0x64, 0x2f, 0x42, 0x69, 0x61,
  0x73, 0x41, 0x64, 0x64, 0x3b, 0x73, 0x65, 0x71, 0x75, 0x65, 0x6e, 0x74,
  0x69, 0x61, 0x6c, 0x2f, 0x63, 0x6f, 0x6e, 0x76, 0x32, 0x64, 0x2f, 0x43,
  0x6f, 0x6e, 0x76, 0x32, 0x44, 0x3b, 0x73, 0x65, 0x71, 0x75, 0x65, 0x6e,
  0x74, 0x69, 0x61, 0x6c, 0x2f, 0x63, 0x6f, 0x6e, 0x76, 0x32, 0x64, 0x2f,
  0x42, 0x69, 0x61, 0x73, 0x41, 0x64, 0x64, 0x2f, 0x52, 0x65, 0x61, 0x64,
  0x56, 0x61, 0x72, 0x69, 0x61, 0x62, 0x6c, 0x65, 0x4f, 0x70, 0x00, 0x00,
  0x04, 0x00, 0x00, 0x00, 0x01, 0x00, 0x00, 0x00, 0x80, 0x00, 0x00, 0x00,
  0x80, 0x00, 0x00, 0x00, 0x02, 0x00, 0x00, 0x00, 0xb6, 0xf7, 0xff, 0xff,
  0x14, 0x00, 0x00, 0x00, 0x34, 0x00, 0x00, 0x00, 0x0e, 0x00, 0x00, 0x00,
  0x00, 0x00, 0x00, 0x02, 0x54, 0x00, 0x00, 0x00, 0x34, 0xf7, 0xff, 0xff,
  0x08, 0x00, 0x00, 0x00, 0x14, 0x00, 0x00, 0x00, 0x01, 0x00, 0x00, 0x00,
  0x00, 0x00, 0x00, 0x00, 0x00, 0x00, 0x00, 0x00, 0x00, 0x00, 0x00, 0x00,
  0x01, 0x00, 0x00, 0x00, 0x17, 0x22, 0x40, 0x39, 0x27, 0x00, 0x00, 0x00,
  0x73, 0x65, 0x71, 0x75, 0x65, 0x6e, 0x74, 0x69, 0x61, 0x6c, 0x2f, 0x64,
  0x65, 0x6e, 0x73, 0x65, 0x2f, 0x42, 0x69, 0x61, 0x73, 0x41, 0x64, 0x64,
  0x2f, 0x52, 0x65, 0x61, 0x64, 0x56, 0x61, 0x72, 0x69, 0x61, 0x62, 0x6c,
  0x65, 0x4f, 0x70, 0x00, 0x01, 0x00, 0x00, 0x00, 0x01, 0x00, 0x00, 0x00,
  0x26, 0xf8, 0xff, 0xff, 0x14, 0x00, 0x00, 0x00, 0x30, 0x00, 0x00, 0x00,
  0x0d, 0x00, 0x00, 0x00, 0x00, 0x00, 0x00, 0x09, 0x40, 0x00, 0x00, 0x00,
  0xa4, 0xf7, 0xff, 0xff, 0x08, 0x00, 0x00, 0x00, 0x10, 0x00, 0x00, 0x00,
  0x01, 0x00, 0x00, 0x00, 0x00, 0x00, 0x00, 0x00, 0x00, 0x00, 0x00, 0x00,
  0x01, 0x00, 0x00, 0x00, 0x65, 0x71, 0x49, 0x3b, 0x17, 0x00, 0x00, 0x00,
  0x73, 0x65, 0x71, 0x75, 0x65, 0x6e, 0x74, 0x69, 0x61, 0x6c, 0x2f, 0x64,
  0x65, 0x6e, 0x73, 0x65, 0x2f, 0x4d, 0x61, 0x74, 0x4d, 0x75, 0x6c, 0x00,
  0x02, 0x00, 0x00, 0x00, 0x01, 0x00, 0x00, 0x00, 0x00, 0x04, 0x00, 0x00,
  0x86, 0xf8, 0xff, 0xff, 0x14, 0x00, 0x00, 0x00, 0xe8, 0x00, 0x00, 0x00,
  0x0c, 0x00, 0x00, 0x00, 0x00, 0x00, 0x00, 0x02, 0x0c, 0x01, 0x00, 0x00,
  0x04, 0xf8, 0xff, 0xff, 0x08, 0x00, 0x00, 0x00, 0x8c, 0x00, 0x00, 0x00,
  0x10, 0x00, 0x00, 0x00, 0x00, 0x00, 0x00, 0x00, 0x00, 0x00, 0x00, 0x00,
  0x00, 0x00, 0x00, 0x00, 0x00, 0x00, 0x00, 0x00, 0x00, 0x00, 0x00, 0x00,
  0x00, 0x00, 0x00, 0x00, 0x00, 0x00, 0x00, 0x00, 0x00, 0x00, 0x00, 0x00,
  0x00, 0x00, 0x00, 0x00, 0x00, 0x00, 0x00, 0x00, 0x00, 0x00, 0x00, 0x00,
  0x00, 0x00, 0x00, 0x00, 0x00, 0x00, 0x00, 0x00, 0x00, 0x00, 0x00, 0x00,
  0x00, 0x00, 0x00, 0x00, 0x00, 0x00, 0x00, 0x00, 0x00, 0x00, 0x00, 0x00,
  0x00, 0x00, 0x00, 0x00, 0x00, 0x00, 0x00, 0x00, 0x00, 0x00, 0x00, 0x00,
  0x00, 0x00, 0x00, 0x00, 0x00, 0x00, 0x00, 0x00, 0x00, 0x00, 0x00, 0x00,
  0x00, 0x00, 0x00, 0x00, 0x00, 0x00, 0x00, 0x00, 0x00, 0x00, 0x00, 0x00,
  0x00, 0x00, 0x00, 0x00, 0x00, 0x00, 0x00, 0x00, 0x00, 0x00, 0x00, 0x00,
  0x00, 0x00, 0x00, 0x00, 0x00, 0x00, 0x00, 0x00, 0x00, 0x00, 0x00, 0x00,
  0x00, 0x00, 0x00, 0x00, 0x10, 0x00, 0x00, 0x00, 0x86, 0xf1, 0xd8, 0x39,
  0x39, 0x29, 0xae, 0x39, 0xf2, 0x25, 0x9f, 0x39, 0x7a, 0x43, 0xe0, 0x39,
  0xbf, 0x79, 0xa8, 0x39, 0x68, 0xd4, 0xfe, 0x39, 0x49, 0xff, 0xcc, 0x39,
  0xe5, 0x20, 0xbc, 0x39, 0x68, 0xe3, 0xea, 0x39, 0xf6, 0x61, 0xb8, 0x39,
  0xac, 0x74, 0xd7, 0x39, 0x6f, 0x5f, 0x8b, 0x39, 0x7a, 0x17, 0x9a, 0x39,
  0x51, 0xbe, 0xbc, 0x39, 0x65, 0xdc, 0xb9, 0x39, 0xbd, 0x64, 0xb7, 0x39,
  0x2a, 0x00, 0x00, 0x00, 0x73, 0x65, 0x71, 0x75, 0x65, 0x6e, 0x74, 0x69,
  0x61, 0x6c, 0x2f, 0x63, 0x6f, 0x6e, 0x76, 0x32, 0x64, 0x5f, 0x34, 0x2f,
  0x42, 0x69, 0x61, 0x73, 0x41, 0x64, 0x64, 0x2f, 0x52, 0x65, 0x61, 0x64,
  0x56, 0x61, 0x72, 0x69, 0x61, 0x62, 0x6c, 0x65, 0x4f, 0x70, 0x00, 0x00,
  0x01, 0x00, 0x00, 0x00, 0x10, 0x00, 0x00, 0x00, 0xae, 0xf9, 0xff, 0xff,
  0x14, 0x00, 0x00, 0x00, 0xe4, 0x00, 0x00, 0x00, 0x0b, 0x00, 0x00, 0x00,
  0x00, 0x00, 0x00, 0x09, 0xf8, 0x00, 0x00, 0x00, 0x2c, 0xf9, 0xff, 0xff,
  0x08, 0x00, 0x00, 0x00, 0x88, 0x00, 0x00, 0x00, 0x10, 0x00, 0x00, 0x00,
  0x00, 0x00, 0x00, 0x00, 0x00, 0x00, 0x00, 0x00, 0x00, 0x00, 0x00, 0x00,
  0x00, 0x00, 0x00, 0x00, 0x00, 0x00, 0x00, 0x00, 0x00, 0x00, 0x00, 0x00,
  0x00, 0x00, 0x00, 0x00, 0x00, 0x00, 0x00, 0x00, 0x00, 0x00, 0x00, 0x00,
  0x00, 0x00, 0x00, 0x00, 0x00, 0x00, 0x00, 0x00, 0x00, 0x00, 0x00, 0x00,
  0x00, 0x00, 0x00, 0x00, 0x00, 0x00, 0x00, 0x00, 0x00, 0x00, 0x00, 0x00,
  0x00, 0x00, 0x00, 0x00, 0x00, 0x00, 0x00, 0x00, 0x00, 0x00, 0x00, 0x00,
  0x00, 0x00, 0x00, 0x00, 0x00, 0x00, 0x00, 0x00, 0x00, 0x00, 0x00, 0x00,
  0x00, 0x00, 0x00, 0x00, 0x00, 0x00, 0x00, 0x00, 0x00, 0x00, 0x00, 0x00,
  0x00, 0x00, 0x00, 0x00, 0x00, 0x00, 0x00, 0x00, 0x00, 0x00, 0x00, 0x00,
  0x00, 0x00, 0x00, 0x00, 0x00, 0x00, 0x00, 0x00, 0x00, 0x00, 0x00, 0x00,
  0x00, 0x00, 0x00, 0x00, 0x00, 0x00, 0x00, 0x00, 0x10, 0x00, 0x00, 0x00,
  0x4e, 0xaf, 0x36, 0x3b, 0x8a, 0xa8, 0x12, 0x3b, 0x2c, 0x04, 0x06, 0x3b,
  0x55, 0xd9, 0x3c, 0x3b, 0xe7, 0xde, 0x0d, 0x3b, 0x96, 0x96, 0x56, 0x3b,
  0x02, 0xa0, 0x2c, 0x3b, 0x8f, 0x6b, 0x1e, 0x3b, 0xbe, 0xcb, 0x45, 0x3b,
  0x0e, 0x44, 0x1b, 0x3b, 0x98, 0x6e, 0x35, 0x3b, 0x38, 0xba, 0xea, 0x3a,
  0x1f, 0xc2, 0x01, 0x3b, 0x1f, 0xf0, 0x1e, 0x3b, 0xba, 0x82, 0x1c, 0x3b,
  0xd2, 0x6e, 0x1a, 0x3b, 0x1a, 0x00, 0x00, 0x00, 0x73, 0x65, 0x71, 0x75,
  0x65, 0x6e, 0x74, 0x69, 0x61, 0x6c, 0x2f, 0x63, 0x6f, 0x6e, 0x76, 0x32,
  0x64, 0x5f, 0x34, 0x2f, 0x43, 0x6f, 0x6e, 0x76, 0x32, 0x44, 0x00, 0x00,
  0x04, 0x00, 0x00, 0x00, 0x10, 0x00, 0x00, 0x00, 0x03, 0x00, 0x00, 0x00,
  0x03, 0x00, 0x00, 0x00, 0x08, 0x00, 0x00, 0x00, 0xce, 0xfa, 0xff, 0xff,
  0x14, 0x00, 0x00, 0x00, 0x88, 0x00, 0x00, 0x00, 0x0a, 0x00, 0x00, 0x00,
  0x00, 0x00, 0x00, 0x02, 0xac, 0x00, 0x00, 0x00, 0x4c, 0xfa, 0xff, 0xff,
  0x08, 0x00, 0x00, 0x00, 0x4c, 0x00, 0x00, 0x00, 0x08, 0x00, 0x00, 0x00,
  0x00, 0x00, 0x00, 0x00, 0x00, 0x00, 0x00, 0x00, 0x00, 0x00, 0x00, 0x00,
  0x00, 0x00, 0x00, 0x00, 0x00, 0x00, 0x00, 0x00, 0x00, 0x00, 0x00, 0x00,
  0x00, 0x00, 0x00, 0x00, 0x00, 0x00, 0x00, 0x00, 0x00, 0x00, 0x00, 0x00,
  0x00, 0x00, 0x00, 0x00, 0x00, 0x00, 0x00, 0x00, 0x00, 0x00, 0x00, 0x00,
  0x00, 0x00, 0x00, 0x00, 0x00, 0x00, 0x00, 0x00, 0x00, 0x00, 0x00, 0x00,
  0x00, 0x00, 0x00, 0x00, 0x00, 0x00, 0x00, 0x00, 0x08, 0x00, 0x00, 0x00,
  0x15, 0x9b, 0x1d, 0x3a, 0x6e, 0xf4, 0x10, 0x3a, 0x45, 0x02, 0x31, 0x3a,
  0xf9, 0x55, 0x31, 0x3a, 0x2a, 0x92, 0x3c, 0x3a, 0x91, 0xb1, 0xa2, 0x39,
  0x18, 0xb9, 0x1e, 0x3a, 0xf5, 0x41, 0x48, 0x3a, 0x2a, 0x00, 0x00, 0x00,
  0x73, 0x65, 0x71, 0x75, 0x65, 0x6e, 0x74, 0x69, 0x61, 0x6c, 0x2f, 0x63,
  0x6f, 0x6e, 0x76, 0x32, 0x64, 0x5f, 0x33, 0x2f, 0x42, 0x69, 0x61, 0x73,
  0x41, 0x64, 0x64, 0x2f, 0x52, 0x65, 0x61, 0x64, 0x56, 0x61, 0x72, 0x69,
  0x61, 0x62, 0x6c, 0x65, 0x4f, 0x70, 0x00, 0x00, 0x01, 0x00, 0x00, 0x00,
  0x08, 0x00, 0x00, 0x00, 0x96, 0xfb, 0xff, 0xff, 0x14, 0x00, 0x00, 0x00,
  0x84, 0x00, 0x00, 0x00, 0x09, 0x00, 0x00, 0x00, 0x00, 0x00, 0x00, 0x09,
  0x98, 0x00, 0x00, 0x00, 0x14, 0xfb, 0xff, 0xff, 0x08, 0x00, 0x00, 0x00,
  0x48, 0x00, 0x00, 0x00, 0x08, 0x00, 0x00, 0x00, 0x00, 0x00, 0x00, 0x00,
  0x00, 0x00, 0x00, 0x00, 0x00, 0x00, 0x00, 0x00, 0x00, 0x00, 0x00, 0x00,
  0x00, 0x00, 0x00, 0x00, 0x00, 0x00, 0x00, 0x00, 0x00, 0x00, 0x00, 0x00,
  0x00, 0x00, 0x00, 0x00, 0x00, 0x00, 0x00, 0x00, 0x00, 0x00, 0x00, 0x00,
  0x00, 0x00, 0x00, 0x00, 0x00, 0x00, 0x00, 0x00, 0x00, 0x00, 0x00, 0x00,
  0x00, 0x00, 0x00, 0x00, 0x00, 0x00, 0x00, 0x00, 0x00, 0x00, 0x00, 0x00,
  0x08, 0x00, 0x00, 0x00, 0xc7, 0x69, 0x20, 0x3b, 0x70, 0x89, 0x13, 0x3b,
  0x72, 0x29, 0x34, 0x3b, 0xa4, 0x7e, 0x34, 0x3b, 0x11, 0xee, 0x3f, 0x3b,
  0x77, 0x97, 0xa5, 0x3a, 0xe3, 0x8c, 0x21, 0x3b, 0x27, 0xd3, 0x4b, 0x3b,
  0x1a, 0x00, 0x00, 0x00, 0x73, 0x65, 0x71, 0x75, 0x65, 0x6e, 0x74, 0x69,
  0x61, 0x6c, 0x2f, 0x63, 0x6f, 0x6e, 0x76, 0x32, 0x64, 0x5f, 0x33, 0x2f,
  0x43, 0x6f, 0x6e, 0x76, 0x32, 0x44, 0x00, 0x00, 0x04, 0x00, 0x00, 0x00,
  0x08, 0x00, 0x00, 0x00, 0x05, 0x00, 0x00, 0x00, 0x05, 0x00, 0x00, 0x00,
  0x08, 0x00, 0x00, 0x00, 0x56, 0xfc, 0xff, 0xff, 0x14, 0x00, 0x00, 0x00,
  0x88, 0x00, 0x00, 0x00, 0x08, 0x00, 0x00, 0x00, 0x00, 0x00, 0x00, 0x02,
  0xac, 0x00, 0x00, 0x00, 0xd4, 0xfb, 0xff, 0xff, 0x08, 0x00, 0x00, 0x00,
  0x4c, 0x00, 0x00, 0x00, 0x08, 0x00, 0x00, 0x00, 0x00, 0x00, 0x00, 0x00,
  0x00, 0x00, 0x00, 0x00, 0x00, 0x00, 0x00, 0x00, 0x00, 0x00, 0x00, 0x00,
  0x00, 0x00, 0x00, 0x00, 0x00, 0x00, 0x00, 0x00, 0x00, 0x00, 0x00, 0x00,
  0x00, 0x00, 0x00, 0x00, 0x00, 0x00, 0x00, 0x00, 0x00, 0x00, 0x00, 0x00,
  0x00, 0x00, 0x00, 0x00, 0x00, 0x00, 0x00, 0x00, 0x00, 0x00, 0x00, 0x00,
  0x00, 0x00, 0x00, 0x00, 0x00, 0x00, 0x00, 0x00, 0x00, 0x00, 0x00, 0x00,
  0x00, 0x00, 0x00, 0x00, 0x08, 0x00, 0x00, 0x00, 0xc0, 0x4c, 0xf2, 0x3a,
  0x68, 0x95, 0x93, 0x3a, 0xf8, 0xc1, 0xc1, 0x3a, 0x60, 0x45, 0x8c, 0x3a,
  0x49, 0xf8, 0x95, 0x3a, 0xc1, 0xe0, 0xab, 0x3a, 0x6c, 0xa9, 0xd4, 0x3a,
  0x91, 0x6c, 0x84, 0x3a, 0x2a, 0x00, 0x00, 0x00, 0x73, 0x65, 0x71, 0x75,
  0x65, 0x6e, 0x74, 0x69, 0x61, 0x6c, 0x2f, 0x63, 0x6f, 0x6e, 0x76, 0x32,
  0x64, 0x5f, 0x32, 0x2f, 0x42, 0x69, 0x61, 0x73, 0x41, 0x64, 0x64, 0x2f,
  0x52, 0x65, 0x61, 0x64, 0x56, 0x61, 0x72, 0x69, 0x61, 0x62, 0x6c, 0x65,
  0x4f, 0x70, 0x00, 0x00, 0x01, 0x00, 0x00, 0x00, 0x08, 0x00, 0x00, 0x00,
  0x1e, 0xfd, 0xff, 0xff, 0x14, 0x00, 0x00, 0x00, 0x84, 0x00, 0x00, 0x00,
  0x07, 0x00, 0x00, 0x00, 0x00, 0x00, 0x00, 0x09, 0x98, 0x00, 0x00, 0x00,
  0x9c, 0xfc, 0xff, 0xff, 0x08, 0x00, 0x00, 0x00, 0x48, 0x00, 0x00, 0x00,
  0x08, 0x00, 0x00, 0x00, 0x00, 0x00, 0x00, 0x00, 0x00, 0x00, 0x00, 0x00,
  0x00, 0x00, 0x00, 0x00, 0x00, 0x00, 0x00, 0x00, 0x00, 0x00, 0x00, 0x00,
  0x00, 0x00, 0x00, 0x00, 0x00, 0x00, 0x00, 0x00, 0x00, 0x00, 0x00, 0x00,
  0x00, 0x00, 0x00, 0x00, 0x00, 0x00, 0x00, 0x00, 0x00, 0x00, 0x00, 0x00,
  0x00, 0x00, 0x00, 0x00, 0x00, 0x00, 0x00, 0x00, 0x00, 0x00, 0x00, 0x00,
  0x00, 0x00, 0x00, 0x00, 0x00, 0x00, 0x00, 0x00, 0x08, 0x00, 0x00, 0x00,
  0xe9, 0xb1, 0x8a, 0x3b, 0xf4, 0xf4, 0x28, 0x3b, 0x61, 0xd1, 0x5d, 0x3b,
  0xcf, 0x95, 0x20, 0x3b, 0x4c, 0xb0, 0x2b, 0x3b, 0xfe, 0xc4, 0x44, 0x3b,
  0xb0, 0x75, 0x73, 0x3b, 0x16, 0x9a, 0x17, 0x3b, 0x1a, 0x00, 0x00, 0x00,
  0x73, 0x65, 0x71, 0x75, 0x65, 0x6e, 0x74, 0x69, 0x61, 0x6c, 0x2f, 0x63,
  0x6f, 0x6e, 0x76, 0x32, 0x64, 0x5f, 0x32, 0x2f, 0x43, 0x6f, 0x6e, 0x76,
  0x32, 0x44, 0x00, 0x00, 0x04, 0x00, 0x00, 0x00, 0x08, 0x00, 0x00, 0x00,
  0x03, 0x00, 0x00, 0x00, 0x03, 0x00, 0x00, 0x00, 0x04, 0x00, 0x00, 0x00,
  0xde, 0xfd, 0xff, 0xff, 0x14, 0x00, 0x00, 0x00, 0x58, 0x00, 0x00, 0x00,
  0x06, 0x00, 0x00, 0x00, 0x00, 0x00, 0x00, 0x02, 0x7c, 0x00, 0x00, 0x00,
  0x5c, 0xfd, 0xff, 0xff, 0x08, 0x00, 0x00, 0x00, 0x2c, 0x00, 0x00, 0x00,
  0x04, 0x00, 0x00, 0x00, 0x00, 0x00, 0x00, 0x00, 0x00, 0x00, 0x00, 0x00,
  0x00, 0x00, 0x00, 0x00, 0x00, 0x00, 0x00, 0x00, 0x00, 0x00, 0x00, 0x00,
  0x00, 0x00, 0x00, 0x00, 0x00, 0x00, 0x00, 0x00, 0x00, 0x00, 0x00, 0x00,
  0x00, 0x00, 0x00, 0x00, 0x04, 0x00, 0x00, 0x00, 0x5f, 0x49, 0x4b, 0x3b,
  0x36, 0xa2, 0x22, 0x3b, 0x96, 0x13, 0x4e, 0x3b, 0x39, 0x7e, 0x5f, 0x3b,
  0x2a, 0x00, 0x00, 0x00, 0x73, 0x65, 0x71, 0x75, 0x65, 0x6e, 0x74, 0x69,
  0x61, 0x6c, 0x2f, 0x63, 0x6f, 0x6e, 0x76, 0x32, 0x64, 0x5f, 0x31, 0x2f,
  0x42, 0x69, 0x61, 0x73, 0x41, 0x64, 0x64, 0x2f, 0x52, 0x65, 0x61, 0x64,
  0x56, 0x61, 0x72, 0x69, 0x61, 0x62, 0x6c, 0x65, 0x4f, 0x70, 0x00, 0x00,
  0x01, 0x00, 0x00, 0x00, 0x04, 0x00, 0x00, 0x00, 0x76, 0xfe, 0xff, 0xff,
  0x14, 0x00, 0x00, 0x00, 0x54, 0x00, 0x00, 0x00, 0x05, 0x00, 0x00, 0x00,
  0x00, 0x00, 0x00, 0x09, 0x68, 0x00, 0x00, 0x00, 0xf4, 0xfd, 0xff, 0xff,
  0x08, 0x00, 0x00, 0x00, 0x28, 0x00, 0x00, 0x00, 0x04, 0x00, 0x00, 0x00,
  0x00, 0x00, 0x00, 0x00, 0x00, 0x00, 0x00, 0x00, 0x00, 0x00, 0x00, 0x00,
  0x00, 0x00, 0x00, 0x00, 0x00, 0x00, 0x00, 0x00, 0x00, 0x00, 0x00, 0x00,
  0x00, 0x00, 0x00, 0x00, 0x00, 0x00, 0x00, 0x00, 0x04, 0x00, 0x00, 0x00,
  0x6c, 0x21, 0x58, 0x3b, 0xb9, 0xe8, 0x2c, 0x3b, 0xc3, 0x18, 0x5b, 0x3b,
  0x1a, 0x9d, 0x6d, 0x3b, 0x1a, 0x00, 0x00, 0x00, 0x73, 0x65, 0x71, 0x75,
  0x65, 0x6e, 0x74, 0x69, 0x61, 0x6c, 0x2f, 0x63, 0x6f, 0x6e, 0x76, 0x32,
  0x64, 0x5f, 0x31, 0x2f, 0x43, 0x6f, 0x6e, 0x76, 0x32, 0x44, 0x00, 0x00,
  0x04, 0x00, 0x00, 0x00, 0x04, 0x00, 0x00, 0x00, 0x03, 0x00, 0x00, 0x00,
  0x03, 0x00, 0x00, 0x00, 0x02, 0x00, 0x00, 0x00, 0x06, 0xff, 0xff, 0xff,
  0x14, 0x00, 0x00, 0x00, 0x40, 0x00, 0x00, 0x00, 0x04, 0x00, 0x00, 0x00,
  0x00, 0x00, 0x00, 0x02, 0x64, 0x00, 0x00, 0x00, 0x84, 0xfe, 0xff, 0xff,
  0x08, 0x00, 0x00, 0x00, 0x1c, 0x00, 0x00, 0x00, 0x02, 0x00, 0x00, 0x00,
  0x00, 0x00, 0x00, 0x00, 0x00, 0x00, 0x00, 0x00, 0x00, 0x00, 0x00, 0x00,
  0x00, 0x00, 0x00, 0x00, 0x00, 0x00, 0x00, 0x00, 0x02, 0x00, 0x00, 0x00,
  0xc4, 0x3c, 0x57, 0x3b, 0xd6, 0x78, 0x84, 0x3b, 0x28, 0x00, 0x00, 0x00,
  0x73, 0x65, 0x71, 0x75, 0x65, 0x6e, 0x74, 0x69, 0x61, 0x6c, 0x2f, 0x63,
  0x6f, 0x6e, 0x76, 0x32, 0x64, 0x2f, 0x42, 0x69, 0x61, 0x73, 0x41, 0x64,
  0x64, 0x2f, 0x52, 0x65, 0x61, 0x64, 0x56, 0x61, 0x72, 0x69, 0x61, 0x62,
  0x6c, 0x65, 0x4f, 0x70, 0x00, 0x00, 0x00, 0x00, 0x01, 0x00, 0x00, 0x00,
  0x02, 0x00, 0x00, 0x00, 0x86, 0xff, 0xff, 0xff, 0x14, 0x00, 0x00, 0x00,
  0x3c, 0x00, 0x00, 0x00, 0x03, 0x00, 0x00, 0x00, 0x00, 0x00, 0x00, 0x09,
  0x50, 0x00, 0x00, 0x00, 0x04, 0xff, 0xff, 0xff, 0x08, 0x00, 0x00, 0x00,
  0x18, 0x00, 0x00, 0x00, 0x02, 0x00, 0x00, 0x00, 0x00, 0x00, 0x00, 0x00,
  0x00, 0x00, 0x00, 0x00, 0x00, 0x00, 0x00, 0x00, 0x00, 0x00, 0x00, 0x00,
  0x02, 0x00, 0x00, 0x00, 0xc4, 0x3c, 0x57, 0x3b, 0xd6, 0x78, 0x84, 0x3b,
  0x18, 0x00, 0x00, 0x00, 0x73, 0x65, 0x71, 0x75, 0x65, 0x6e, 0x74, 0x69,
  0x61, 0x6c, 0x2f, 0x63, 0x6f, 0x6e, 0x76, 0x32, 0x64, 0x2f, 0x43, 0x6f,
  0x6e, 0x76, 0x32, 0x44, 0x00, 0x00, 0x00, 0x00, 0x04, 0x00, 0x00, 0x00,
  0x02, 0x00, 0x00, 0x00, 0x03, 0x00, 0x00, 0x00, 0x03, 0x00, 0x00, 0x00,
  0x01, 0x00, 0x00, 0x00, 0x00, 0x00, 0x0e, 0x00, 0x18, 0x00, 0x14, 0x00,
  0x13, 0x00, 0x0c, 0x00, 0x08, 0x00, 0x04, 0x00, 0x0e, 0x00, 0x00, 0x00,
  0x18, 0x00, 0x00, 0x00, 0x18, 0x00, 0x00, 0x00, 0x02, 0x00, 0x00, 0x00,
  0x00, 0x00, 0x00, 0x02, 0x2c, 0x00, 0x00, 0x00, 0x04, 0x00, 0x04, 0x00,
  0x04, 0x00, 0x00, 0x00, 0x18, 0x00, 0x00, 0x00, 0x73, 0x65, 0x71, 0x75,
  0x65, 0x6e, 0x74, 0x69, 0x61, 0x6c, 0x2f, 0x66, 0x6c, 0x61, 0x74, 0x74,
  0x65, 0x6e, 0x2f, 0x43, 0x6f, 0x6e, 0x73, 0x74, 0x00, 0x00, 0x00, 0x00,
  0x01, 0x00, 0x00, 0x00, 0x02, 0x00, 0x00, 0x00, 0x14, 0x00, 0x1c, 0x00,
  0x18, 0x00, 0x17, 0x00, 0x10, 0x00, 0x0c, 0x00, 0x08, 0x00, 0x00, 0x00,
  0x00, 0x00, 0x04, 0x00, 0x14, 0x00, 0x00, 0x00, 0x18, 0x00, 0x00, 0x00,
  0x34, 0x00, 0x00, 0x00, 0x54, 0x00, 0x00, 0x00, 0x01, 0x00, 0x00, 0x00,
  0x00, 0x00, 0x00, 0x09, 0x6c, 0x00, 0x00, 0x00, 0x04, 0x00, 0x00, 0x00,
  0xff, 0xff, 0xff, 0xff, 0x80, 0x00, 0x00, 0x00, 0x80, 0x00, 0x00, 0x00,
  0x01, 0x00, 0x00, 0x00, 0x0c, 0x00, 0x0c, 0x00, 0x00, 0x00, 0x00, 0x00,
  0x08, 0x00, 0x04, 0x00, 0x0c, 0x00, 0x00, 0x00, 0x08, 0x00, 0x00, 0x00,
  0x14, 0x00, 0x00, 0x00, 0x01, 0x00, 0x00, 0x00, 0x80, 0xff, 0xff, 0xff,
  0xff, 0xff, 0xff, 0xff, 0x00, 0x00, 0x00, 0x00, 0x01, 0x00, 0x00, 0x00,
  0x00, 0x00, 0x80, 0x3f, 0x1e, 0x00, 0x00, 0x00, 0x73, 0x65, 0x72, 0x76,
  0x69, 0x6e, 0x67, 0x5f, 0x64, 0x65, 0x66, 0x61, 0x75, 0x6c, 0x74, 0x5f,
  0x63, 0x6f, 0x6e, 0x76, 0x32, 0x64, 0x5f, 0x69, 0x6e, 0x70, 0x75, 0x74,
  0x3a, 0x30, 0x00, 0x00, 0x04, 0x00, 0x00, 0x00, 0x01, 0x00, 0x00, 0x00,
  0x80, 0x00, 0x00, 0x00, 0x80, 0x00, 0x00, 0x00, 0x01, 0x00, 0x00, 0x00,
  0x05, 0x00, 0x00, 0x00, 0x68, 0x00, 0x00, 0x00, 0x48, 0x00, 0x00, 0x00,
  0x38, 0x00, 0x00, 0x00, 0x18, 0x00, 0x00, 0x00, 0x04, 0x00, 0x00, 0x00,
  0xb8, 0xff, 0xff, 0xff, 0x0e, 0x00, 0x00, 0x00, 0x02, 0x00, 0x00, 0x00,
  0x00, 0x00, 0x00, 0x0e, 0xc8, 0xff, 0xff, 0xff, 0x09, 0x00, 0x00, 0x00,
  0x04, 0x00, 0x00, 0x00, 0x00, 0x00, 0x00, 0x09, 0x0c, 0x00, 0x0c, 0x00,
  0x0b, 0x00, 0x00, 0x00, 0x00, 0x00, 0x04, 0x00, 0x0c, 0x00, 0x00, 0x00,
  0x16, 0x00, 0x00, 0x00, 0x00, 0x00, 0x00, 0x16, 0xf0, 0xff, 0xff, 0xff,
  0x01, 0x00, 0x00, 0x00, 0x02, 0x00, 0x00, 0x00, 0x00, 0x00, 0x00, 0x01,
  0x0c, 0x00, 0x10, 0x00, 0x0f, 0x00, 0x00, 0x00, 0x08, 0x00, 0x04, 0x00,
  0x0c, 0x00, 0x00, 0x00, 0x03, 0x00, 0x00, 0x00, 0x03, 0x00, 0x00, 0x00,
  0x00, 0x00, 0x00, 0x03
};



const int g_model_len = 10696;
