
/* Copyright 2019 The TensorFlow Authors. All Rights Reserved.

Licensed under the Apache License, Version 2.0 (the "License");
you may not use this file except in compliance with the License.
You may obtain a copy of the License at

    http://www.apache.org/licenses/LICENSE-2.0

Unless required by applicable law or agreed to in writing, software
distributed under the License is distributed on an "AS IS" BASIS,
WITHOUT WARRANTIES OR CONDITIONS OF ANY KIND, either express or implied.
See the License for the specific language governing permissions and
limitations under the License.
==============================================================================*/

// This is a TensorFlow Lite model file that has been converted into a C data
// array using the tensorflow.lite.util.convert_bytes_to_c_source() function.
// This form is useful for compiling into a binary for devices that don't have a
// file system.

#include "model_data.h"

/*
Keep model aligned to 8 bytes to guarantee aligned 64-bit accesses.
just change the model between { }.
change model len far below too.
*/
alignas(8) const unsigned char g_model[] = {
  0x20, 0x00, 0x00, 0x00, 0x54, 0x46, 0x4c, 0x33, 0x00, 0x00, 0x00, 0x00,
  0x14, 0x00, 0x20, 0x00, 0x1c, 0x00, 0x18, 0x00, 0x14, 0x00, 0x10, 0x00,
  0x0c, 0x00, 0x00, 0x00, 0x08, 0x00, 0x04, 0x00, 0x14, 0x00, 0x00, 0x00,
  0x1c, 0x00, 0x00, 0x00, 0x88, 0x00, 0x00, 0x00, 0xe0, 0x00, 0x00, 0x00,
  0x90, 0x0f, 0x00, 0x00, 0xa0, 0x0f, 0x00, 0x00, 0x84, 0x25, 0x00, 0x00,
  0x03, 0x00, 0x00, 0x00, 0x01, 0x00, 0x00, 0x00, 0x04, 0x00, 0x00, 0x00,
  0xae, 0xef, 0xff, 0xff, 0x0c, 0x00, 0x00, 0x00, 0x1c, 0x00, 0x00, 0x00,
  0x38, 0x00, 0x00, 0x00, 0x0f, 0x00, 0x00, 0x00, 0x73, 0x65, 0x72, 0x76,
  0x69, 0x6e, 0x67, 0x5f, 0x64, 0x65, 0x66, 0x61, 0x75, 0x6c, 0x74, 0x00,
  0x01, 0x00, 0x00, 0x00, 0x04, 0x00, 0x00, 0x00, 0x94, 0xff, 0xff, 0xff,
  0x19, 0x00, 0x00, 0x00, 0x04, 0x00, 0x00, 0x00, 0x05, 0x00, 0x00, 0x00,
  0x64, 0x65, 0x6e, 0x73, 0x65, 0x00, 0x00, 0x00, 0x01, 0x00, 0x00, 0x00,
  0x04, 0x00, 0x00, 0x00, 0xf6, 0xf0, 0xff, 0xff, 0x04, 0x00, 0x00, 0x00,
  0x0c, 0x00, 0x00, 0x00, 0x63, 0x6f, 0x6e, 0x76, 0x32, 0x64, 0x5f, 0x69,
  0x6e, 0x70, 0x75, 0x74, 0x00, 0x00, 0x00, 0x00, 0x02, 0x00, 0x00, 0x00,
  0x34, 0x00, 0x00, 0x00, 0x04, 0x00, 0x00, 0x00, 0xdc, 0xff, 0xff, 0xff,
  0x1c, 0x00, 0x00, 0x00, 0x04, 0x00, 0x00, 0x00, 0x13, 0x00, 0x00, 0x00,
  0x43, 0x4f, 0x4e, 0x56, 0x45, 0x52, 0x53, 0x49, 0x4f, 0x4e, 0x5f, 0x4d,
  0x45, 0x54, 0x41, 0x44, 0x41, 0x54, 0x41, 0x00, 0x08, 0x00, 0x0c, 0x00,
  0x08, 0x00, 0x04, 0x00, 0x08, 0x00, 0x00, 0x00, 0x1b, 0x00, 0x00, 0x00,
  0x04, 0x00, 0x00, 0x00, 0x13, 0x00, 0x00, 0x00, 0x6d, 0x69, 0x6e, 0x5f,
  0x72, 0x75, 0x6e, 0x74, 0x69, 0x6d, 0x65, 0x5f, 0x76, 0x65, 0x72, 0x73,
  0x69, 0x6f, 0x6e, 0x00, 0x1d, 0x00, 0x00, 0x00, 0xac, 0x0e, 0x00, 0x00,
  0xa4, 0x0e, 0x00, 0x00, 0x8c, 0x0e, 0x00, 0x00, 0x70, 0x0e, 0x00, 0x00,
  0x60, 0x0a, 0x00, 0x00, 0x10, 0x0a, 0x00, 0x00, 0x80, 0x05, 0x00, 0x00,
  0x50, 0x05, 0x00, 0x00, 0x00, 0x03, 0x00, 0x00, 0xd0, 0x02, 0x00, 0x00,
  0xa0, 0x01, 0x00, 0x00, 0x80, 0x01, 0x00, 0x00, 0x28, 0x01, 0x00, 0x00,
  0x10, 0x01, 0x00, 0x00, 0xec, 0x00, 0x00, 0x00, 0xe4, 0x00, 0x00, 0x00,
  0xdc, 0x00, 0x00, 0x00, 0xd4, 0x00, 0x00, 0x00, 0xcc, 0x00, 0x00, 0x00,
  0xc4, 0x00, 0x00, 0x00, 0xbc, 0x00, 0x00, 0x00, 0xb4, 0x00, 0x00, 0x00,
  0xac, 0x00, 0x00, 0x00, 0xa4, 0x00, 0x00, 0x00, 0x9c, 0x00, 0x00, 0x00,
  0x94, 0x00, 0x00, 0x00, 0x8c, 0x00, 0x00, 0x00, 0x6c, 0x00, 0x00, 0x00,
  0x04, 0x00, 0x00, 0x00, 0xe6, 0xf1, 0xff, 0xff, 0x04, 0x00, 0x00, 0x00,
  0x58, 0x00, 0x00, 0x00, 0x0c, 0x00, 0x00, 0x00, 0x08, 0x00, 0x0e, 0x00,
  0x08, 0x00, 0x04, 0x00, 0x08, 0x00, 0x00, 0x00, 0x10, 0x00, 0x00, 0x00,
  0x28, 0x00, 0x00, 0x00, 0x00, 0x00, 0x06, 0x00, 0x08, 0x00, 0x04, 0x00,
  0x06, 0x00, 0x00, 0x00, 0x04, 0x00, 0x00, 0x00, 0x01, 0x00, 0x00, 0x00,
  0xeb, 0x03, 0x00, 0x00, 0x00, 0x00, 0x0a, 0x00, 0x10, 0x00, 0x0c, 0x00,
  0x08, 0x00, 0x04, 0x00, 0x0a, 0x00, 0x00, 0x00, 0x02, 0x00, 0x00, 0x00,
  0x02, 0x00, 0x00, 0x00, 0x04, 0x00, 0x00, 0x00, 0x06, 0x00, 0x00, 0x00,
  0x32, 0x2e, 0x31, 0x33, 0x2e, 0x30, 0x00, 0x00, 0x4a, 0xf2, 0xff, 0xff,
  0x04, 0x00, 0x00, 0x00, 0x10, 0x00, 0x00, 0x00, 0x31, 0x2e, 0x31, 0x34,
  0x2e, 0x30, 0x00, 0x00, 0x00, 0x00, 0x00, 0x00, 0x00, 0x00, 0x00, 0x00,
  0x2c, 0xdd, 0xff, 0xff, 0x30, 0xdd, 0xff, 0xff, 0x34, 0xdd, 0xff, 0xff,
  0x38, 0xdd, 0xff, 0xff, 0x3c, 0xdd, 0xff, 0xff, 0x40, 0xdd, 0xff, 0xff,
  0x44, 0xdd, 0xff, 0xff, 0x48, 0xdd, 0xff, 0xff, 0x4c, 0xdd, 0xff, 0xff,
  0x50, 0xdd, 0xff, 0xff, 0x54, 0xdd, 0xff, 0xff, 0x58, 0xdd, 0xff, 0xff,
  0x96, 0xf2, 0xff, 0xff, 0x04, 0x00, 0x00, 0x00, 0x12, 0x00, 0x00, 0x00,
  0x01, 0x72, 0xdd, 0xf8, 0x11, 0x5d, 0xf8, 0x81, 0xf4, 0xc4, 0x91, 0xa5,
  0x7e, 0xf2, 0x15, 0xfb, 0x2e, 0x7f, 0x00, 0x00, 0xb6, 0xf2, 0xff, 0xff,
  0x04, 0x00, 0x00, 0x00, 0x08, 0x00, 0x00, 0x00, 0xd9, 0xff, 0xff, 0xff,
  0x0b, 0x00, 0x00, 0x00, 0xca, 0xf2, 0xff, 0xff, 0x04, 0x00, 0x00, 0x00,
  0x48, 0x00, 0x00, 0x00, 0x09, 0x59, 0xf2, 0xb8, 0xa7, 0xb9, 0x0b, 0xa8,
  0x7f, 0x74, 0xcd, 0x06, 0xb0, 0x28, 0x52, 0x92, 0xc8, 0x2e, 0xca, 0xdc,
  0x01, 0x81, 0x3f, 0x15, 0xee, 0x33, 0x9c, 0xc4, 0xf7, 0xe2, 0xa6, 0x20,
  0xb1, 0xf5, 0x06, 0x38, 0xcf, 0xc6, 0x79, 0x81, 0xb3, 0xc6, 0xc6, 0xea,
  0x24, 0x9e, 0x70, 0x59, 0x3d, 0x16, 0x00, 0xc5, 0x6f, 0x5d, 0x49, 0x00,
  0xa1, 0x5f, 0x58, 0x81, 0x3b, 0x61, 0x32, 0x9e, 0x94, 0x89, 0x32, 0xcb,
  0xdd, 0xf7, 0x74, 0xdc, 0x1e, 0xf3, 0xff, 0xff, 0x04, 0x00, 0x00, 0x00,
  0x10, 0x00, 0x00, 0x00, 0xc7, 0xff, 0xff, 0xff, 0x1d, 0x00, 0x00, 0x00,
  0xf7, 0xff, 0xff, 0xff, 0xf0, 0xff, 0xff, 0xff, 0x3a, 0xf3, 0xff, 0xff,
  0x04, 0x00, 0x00, 0x00, 0x20, 0x01, 0x00, 0x00, 0x1b, 0xe5, 0xf9, 0x5c,
  0x13, 0xfe, 0xc7, 0x0f, 0x2e, 0xee, 0x26, 0xf6, 0x1e, 0x28, 0xae, 0x31,
  0xa5, 0x20, 0x83, 0x15, 0xe0, 0xf5, 0xd7, 0x33, 0x45, 0xd0, 0xbf, 0x03,
  0x24, 0x02, 0x81, 0x09, 0x96, 0xc7, 0xcd, 0x4c, 0x23, 0x0b, 0x32, 0x36,
  0x5d, 0xd3, 0xed, 0x39, 0x10, 0xc2, 0xf6, 0x1a, 0xf4, 0xf3, 0xf4, 0x17,
  0x1a, 0x1b, 0xfa, 0xe7, 0x1f, 0xde, 0x0e, 0xb7, 0xf8, 0xdc, 0xc9, 0x48,
  0xc7, 0x2d, 0xe8, 0x81, 0xc9, 0x0d, 0xde, 0xb2, 0x3e, 0xe6, 0xee, 0xf7,
  0xe8, 0xc6, 0x39, 0x2d, 0xf8, 0x0f, 0x1b, 0x1b, 0x1b, 0x2f, 0xa4, 0xc0,
  0xcf, 0xe3, 0x68, 0xf8, 0x0f, 0xfb, 0x6e, 0xf4, 0x15, 0xc7, 0x29, 0x81,
  0x98, 0x05, 0x1a, 0x01, 0x09, 0xf5, 0x4e, 0x04, 0x3d, 0xa6, 0x59, 0x14,
  0x09, 0xf5, 0xed, 0xf0, 0x41, 0x8d, 0x5e, 0x06, 0x05, 0xc3, 0x20, 0xc5,
  0x37, 0x81, 0x02, 0x11, 0x43, 0x91, 0x16, 0xf2, 0x45, 0xa1, 0xff, 0xc8,
  0x39, 0xe1, 0xb6, 0xec, 0x44, 0xdc, 0x1a, 0x29, 0xe4, 0x32, 0x16, 0x37,
  0xdb, 0x0e, 0x4f, 0xe1, 0xea, 0x09, 0xef, 0x3c, 0x29, 0xea, 0xd6, 0xed,
  0x0c, 0x28, 0x4b, 0x49, 0x81, 0x34, 0x19, 0x37, 0xa1, 0xf9, 0xc3, 0xe0,
  0x3b, 0x9f, 0x49, 0x10, 0x32, 0xb8, 0x43, 0x3d, 0xf4, 0x42, 0xe5, 0x33,
  0x41, 0xcf, 0x39, 0xd9, 0x27, 0x42, 0x44, 0x0d, 0x16, 0xeb, 0xba, 0x15,
  0x13, 0xaf, 0x50, 0x48, 0x0c, 0x81, 0xce, 0xd7, 0x3f, 0x13, 0x47, 0x2f,
  0x15, 0x99, 0x52, 0x4c, 0x64, 0xab, 0x4f, 0x01, 0x3e, 0x00, 0xf5, 0xca,
  0xc0, 0x4a, 0x3b, 0x33, 0x14, 0x7f, 0x1c, 0xf8, 0x7f, 0x2c, 0x05, 0xd4,
  0xb6, 0xd3, 0x74, 0x45, 0xa2, 0x12, 0xff, 0x5a, 0x68, 0x86, 0x2e, 0x6b,
  0xd6, 0x89, 0x64, 0xd8, 0xcc, 0xae, 0x65, 0xd3, 0xc2, 0xba, 0x40, 0x4e,
  0x28, 0xe0, 0x05, 0x61, 0x49, 0xe5, 0xd9, 0x15, 0x20, 0xcc, 0xad, 0xdc,
  0x30, 0xfb, 0x81, 0x2b, 0x1f, 0x2e, 0xcd, 0xe2, 0x61, 0x17, 0x2f, 0xfe,
  0x39, 0xca, 0xc3, 0x44, 0xef, 0xc3, 0xad, 0x5e, 0x66, 0xf4, 0xff, 0xff,
  0x04, 0x00, 0x00, 0x00, 0x20, 0x00, 0x00, 0x00, 0xfa, 0x00, 0x00, 0x00,
  0xea, 0xff, 0xff, 0xff, 0x11, 0x00, 0x00, 0x00, 0x03, 0x00, 0x00, 0x00,
  0x81, 0xff, 0xff, 0xff, 0xf3, 0xff, 0xff, 0xff, 0xdf, 0xff, 0xff, 0xff,
  0xed, 0xff, 0xff, 0xff, 0x92, 0xf4, 0xff, 0xff, 0x04, 0x00, 0x00, 0x00,
  0x40, 0x02, 0x00, 0x00, 0xb3, 0x3b, 0xd8, 0xd5, 0xcd, 0xcc, 0xef, 0x32,
  0xf3, 0xd3, 0xc3, 0xb3, 0x13, 0xb3, 0xd2, 0x43, 0xb8, 0xcc, 0x09, 0xee,
  0x0c, 0xc8, 0x23, 0xc7, 0xcb, 0x30, 0xf6, 0x43, 0xbc, 0x00, 0x35, 0x2f,
  0x02, 0x13, 0xd4, 0xd4, 0x35, 0x17, 0x28, 0xe1, 0xa4, 0x9c, 0xda, 0x17,
  0x09, 0x3f, 0xe0, 0x35, 0xde, 0x59, 0x34, 0xde, 0xe7, 0xf8, 0x39, 0xeb,
  0x81, 0x10, 0x23, 0x71, 0x3f, 0x4d, 0xd4, 0xaa, 0x11, 0x0b, 0xc3, 0xd3,
  0x62, 0x63, 0x29, 0x2a, 0x17, 0xd9, 0x13, 0xfc, 0xd9, 0xd4, 0x03, 0xff,
  0x5c, 0xf7, 0xee, 0x0c, 0xc5, 0xc6, 0xd0, 0xdc, 0xb2, 0xdf, 0x4d, 0xe6,
  0x05, 0x0d, 0x2b, 0xf0, 0x20, 0xe3, 0x3e, 0xb9, 0x24, 0xc9, 0x07, 0xe1,
  0x02, 0x43, 0xc5, 0x18, 0xe5, 0xef, 0xae, 0xe9, 0x2f, 0x9f, 0x55, 0x08,
  0x67, 0x51, 0x4a, 0xf0, 0x51, 0x21, 0xf3, 0xec, 0x26, 0x13, 0xf6, 0x19,
  0xed, 0x05, 0xeb, 0x81, 0xb3, 0xd1, 0xc4, 0xa0, 0x29, 0xcc, 0x42, 0x0e,
  0xea, 0xdc, 0xfc, 0x08, 0x62, 0xf3, 0xd4, 0xf4, 0x25, 0x3a, 0xed, 0x4e,
  0x3e, 0x27, 0xec, 0x19, 0x49, 0xec, 0xff, 0x69, 0x28, 0x78, 0xd7, 0x45,
  0x03, 0x66, 0x23, 0x43, 0x59, 0xca, 0xd7, 0xbc, 0x0f, 0x10, 0xeb, 0x53,
  0x44, 0x0f, 0xc6, 0xbd, 0x1d, 0xbb, 0x13, 0xde, 0x7a, 0x7f, 0xf0, 0x50,
  0xc2, 0xdb, 0xe3, 0x54, 0xec, 0x13, 0xcd, 0xdc, 0xf7, 0x0f, 0xe5, 0xc9,
  0xe7, 0x5b, 0x00, 0xe1, 0x17, 0xdb, 0xe3, 0xc6, 0xc6, 0xe4, 0xce, 0xa1,
  0xa1, 0x01, 0xbb, 0x04, 0xc3, 0xe1, 0xeb, 0x02, 0x17, 0x47, 0xf4, 0x0d,
  0xbc, 0x9d, 0xd9, 0xb4, 0x12, 0x24, 0x35, 0x12, 0xda, 0xd3, 0xe6, 0xd7,
  0x15, 0xbd, 0xe2, 0xf3, 0x8f, 0x04, 0x11, 0x6e, 0xf9, 0x00, 0x21, 0x10,
  0xb7, 0x81, 0x07, 0x2e, 0x31, 0x01, 0x15, 0xf2, 0x8e, 0x07, 0x10, 0x4c,
  0x0a, 0xf7, 0x0a, 0x0e, 0xc2, 0x03, 0x3d, 0x22, 0xe9, 0x05, 0xc6, 0xd3,
  0xeb, 0x54, 0xfb, 0x25, 0xcb, 0x34, 0xca, 0x46, 0xea, 0x48, 0x3e, 0x7d,
  0xde, 0xf6, 0x0b, 0x10, 0xe5, 0xb4, 0xcd, 0x12, 0xdb, 0xf0, 0xc9, 0xbc,
  0xe8, 0xee, 0xc7, 0xd5, 0xc6, 0xfe, 0xea, 0xa5, 0xe3, 0xc9, 0x40, 0xca,
  0x1f, 0x21, 0x3c, 0xcd, 0xb1, 0xd5, 0xed, 0x1a, 0xe1, 0xe3, 0x4c, 0xeb,
  0x03, 0x37, 0x32, 0xec, 0xf8, 0x11, 0x0d, 0xb8, 0xcd, 0xf1, 0xdd, 0xfa,
  0xff, 0x13, 0xeb, 0xe0, 0x9c, 0x0e, 0x0c, 0x0f, 0x34, 0x4a, 0x76, 0x14,
  0xd3, 0xd1, 0x32, 0x2c, 0x4c, 0xf9, 0x12, 0xfa, 0xd5, 0x81, 0x10, 0x27,
  0x11, 0x1a, 0xee, 0x07, 0xfb, 0xcc, 0x1c, 0x32, 0x46, 0xdf, 0x2c, 0x28,
  0x0f, 0x22, 0xf1, 0x91, 0x29, 0xe7, 0x05, 0x12, 0x81, 0xdd, 0x06, 0xb7,
  0x30, 0xde, 0xfb, 0xe4, 0x72, 0x48, 0xf8, 0x10, 0xe8, 0xe9, 0x17, 0x33,
  0xf6, 0x42, 0x54, 0x1b, 0x72, 0xfc, 0x23, 0xe9, 0xc3, 0xc9, 0x11, 0x59,
  0xd2, 0xef, 0x3f, 0xc5, 0x35, 0x20, 0xa6, 0xc2, 0xa2, 0xad, 0xb4, 0x3b,
  0x26, 0xe1, 0xce, 0x21, 0xcc, 0x18, 0xea, 0xde, 0xc8, 0xde, 0x1f, 0x31,
  0x50, 0xf9, 0xd7, 0x11, 0x16, 0xf5, 0x44, 0x31, 0xc8, 0x34, 0xe0, 0xec,
  0xf2, 0x0f, 0x10, 0x03, 0x1c, 0xf0, 0x0b, 0xc4, 0x9f, 0x07, 0x7f, 0x1d,
  0x66, 0x39, 0x31, 0xc9, 0xf3, 0xec, 0x0c, 0x45, 0xf8, 0xc7, 0xb6, 0xb0,
  0x83, 0x1c, 0x40, 0xf4, 0x34, 0xcc, 0xeb, 0xd3, 0x23, 0xb6, 0x07, 0xed,
  0xe9, 0x2f, 0x21, 0xee, 0xb5, 0x88, 0x25, 0x0e, 0x05, 0xd6, 0xea, 0xb9,
  0xdd, 0x2f, 0x02, 0xca, 0x20, 0xbd, 0x06, 0x02, 0x08, 0xdf, 0x29, 0x1a,
  0x0b, 0xc0, 0xd6, 0xca, 0xef, 0x2d, 0x2a, 0xde, 0x2e, 0x0a, 0x2e, 0x07,
  0xee, 0x1d, 0xc9, 0xfa, 0x9e, 0xc2, 0xd1, 0xf7, 0xf5, 0x81, 0xd7, 0xaf,
  0x2b, 0xf0, 0x20, 0xda, 0x26, 0x04, 0xe1, 0x49, 0x44, 0x3f, 0x2b, 0x20,
  0xba, 0xb3, 0xef, 0x66, 0xe2, 0xb5, 0xeb, 0xe0, 0x02, 0xd4, 0xd3, 0xfd,
  0x23, 0xbe, 0xd4, 0xf8, 0xfe, 0x4b, 0x20, 0x38, 0xce, 0x4b, 0xed, 0x1d,
  0x16, 0x47, 0xbc, 0x4e, 0xca, 0xfa, 0xc8, 0x4b, 0xff, 0xe2, 0x27, 0xca,
  0x44, 0xbf, 0xe5, 0x0a, 0xde, 0xf6, 0xff, 0xff, 0x04, 0x00, 0x00, 0x00,
  0x20, 0x00, 0x00, 0x00, 0x2e, 0xff, 0xff, 0xff, 0x5f, 0x01, 0x00, 0x00,
  0x2c, 0x00, 0x00, 0x00, 0x5a, 0xff, 0xff, 0xff, 0x6b, 0xff, 0xff, 0xff,
  0x8c, 0xff, 0xff, 0xff, 0xdd, 0x00, 0x00, 0x00, 0x22, 0x00, 0x00, 0x00,
  0x0a, 0xf7, 0xff, 0xff, 0x04, 0x00, 0x00, 0x00, 0x80, 0x04, 0x00, 0x00,
  0xf0, 0x28, 0x2e, 0x25, 0x22, 0x81, 0x5a, 0x09, 0x0a, 0xf7, 0x09, 0xfc,
  0xfc, 0x35, 0x2e, 0x27, 0x1c, 0x1b, 0x30, 0xc3, 0xba, 0x11, 0xde, 0x2d,
  0xb8, 0xe9, 0xe1, 0xf0, 0x01, 0x33, 0x5e, 0xc5, 0x10, 0xdf, 0xd9, 0x2a,
  0xff, 0xe6, 0x37, 0xeb, 0x29, 0x8a, 0x3b, 0xd9, 0x1b, 0xb6, 0xb7, 0x09,
  0x27, 0xc2, 0xcf, 0x1e, 0xec, 0xf3, 0x3a, 0xef, 0x98, 0x37, 0x07, 0xf8,
  0xe3, 0xf1, 0x55, 0xd1, 0xae, 0x1f, 0xde, 0x03, 0xa6, 0xcd, 0x0a, 0x02,
  0xb2, 0x2d, 0x07, 0x2d, 0xff, 0xd6, 0x2d, 0xc4, 0xc1, 0x17, 0x8d, 0x1d,
  0xf2, 0x01, 0x45, 0x4a, 0xcb, 0x01, 0xae, 0x29, 0xe2, 0x0d, 0x36, 0xed,
  0x61, 0xec, 0xa0, 0xe5, 0x2d, 0xa9, 0x18, 0xf6, 0x53, 0x9f, 0xcd, 0xdc,
  0x38, 0xa5, 0xdb, 0x3c, 0x51, 0x56, 0x2e, 0x2a, 0xfb, 0xe7, 0x0d, 0x17,
  0x4e, 0x0c, 0xdf, 0xe5, 0xc6, 0x7f, 0x14, 0xe4, 0xac, 0xd9, 0xe5, 0x53,
  0xf8, 0x59, 0xc3, 0x69, 0xe6, 0x6f, 0x47, 0xbb, 0xb5, 0x01, 0xed, 0xba,
  0x1e, 0xf3, 0x08, 0x3c, 0x06, 0xc3, 0x07, 0x23, 0xcd, 0x44, 0x19, 0xb1,
  0x38, 0xac, 0x4d, 0x32, 0xf6, 0x01, 0xea, 0x09, 0x32, 0x7f, 0x53, 0xf9,
  0xda, 0xce, 0xd9, 0xf8, 0x28, 0xf8, 0x07, 0x11, 0x13, 0x3d, 0xbe, 0xe9,
  0xe0, 0x2d, 0x11, 0x05, 0x0b, 0xf7, 0xf3, 0xd8, 0x0a, 0xf7, 0x60, 0x10,
  0x2b, 0x31, 0xbd, 0x27, 0x0b, 0xe2, 0x04, 0x28, 0x14, 0xad, 0x1d, 0xdb,
  0xf4, 0x15, 0x27, 0x50, 0x0b, 0xb5, 0xc8, 0xcc, 0xce, 0xce, 0x11, 0xd1,
  0xe1, 0x18, 0x0c, 0xf0, 0x2e, 0x11, 0xb1, 0xe7, 0xa5, 0x06, 0xdc, 0xf9,
  0x19, 0x02, 0x0d, 0x47, 0xdc, 0x3f, 0x32, 0x2b, 0xb1, 0x16, 0x16, 0xf7,
  0xee, 0xc0, 0x09, 0xf4, 0xe6, 0xfe, 0xc3, 0x1d, 0x23, 0xf8, 0x07, 0x25,
  0x04, 0xe7, 0x1a, 0x19, 0xe3, 0x72, 0x02, 0xba, 0x07, 0xfb, 0x7f, 0x24,
  0xf5, 0xd8, 0x42, 0xd9, 0xcd, 0x52, 0x28, 0xc4, 0x05, 0x2b, 0x11, 0xff,
  0x05, 0x1e, 0xd7, 0x01, 0xec, 0x4e, 0xc5, 0x01, 0x45, 0xe6, 0x39, 0xfd,
  0xbe, 0x51, 0x5b, 0xfa, 0xa2, 0xe2, 0x04, 0xd3, 0xea, 0x0a, 0xf1, 0x05,
  0xbb, 0xe0, 0x1f, 0x41, 0x11, 0x00, 0x11, 0xd7, 0x1a, 0xc2, 0x3d, 0x3d,
  0x26, 0x27, 0xde, 0xd0, 0x00, 0x34, 0xf6, 0x40, 0x02, 0x2d, 0xd8, 0x2f,
  0xd7, 0xc4, 0xf4, 0xfd, 0x5c, 0x36, 0xe9, 0xf3, 0xda, 0xdf, 0xf2, 0xb3,
  0x23, 0x21, 0x2f, 0x25, 0xc1, 0xbd, 0x1c, 0x06, 0x3a, 0x7f, 0xce, 0xf4,
  0x28, 0x3a, 0x3d, 0x06, 0xd4, 0x19, 0xd0, 0x35, 0xdd, 0xe6, 0x4f, 0x16,
  0x0c, 0x25, 0x21, 0x1d, 0x0b, 0xed, 0x30, 0xdb, 0x04, 0xfc, 0xd1, 0x3e,
  0x02, 0xfa, 0x1e, 0x15, 0x13, 0xb5, 0xc2, 0x75, 0x13, 0x20, 0x0c, 0x20,
  0x20, 0x0f, 0x05, 0xdd, 0xfb, 0xeb, 0x1f, 0xc5, 0x18, 0xf0, 0xc1, 0x16,
  0xf4, 0x36, 0xff, 0xfa, 0xfc, 0xfc, 0xf9, 0x1b, 0x16, 0xe8, 0x18, 0xc6,
  0xde, 0x0d, 0xd2, 0xd4, 0x0e, 0x2a, 0x12, 0xd9, 0xcd, 0x26, 0xe1, 0xfc,
  0xf0, 0x06, 0x34, 0x2d, 0xc9, 0xad, 0x5f, 0xdd, 0x81, 0x25, 0xbf, 0x16,
  0x28, 0xe8, 0x62, 0x06, 0x14, 0x3e, 0xaa, 0xe5, 0xf0, 0xfa, 0x29, 0x18,
  0x25, 0x1f, 0xfa, 0xb0, 0x17, 0x3c, 0xf1, 0xf7, 0x44, 0x02, 0x2e, 0x4f,
  0xfd, 0x59, 0x5b, 0x04, 0xbb, 0xf0, 0x18, 0xc6, 0xd2, 0xe9, 0xe9, 0xf8,
  0xd1, 0xd6, 0x5e, 0x2d, 0x2d, 0xf5, 0xc7, 0x2f, 0x2f, 0x93, 0x02, 0x25,
  0xe9, 0x5a, 0x8f, 0xb2, 0xdc, 0x81, 0xcb, 0x4b, 0x36, 0xdd, 0xba, 0x32,
  0x07, 0xee, 0x24, 0x25, 0xe2, 0xf5, 0xd2, 0x2a, 0x2e, 0xeb, 0x23, 0x85,
  0x04, 0xac, 0xb5, 0x28, 0x1a, 0x9d, 0xde, 0x46, 0xd7, 0xee, 0x14, 0xb2,
  0xdc, 0x13, 0xe4, 0x9e, 0xf2, 0x62, 0xf6, 0x4b, 0x1d, 0x45, 0x0d, 0xd1,
  0x2f, 0xc9, 0xbc, 0x42, 0x48, 0xd7, 0x2f, 0x48, 0x04, 0xd8, 0x3e, 0xcc,
  0x27, 0xeb, 0xca, 0xde, 0x29, 0xf2, 0x0d, 0x16, 0x3b, 0xf4, 0x5e, 0xbb,
  0xa6, 0x9f, 0x7f, 0xd5, 0xc3, 0x2d, 0x30, 0xf6, 0x9a, 0xbf, 0x4f, 0xc6,
  0x95, 0xfb, 0x32, 0x0c, 0xcb, 0xea, 0x1e, 0x0b, 0xb4, 0x43, 0x63, 0x07,
  0x32, 0x37, 0xbe, 0x52, 0x0b, 0xf8, 0xe9, 0x3e, 0x33, 0x04, 0xbc, 0x31,
  0xf8, 0x1c, 0xa8, 0x2b, 0x46, 0xf4, 0x81, 0x1b, 0x2f, 0xc7, 0xf8, 0xef,
  0xf4, 0x1a, 0xfb, 0xfc, 0xea, 0xda, 0x05, 0xe4, 0xf9, 0xef, 0x0a, 0xf0,
  0x2e, 0x23, 0xf3, 0xcf, 0x30, 0x0c, 0xe2, 0x31, 0x24, 0xc6, 0x3c, 0x1a,
  0x15, 0x10, 0x23, 0x10, 0x29, 0x10, 0x3b, 0xc8, 0x0e, 0x2c, 0xc6, 0x28,
  0xe0, 0xfa, 0xfb, 0xcc, 0xd4, 0x05, 0xe2, 0x12, 0x09, 0xfb, 0x29, 0xce,
  0xd0, 0xe8, 0xb9, 0xd2, 0xc9, 0x12, 0xcb, 0x38, 0x27, 0x3f, 0xe9, 0xeb,
  0x5a, 0x95, 0xf7, 0xdd, 0x20, 0xdb, 0xcb, 0xdf, 0x34, 0x68, 0x4b, 0x6e,
  0x9b, 0x61, 0x25, 0x0d, 0xbd, 0x0e, 0x45, 0x19, 0x2e, 0x4a, 0xdc, 0xfd,
  0x2b, 0x12, 0x6f, 0x08, 0x49, 0x19, 0xbc, 0x5c, 0x38, 0x17, 0xf8, 0x46,
  0x2b, 0x10, 0xcf, 0xbf, 0xea, 0x30, 0xf2, 0x81, 0xbc, 0xcc, 0xc7, 0x2b,
  0x26, 0x0e, 0x20, 0x0f, 0xf6, 0x28, 0x11, 0x39, 0xd1, 0xb3, 0x11, 0xc1,
  0x06, 0x47, 0x22, 0xcd, 0x3b, 0xb9, 0xc7, 0xe3, 0xcc, 0xe7, 0xff, 0x24,
  0xb8, 0xba, 0x96, 0x2b, 0xfc, 0x5b, 0x09, 0xbf, 0x12, 0x64, 0x7f, 0xa7,
  0x3d, 0xf6, 0xf2, 0x6a, 0xbb, 0x31, 0x03, 0xf2, 0xfb, 0x8e, 0x0e, 0x03,
  0x29, 0x07, 0xd5, 0x4d, 0xfb, 0x18, 0xce, 0xb3, 0x19, 0x88, 0x4e, 0x33,
  0x39, 0x29, 0xf4, 0x92, 0xcd, 0xee, 0x28, 0xc0, 0xf8, 0xc2, 0xf4, 0x1c,
  0xdc, 0x56, 0xc9, 0x23, 0x38, 0x5f, 0xdd, 0xf0, 0x2f, 0xc7, 0xe8, 0x64,
  0xec, 0xdd, 0x7f, 0x14, 0xea, 0x05, 0xf9, 0x48, 0x07, 0x11, 0x51, 0x22,
  0x11, 0x00, 0x26, 0xe6, 0xdf, 0xb2, 0x2e, 0xfe, 0x12, 0xbc, 0x01, 0x3c,
  0xdb, 0x89, 0x23, 0xc3, 0xd4, 0xe5, 0xb7, 0x38, 0xea, 0x08, 0x36, 0xb2,
  0x06, 0xe7, 0xf8, 0xed, 0xd4, 0xb9, 0xc0, 0x09, 0xdf, 0x3a, 0x17, 0xf1,
  0xf1, 0xa9, 0xee, 0x0a, 0x41, 0xf5, 0xe5, 0x32, 0x23, 0x2c, 0x17, 0x28,
  0x03, 0xf4, 0x20, 0x3a, 0x17, 0x10, 0x16, 0x18, 0xe6, 0x0d, 0x0e, 0xd9,
  0xf0, 0x45, 0xc9, 0x40, 0x3e, 0x8b, 0x34, 0x53, 0x06, 0xda, 0xa0, 0xfa,
  0xca, 0x26, 0x36, 0x01, 0xfb, 0xcd, 0x19, 0xb7, 0xd5, 0xbb, 0xdf, 0x3c,
  0x2b, 0x55, 0x8c, 0xfa, 0x26, 0xd5, 0x44, 0xb9, 0x40, 0xa1, 0xc8, 0x31,
  0x02, 0x21, 0xe4, 0x34, 0x13, 0x81, 0xa0, 0x55, 0x36, 0x0d, 0xcc, 0x16,
  0xeb, 0xd6, 0xe6, 0xea, 0x0e, 0x29, 0x40, 0xfe, 0x53, 0x14, 0xde, 0x07,
  0xbb, 0x0c, 0x56, 0xee, 0x1f, 0xd5, 0x78, 0x13, 0xcd, 0xb1, 0x1a, 0xae,
  0x0a, 0xc6, 0x81, 0x3a, 0xb2, 0x59, 0x53, 0x5a, 0x07, 0xa6, 0xf8, 0x38,
  0xbf, 0xdb, 0xe1, 0xf2, 0x5c, 0x31, 0x0c, 0x24, 0xca, 0x3e, 0x50, 0x5d,
  0x40, 0xd7, 0x02, 0xd9, 0x4b, 0x44, 0xc8, 0xf7, 0xeb, 0x28, 0xfd, 0xf2,
  0x0a, 0x27, 0x11, 0x0c, 0xfc, 0x28, 0x02, 0x8d, 0xb3, 0xd4, 0x49, 0x58,
  0xce, 0xde, 0x3f, 0x3e, 0xbf, 0xd1, 0xab, 0x04, 0xe9, 0xde, 0x2e, 0xef,
  0xfa, 0xb8, 0xe3, 0xd3, 0x51, 0xca, 0x82, 0x62, 0x3d, 0x0a, 0xe3, 0xb9,
  0xb8, 0xac, 0xfa, 0x18, 0x3a, 0xee, 0xa8, 0x2f, 0xf9, 0x15, 0xe4, 0x23,
  0x1e, 0x42, 0x7b, 0xa4, 0x45, 0x02, 0x64, 0xc4, 0x42, 0x7f, 0x53, 0xcf,
  0x0c, 0xb7, 0x13, 0x2d, 0x0c, 0x1f, 0xf0, 0x4f, 0x30, 0x38, 0xe9, 0xe1,
  0xcf, 0x8f, 0xb3, 0x91, 0xf4, 0xd2, 0xf5, 0x1f, 0x1d, 0x0b, 0xfa, 0x57,
  0x4a, 0xfe, 0x30, 0x2f, 0xe5, 0x17, 0x48, 0x39, 0xe1, 0x0d, 0x0d, 0x4a,
  0xaf, 0xc1, 0xc2, 0x09, 0xfa, 0x21, 0xc3, 0xf3, 0xdd, 0xcb, 0x08, 0x3f,
  0xd8, 0xb4, 0x0d, 0x46, 0x38, 0xe6, 0xcf, 0x42, 0xcc, 0x2f, 0xfa, 0xd7,
  0x29, 0xae, 0xe8, 0xcf, 0xe0, 0x15, 0x30, 0xe3, 0x0b, 0x38, 0x6f, 0x05,
  0xe7, 0x95, 0x7f, 0xd2, 0xd3, 0x42, 0x05, 0x00, 0x12, 0xb4, 0xe8, 0xf5,
  0xb2, 0xfa, 0xc4, 0x04, 0x34, 0x43, 0x30, 0xd6, 0x06, 0xe4, 0x60, 0x03,
  0x2e, 0x28, 0xf6, 0x0e, 0xfa, 0x43, 0xdf, 0x3f, 0xcb, 0xf4, 0xec, 0x2b,
  0x18, 0xf4, 0xe0, 0xee, 0x61, 0xca, 0x4e, 0x04, 0xe9, 0x2d, 0xf8, 0x18,
  0x96, 0xfb, 0xff, 0xff, 0x04, 0x00, 0x00, 0x00, 0x40, 0x00, 0x00, 0x00,
  0x0c, 0x00, 0x00, 0x00, 0xa9, 0x01, 0x00, 0x00, 0x05, 0x00, 0x00, 0x00,
  0xd6, 0xff, 0xff, 0xff, 0xb3, 0xff, 0xff, 0xff, 0x4c, 0x01, 0x00, 0x00,
  0xf7, 0xfe, 0xff, 0xff, 0x97, 0x00, 0x00, 0x00, 0xbb, 0x00, 0x00, 0x00,
  0x1b, 0xff, 0xff, 0xff, 0x5c, 0x00, 0x00, 0x00, 0x4d, 0x00, 0x00, 0x00,
  0x06, 0x01, 0x00, 0x00, 0x3d, 0x01, 0x00, 0x00, 0x77, 0x00, 0x00, 0x00,
  0x92, 0x02, 0x00, 0x00, 0xe2, 0xfb, 0xff, 0xff, 0x04, 0x00, 0x00, 0x00,
  0x00, 0x04, 0x00, 0x00, 0xef, 0xdd, 0xe7, 0x05, 0x20, 0x01, 0xfb, 0xe8,
  0x1d, 0xe9, 0x11, 0xea, 0x13, 0x27, 0x0a, 0x03, 0x01, 0x36, 0x01, 0x2a,
  0xe7, 0x20, 0x01, 0xf4, 0x12, 0x17, 0x05, 0x17, 0x01, 0xee, 0x15, 0x07,
  0x18, 0x12, 0x3b, 0xdd, 0x0a, 0x32, 0xde, 0x2c, 0x1c, 0x0e, 0xea, 0x04,
  0x0f, 0xee, 0x03, 0xfd, 0x11, 0x14, 0xd5, 0xeb, 0x08, 0x66, 0x03, 0x20,
  0x10, 0x10, 0xfc, 0xfa, 0x15, 0xf3, 0xfc, 0xd5, 0x03, 0x04, 0xda, 0xfb,
  0xf9, 0x47, 0xca, 0x3f, 0x03, 0x0d, 0xf7, 0xe4, 0x1a, 0x03, 0x05, 0x0e,
  0x20, 0xfe, 0x1e, 0x00, 0xec, 0x19, 0xe0, 0x41, 0xe5, 0xe6, 0x03, 0x15,
  0x01, 0x4e, 0x09, 0x16, 0xfb, 0xec, 0x15, 0x23, 0x0b, 0x1a, 0xfb, 0x62,
  0xf5, 0xf4, 0x23, 0x3e, 0xe2, 0x18, 0x0e, 0x0d, 0xfc, 0xf1, 0x01, 0xe3,
  0x18, 0xec, 0x19, 0x22, 0x09, 0xfa, 0x09, 0x13, 0xd8, 0x16, 0x1d, 0x01,
  0x20, 0xe2, 0xef, 0x05, 0xf1, 0x18, 0xf1, 0xdc, 0xf4, 0xfc, 0xe6, 0xf6,
  0x2c, 0xf1, 0x23, 0xec, 0x40, 0x43, 0x2f, 0x0c, 0x18, 0x46, 0xd7, 0x23,
  0x08, 0xfe, 0x4e, 0xd7, 0xec, 0x0c, 0x14, 0x05, 0x05, 0x30, 0x01, 0xf4,
  0xd6, 0x00, 0xef, 0x35, 0xfc, 0xf8, 0xe7, 0x03, 0x0b, 0x1d, 0x0e, 0xe3,
  0x0f, 0x1f, 0x15, 0x15, 0xfb, 0x3b, 0x01, 0x1b, 0xf0, 0x0b, 0x03, 0xfa,
  0xff, 0xe5, 0xeb, 0xed, 0xfd, 0xe2, 0xeb, 0x19, 0x04, 0xfb, 0x11, 0x23,
  0x18, 0xe3, 0xf5, 0x09, 0xfd, 0x12, 0xf4, 0xee, 0x13, 0x1e, 0x0c, 0x2c,
  0x02, 0x0c, 0x09, 0x4a, 0xf4, 0x09, 0x0c, 0xfd, 0x0c, 0xe2, 0x14, 0x34,
  0xe2, 0x15, 0x19, 0x23, 0x0c, 0xe6, 0x01, 0xe4, 0xea, 0x1d, 0x22, 0x10,
  0xfc, 0x17, 0x0a, 0x0b, 0xf6, 0x35, 0x0c, 0x0c, 0x2f, 0xf5, 0x03, 0x2b,
  0xef, 0xee, 0xed, 0xe6, 0x07, 0x20, 0x0f, 0x08, 0x27, 0xe2, 0xd6, 0xfa,
  0x9c, 0xfe, 0xf5, 0xe2, 0x03, 0xeb, 0xe3, 0xf7, 0xd1, 0x2f, 0x11, 0xf1,
  0x15, 0x7f, 0xe5, 0x8b, 0xf4, 0x15, 0x0f, 0x08, 0xf5, 0xfe, 0xf1, 0x0a,
  0xf7, 0xe1, 0xef, 0xf2, 0x31, 0xf2, 0x3a, 0xe4, 0xcc, 0x39, 0xe7, 0xe7,
  0xfc, 0xe9, 0xd5, 0x33, 0xdf, 0x29, 0x24, 0x5b, 0xf0, 0x16, 0xe0, 0x54,
  0xfc, 0x46, 0xdd, 0x02, 0xf3, 0xf2, 0x2d, 0xe1, 0x13, 0x22, 0xfc, 0xfa,
  0xfe, 0xfe, 0xd4, 0x16, 0x1a, 0x00, 0xeb, 0x30, 0xf3, 0xfa, 0xc0, 0x34,
  0xdc, 0x07, 0xf7, 0x00, 0x27, 0x1c, 0x13, 0xdc, 0x04, 0x0e, 0x11, 0x42,
  0xfb, 0xfc, 0xe8, 0x03, 0x0b, 0x0e, 0xeb, 0xe8, 0x1f, 0xeb, 0x1d, 0x01,
  0x0f, 0x0b, 0xfb, 0xf8, 0x07, 0x04, 0xe7, 0x11, 0xf8, 0xf6, 0x0a, 0x2c,
  0x0a, 0xce, 0xfa, 0x21, 0x0d, 0x13, 0xe8, 0x0d, 0x1b, 0x03, 0x33, 0x5f,
  0x0a, 0x21, 0x01, 0x2d, 0xdf, 0xdb, 0x87, 0xe5, 0x01, 0xe9, 0xfc, 0x5a,
  0xd1, 0x09, 0x08, 0x22, 0x03, 0xf7, 0xff, 0xef, 0xd0, 0x2d, 0xc0, 0x1b,
  0xec, 0x09, 0xf5, 0xbe, 0xd8, 0xb9, 0xee, 0x08, 0xdf, 0xec, 0xd6, 0x00,
  0x19, 0x13, 0xc1, 0xf2, 0x28, 0xc4, 0xd9, 0xe4, 0xe1, 0xd3, 0x25, 0x19,
  0xd0, 0x04, 0x13, 0x08, 0xb7, 0xc8, 0xe7, 0x03, 0x1e, 0xcc, 0x1e, 0xd7,
  0xfe, 0x17, 0x41, 0x05, 0xd4, 0x2d, 0xff, 0x22, 0xeb, 0xed, 0xf3, 0xf1,
  0xfb, 0xdb, 0x18, 0xac, 0xfa, 0xf8, 0xee, 0x28, 0xea, 0x00, 0x0a, 0x1d,
  0x0d, 0xd4, 0xf7, 0xff, 0x04, 0x05, 0x23, 0x32, 0x02, 0xf8, 0xdb, 0x11,
  0x05, 0xf2, 0xed, 0x2e, 0xf9, 0xee, 0xfa, 0x0f, 0xef, 0xf9, 0x07, 0x52,
  0xf8, 0x06, 0x14, 0xc5, 0xe9, 0xf5, 0x22, 0x28, 0xff, 0x50, 0xed, 0x26,
  0xe0, 0x16, 0xdb, 0x0c, 0x01, 0xf2, 0xb6, 0x2c, 0x03, 0xee, 0x08, 0x16,
  0x2c, 0xf1, 0xe9, 0xea, 0xf3, 0x07, 0x00, 0x05, 0xf7, 0xf6, 0x0a, 0x20,
  0x23, 0x3e, 0xe5, 0x21, 0xc8, 0xfb, 0xf4, 0x0d, 0xeb, 0xd6, 0x23, 0xe2,
  0xe8, 0xf7, 0x5c, 0xf4, 0x1d, 0x1f, 0xf7, 0x14, 0xb1, 0xe4, 0x52, 0xf7,
  0xe5, 0xbe, 0xeb, 0xb6, 0xeb, 0xff, 0x1c, 0x1c, 0xf3, 0x30, 0x2e, 0x0e,
  0xf0, 0xd8, 0xc5, 0xfc, 0x1c, 0xd9, 0x21, 0xd8, 0xf5, 0x0c, 0x0a, 0xfe,
  0xff, 0xf8, 0xf2, 0xd1, 0xd9, 0xf8, 0x26, 0x00, 0xfe, 0xf5, 0x0c, 0xca,
  0xda, 0x4c, 0x2f, 0x3f, 0xe6, 0x01, 0xe8, 0xef, 0x02, 0x0a, 0xeb, 0xed,
  0x2e, 0xf3, 0xea, 0x0b, 0x0d, 0xf5, 0x96, 0x13, 0x3a, 0xbc, 0xfa, 0xd7,
  0xee, 0xf1, 0x0a, 0xcb, 0x0a, 0x12, 0xcb, 0x1d, 0x08, 0x41, 0xe7, 0xd2,
  0x0d, 0x43, 0x23, 0x2a, 0x18, 0x37, 0xf8, 0x33, 0xe8, 0x04, 0xdc, 0xec,
  0xfd, 0x01, 0x6c, 0x03, 0x08, 0xfb, 0xf5, 0x27, 0xfe, 0xea, 0xf2, 0xe1,
  0xed, 0x09, 0x06, 0x13, 0xf1, 0x16, 0x27, 0xf8, 0x30, 0x2a, 0xe0, 0x25,
  0x34, 0x1d, 0xc0, 0xe5, 0x30, 0x0c, 0xf1, 0x1b, 0x04, 0xe0, 0x31, 0x1b,
  0x4d, 0xea, 0xf9, 0x8d, 0xf4, 0x3b, 0x06, 0x0d, 0x15, 0xe8, 0x0d, 0x1b,
  0x16, 0xf0, 0x1c, 0xd1, 0xfc, 0x41, 0x19, 0x36, 0xfa, 0x0b, 0xf9, 0x20,
  0xfb, 0x11, 0x10, 0xda, 0x1c, 0x29, 0xf4, 0xdf, 0xfb, 0xea, 0xe5, 0x2f,
  0x12, 0x2b, 0xe8, 0xff, 0x03, 0x04, 0xfb, 0xfd, 0x2c, 0x2a, 0x11, 0x0e,
  0x25, 0xe5, 0x26, 0xe9, 0x64, 0x5c, 0x26, 0xdf, 0x51, 0x16, 0xda, 0x26,
  0x15, 0x18, 0x0b, 0xc8, 0x24, 0x1e, 0x30, 0x03, 0xdf, 0x1c, 0xf8, 0xe8,
  0xf3, 0x0e, 0xf2, 0x13, 0xfe, 0x37, 0xf5, 0x0a, 0x0a, 0x48, 0x22, 0xdb,
  0xd4, 0xc7, 0xc8, 0x11, 0xaf, 0x17, 0xf6, 0x0b, 0x13, 0x15, 0x66, 0xcd,
  0xe2, 0x3c, 0xf7, 0xda, 0xfa, 0x0a, 0xed, 0x06, 0xf7, 0x44, 0x04, 0x07,
  0x1f, 0x1a, 0x03, 0xfb, 0xd7, 0x0f, 0xe9, 0x02, 0xfc, 0xe9, 0xdb, 0xfb,
  0xb7, 0x0d, 0x06, 0xd0, 0x15, 0xf7, 0xe7, 0x14, 0xfe, 0xe6, 0xf9, 0xec,
  0xaf, 0xaf, 0xec, 0xe6, 0x25, 0xea, 0x4c, 0x48, 0x27, 0x2e, 0xba, 0x11,
  0xf8, 0xe6, 0xe8, 0x0c, 0xfc, 0xc1, 0x07, 0xf9, 0x21, 0x16, 0x23, 0x2f,
  0x1d, 0x39, 0x3d, 0xeb, 0x00, 0xaf, 0x1f, 0xe7, 0x1a, 0xc9, 0x1f, 0x50,
  0xd7, 0x23, 0x06, 0x3f, 0x18, 0x16, 0x35, 0xd9, 0x2d, 0xfc, 0x09, 0xf5,
  0xd3, 0x13, 0xf1, 0x01, 0xe3, 0x03, 0xf0, 0x69, 0x1d, 0x23, 0x26, 0xd6,
  0xf8, 0xea, 0x22, 0x04, 0x29, 0xd3, 0x12, 0xe7, 0xc5, 0x1b, 0x0a, 0x41,
  0x32, 0x3f, 0xe7, 0xe9, 0xeb, 0x1a, 0xf2, 0xf3, 0x03, 0xeb, 0xf0, 0x0a,
  0x23, 0xe1, 0xf2, 0x1e, 0x1b, 0xe1, 0x19, 0x08, 0x03, 0xf4, 0xfd, 0xf9,
  0x09, 0xe5, 0x04, 0xfd, 0x0c, 0xf6, 0x06, 0x2a, 0xe8, 0x13, 0xf4, 0xe7,
  0x02, 0x1f, 0x0a, 0x42, 0xf6, 0x16, 0x05, 0x07, 0xf4, 0x09, 0xef, 0xf4,
  0x0e, 0xf0, 0x2a, 0x1b, 0xde, 0xf1, 0xe2, 0x00, 0xeb, 0x14, 0xfe, 0x05,
  0x19, 0x1c, 0x21, 0xfb, 0x25, 0x20, 0xfc, 0x02, 0x10, 0x00, 0xfc, 0xc0,
  0xdd, 0x06, 0x38, 0xfa, 0x06, 0x45, 0x21, 0x2e, 0x0b, 0x11, 0xf3, 0x08,
  0xfb, 0x05, 0xf5, 0xe8, 0x20, 0xec, 0x5c, 0x31, 0xec, 0x31, 0x18, 0x1f,
  0x22, 0xed, 0x76, 0x1c, 0x0b, 0x17, 0x05, 0x1e, 0x0a, 0x0e, 0x43, 0x02,
  0x11, 0x2b, 0x12, 0x1b, 0x24, 0xe6, 0xf7, 0xdf, 0x27, 0x10, 0x1e, 0x14,
  0x29, 0xf0, 0x21, 0xeb, 0x14, 0x09, 0xca, 0x13, 0x1c, 0xe5, 0xeb, 0xf1,
  0x07, 0x04, 0x00, 0xff, 0xf2, 0xe4, 0x23, 0xe7, 0xf4, 0xe5, 0xf2, 0xe6,
  0x09, 0x05, 0xe3, 0xf1, 0xee, 0xf6, 0xed, 0x3d, 0xee, 0xff, 0xff, 0xff,
  0x04, 0x00, 0x00, 0x00, 0x04, 0x00, 0x00, 0x00, 0x0a, 0x02, 0x00, 0x00,
  0x00, 0x00, 0x06, 0x00, 0x08, 0x00, 0x04, 0x00, 0x06, 0x00, 0x00, 0x00,
  0x04, 0x00, 0x00, 0x00, 0x08, 0x00, 0x00, 0x00, 0xff, 0xff, 0xff, 0xff,
  0x00, 0x04, 0x00, 0x00, 0xe0, 0xea, 0xff, 0xff, 0xe4, 0xea, 0xff, 0xff,
  0x0f, 0x00, 0x00, 0x00, 0x4d, 0x4c, 0x49, 0x52, 0x20, 0x43, 0x6f, 0x6e,
  0x76, 0x65, 0x72, 0x74, 0x65, 0x64, 0x2e, 0x00, 0x01, 0x00, 0x00, 0x00,
  0x14, 0x00, 0x00, 0x00, 0x00, 0x00, 0x0e, 0x00, 0x18, 0x00, 0x14, 0x00,
  0x10, 0x00, 0x0c, 0x00, 0x08, 0x00, 0x04, 0x00, 0x0e, 0x00, 0x00, 0x00,
  0x14, 0x00, 0x00, 0x00, 0x1c, 0x00, 0x00, 0x00, 0x38, 0x03, 0x00, 0x00,
  0x3c, 0x03, 0x00, 0x00, 0x40, 0x03, 0x00, 0x00, 0x04, 0x00, 0x00, 0x00,
  0x6d, 0x61, 0x69, 0x6e, 0x00, 0x00, 0x00, 0x00, 0x0c, 0x00, 0x00, 0x00,
  0xd4, 0x02, 0x00, 0x00, 0x70, 0x02, 0x00, 0x00, 0x20, 0x02, 0x00, 0x00,
  0xdc, 0x01, 0x00, 0x00, 0x9c, 0x01, 0x00, 0x00, 0x58, 0x01, 0x00, 0x00,
  0x18, 0x01, 0x00, 0x00, 0xd4, 0x00, 0x00, 0x00, 0x94, 0x00, 0x00, 0x00,
  0x6c, 0x00, 0x00, 0x00, 0x28, 0x00, 0x00, 0x00, 0x04, 0x00, 0x00, 0x00,
  0xaa, 0xff, 0xff, 0xff, 0x0c, 0x00, 0x00, 0x00, 0x10, 0x00, 0x00, 0x00,
  0x04, 0x00, 0x00, 0x00, 0x01, 0x00, 0x00, 0x00, 0x19, 0x00, 0x00, 0x00,
  0x01, 0x00, 0x00, 0x00, 0x18, 0x00, 0x00, 0x00, 0xea, 0xfd, 0xff, 0xff,
  0x14, 0x00, 0x00, 0x00, 0x00, 0x00, 0x00, 0x08, 0x10, 0x00, 0x00, 0x00,
  0x14, 0x00, 0x00, 0x00, 0x03, 0x00, 0x00, 0x00, 0xa4, 0xeb, 0xff, 0xff,
  0x01, 0x00, 0x00, 0x00, 0x18, 0x00, 0x00, 0x00, 0x03, 0x00, 0x00, 0x00,
  0x17, 0x00, 0x00, 0x00, 0x03, 0x00, 0x00, 0x00, 0x02, 0x00, 0x00, 0x00,
  0x00, 0x00, 0x0a, 0x00, 0x10, 0x00, 0x0c, 0x00, 0x08, 0x00, 0x04, 0x00,
  0x0a, 0x00, 0x00, 0x00, 0x0c, 0x00, 0x00, 0x00, 0x10, 0x00, 0x00, 0x00,
  0x02, 0x00, 0x00, 0x00, 0x01, 0x00, 0x00, 0x00, 0x17, 0x00, 0x00, 0x00,
  0x02, 0x00, 0x00, 0x00, 0x16, 0x00, 0x00, 0x00, 0x01, 0x00, 0x00, 0x00,
  0xee, 0xfd, 0xff, 0xff, 0x10, 0x00, 0x00, 0x00, 0x00, 0x00, 0x00, 0x01,
  0x18, 0x00, 0x00, 0x00, 0x1c, 0x00, 0x00, 0x00, 0xe0, 0xfd, 0xff, 0xff,
  0x00, 0x00, 0x00, 0x01, 0x01, 0x00, 0x00, 0x00, 0x01, 0x00, 0x00, 0x00,
  0x01, 0x00, 0x00, 0x00, 0x16, 0x00, 0x00, 0x00, 0x03, 0x00, 0x00, 0x00,
  0x15, 0x00, 0x00, 0x00, 0x05, 0x00, 0x00, 0x00, 0x04, 0x00, 0x00, 0x00,
  0x8a, 0xfe, 0xff, 0xff, 0x14, 0x00, 0x00, 0x00, 0x00, 0x00, 0x00, 0x05,
  0x24, 0x00, 0x00, 0x00, 0x28, 0x00, 0x00, 0x00, 0x01, 0x00, 0x00, 0x00,
  0x7a, 0xfe, 0xff, 0xff, 0x02, 0x00, 0x00, 0x00, 0x02, 0x00, 0x00, 0x00,
  0x02, 0x00, 0x00, 0x00, 0x02, 0x00, 0x00, 0x00, 0x00, 0x00, 0x00, 0x01,
  0x01, 0x00, 0x00, 0x00, 0x15, 0x00, 0x00, 0x00, 0x01, 0x00, 0x00, 0x00,
  0x14, 0x00, 0x00, 0x00, 0x6a, 0xfe, 0xff, 0xff, 0x10, 0x00, 0x00, 0x00,
  0x00, 0x00, 0x00, 0x01, 0x18, 0x00, 0x00, 0x00, 0x1c, 0x00, 0x00, 0x00,
  0x5c, 0xfe, 0xff, 0xff, 0x00, 0x00, 0x00, 0x01, 0x01, 0x00, 0x00, 0x00,
  0x01, 0x00, 0x00, 0x00, 0x01, 0x00, 0x00, 0x00, 0x14, 0x00, 0x00, 0x00,
  0x03, 0x00, 0x00, 0x00, 0x13, 0x00, 0x00, 0x00, 0x07, 0x00, 0x00, 0x00,
  0x06, 0x00, 0x00, 0x00, 0x06, 0xff, 0xff, 0xff, 0x14, 0x00, 0x00, 0x00,
  0x00, 0x00, 0x00, 0x05, 0x24, 0x00, 0x00, 0x00, 0x28, 0x00, 0x00, 0x00,
  0x01, 0x00, 0x00, 0x00, 0xf6, 0xfe, 0xff, 0xff, 0x02, 0x00, 0x00, 0x00,
  0x02, 0x00, 0x00, 0x00, 0x02, 0x00, 0x00, 0x00, 0x02, 0x00, 0x00, 0x00,
  0x00, 0x00, 0x00, 0x01, 0x01, 0x00, 0x00, 0x00, 0x13, 0x00, 0x00, 0x00,
  0x01, 0x00, 0x00, 0x00, 0x12, 0x00, 0x00, 0x00, 0xe6, 0xfe, 0xff, 0xff,
  0x10, 0x00, 0x00, 0x00, 0x00, 0x00, 0x00, 0x01, 0x18, 0x00, 0x00, 0x00,
  0x1c, 0x00, 0x00, 0x00, 0xd8, 0xfe, 0xff, 0xff, 0x00, 0x00, 0x00, 0x01,
  0x01, 0x00, 0x00, 0x00, 0x01, 0x00, 0x00, 0x00, 0x01, 0x00, 0x00, 0x00,
  0x12, 0x00, 0x00, 0x00, 0x03, 0x00, 0x00, 0x00, 0x11, 0x00, 0x00, 0x00,
  0x09, 0x00, 0x00, 0x00, 0x08, 0x00, 0x00, 0x00, 0x82, 0xff, 0xff, 0xff,
  0x14, 0x00, 0x00, 0x00, 0x00, 0x00, 0x00, 0x05, 0x24, 0x00, 0x00, 0x00,
  0x28, 0x00, 0x00, 0x00, 0x01, 0x00, 0x00, 0x00, 0x72, 0xff, 0xff, 0xff,
  0x02, 0x00, 0x00, 0x00, 0x02, 0x00, 0x00, 0x00, 0x02, 0x00, 0x00, 0x00,
  0x02, 0x00, 0x00, 0x00, 0x00, 0x00, 0x00, 0x01, 0x01, 0x00, 0x00, 0x00,
  0x11, 0x00, 0x00, 0x00, 0x01, 0x00, 0x00, 0x00, 0x10, 0x00, 0x00, 0x00,
  0x62, 0xff, 0xff, 0xff, 0x10, 0x00, 0x00, 0x00, 0x00, 0x00, 0x00, 0x01,
  0x18, 0x00, 0x00, 0x00, 0x1c, 0x00, 0x00, 0x00, 0x54, 0xff, 0xff, 0xff,
  0x00, 0x00, 0x00, 0x01, 0x01, 0x00, 0x00, 0x00, 0x01, 0x00, 0x00, 0x00,
  0x01, 0x00, 0x00, 0x00, 0x10, 0x00, 0x00, 0x00, 0x03, 0x00, 0x00, 0x00,
  0x0f, 0x00, 0x00, 0x00, 0x0b, 0x00, 0x00, 0x00, 0x0a, 0x00, 0x00, 0x00,
  0x00, 0x00, 0x0e, 0x00, 0x1a, 0x00, 0x14, 0x00, 0x10, 0x00, 0x0c, 0x00,
  0x0b, 0x00, 0x04, 0x00, 0x0e, 0x00, 0x00, 0x00, 0x24, 0x00, 0x00, 0x00,
  0x00, 0x00, 0x00, 0x05, 0x34, 0x00, 0x00, 0x00, 0x38, 0x00, 0x00, 0x00,
  0x01, 0x00, 0x00, 0x00, 0x00, 0x00, 0x0e, 0x00, 0x18, 0x00, 0x17, 0x00,
  0x10, 0x00, 0x0c, 0x00, 0x08, 0x00, 0x04, 0x00, 0x0e, 0x00, 0x00, 0x00,
  0x02, 0x00, 0x00, 0x00, 0x02, 0x00, 0x00, 0x00, 0x02, 0x00, 0x00, 0x00,
  0x02, 0x00, 0x00, 0x00, 0x00, 0x00, 0x00, 0x01, 0x01, 0x00, 0x00, 0x00,
  0x0f, 0x00, 0x00, 0x00, 0x01, 0x00, 0x00, 0x00, 0x0e, 0x00, 0x00, 0x00,
  0x00, 0x00, 0x0e, 0x00, 0x14, 0x00, 0x00, 0x00, 0x10, 0x00, 0x0c, 0x00,
  0x0b, 0x00, 0x04, 0x00, 0x0e, 0x00, 0x00, 0x00, 0x1c, 0x00, 0x00, 0x00,
  0x00, 0x00, 0x00, 0x01, 0x24, 0x00, 0x00, 0x00, 0x28, 0x00, 0x00, 0x00,
  0x0c, 0x00, 0x10, 0x00, 0x00, 0x00, 0x0c, 0x00, 0x08, 0x00, 0x07, 0x00,
  0x0c, 0x00, 0x00, 0x00, 0x00, 0x00, 0x00, 0x01, 0x01, 0x00, 0x00, 0x00,
  0x01, 0x00, 0x00, 0x00, 0x01, 0x00, 0x00, 0x00, 0x0e, 0x00, 0x00, 0x00,
  0x03, 0x00, 0x00, 0x00, 0x00, 0x00, 0x00, 0x00, 0x0d, 0x00, 0x00, 0x00,
  0x0c, 0x00, 0x00, 0x00, 0x01, 0x00, 0x00, 0x00, 0x19, 0x00, 0x00, 0x00,
  0x01, 0x00, 0x00, 0x00, 0x00, 0x00, 0x00, 0x00, 0x1a, 0x00, 0x00, 0x00,
  0xdc, 0x11, 0x00, 0x00, 0x74, 0x11, 0x00, 0x00, 0xe8, 0x10, 0x00, 0x00,
  0x7c, 0x10, 0x00, 0x00, 0x50, 0x0f, 0x00, 0x00, 0x24, 0x0e, 0x00, 0x00,
  0x58, 0x0d, 0x00, 0x00, 0x8c, 0x0c, 0x00, 0x00, 0xc0, 0x0b, 0x00, 0x00,
  0xf4, 0x0a, 0x00, 0x00, 0x58, 0x0a, 0x00, 0x00, 0xbc, 0x09, 0x00, 0x00,
  0x38, 0x09, 0x00, 0x00, 0xb4, 0x08, 0x00, 0x00, 0xd0, 0x07, 0x00, 0x00,
  0x34, 0x07, 0x00, 0x00, 0x48, 0x06, 0x00, 0x00, 0xac, 0x05, 0x00, 0x00,
  0xa0, 0x04, 0x00, 0x00, 0x04, 0x04, 0x00, 0x00, 0x18, 0x03, 0x00, 0x00,
  0x7c, 0x02, 0x00, 0x00, 0x90, 0x01, 0x00, 0x00, 0x14, 0x01, 0x00, 0x00,
  0x80, 0x00, 0x00, 0x00, 0x04, 0x00, 0x00, 0x00, 0xa2, 0xee, 0xff, 0xff,
  0x00, 0x00, 0x00, 0x01, 0x18, 0x00, 0x00, 0x00, 0x20, 0x00, 0x00, 0x00,
  0x3c, 0x00, 0x00, 0x00, 0x1a, 0x00, 0x00, 0x00, 0x00, 0x00, 0x00, 0x09,
  0x50, 0x00, 0x00, 0x00, 0x02, 0x00, 0x00, 0x00, 0xff, 0xff, 0xff, 0xff,
  0x01, 0x00, 0x00, 0x00, 0x84, 0xee, 0xff, 0xff, 0x08, 0x00, 0x00, 0x00,
  0x10, 0x00, 0x00, 0x00, 0x01, 0x00, 0x00, 0x00, 0x80, 0xff, 0xff, 0xff,
  0xff, 0xff, 0xff, 0xff, 0x01, 0x00, 0x00, 0x00, 0x00, 0x00, 0x80, 0x3b,
  0x19, 0x00, 0x00, 0x00, 0x53, 0x74, 0x61, 0x74, 0x65, 0x66, 0x75, 0x6c,
  0x50, 0x61, 0x72, 0x74, 0x69, 0x74, 0x69, 0x6f, 0x6e, 0x65, 0x64, 0x43,
  0x61, 0x6c, 0x6c, 0x3a, 0x30, 0x00, 0x00, 0x00, 0x02, 0x00, 0x00, 0x00,
  0x01, 0x00, 0x00, 0x00, 0x01, 0x00, 0x00, 0x00, 0x1a, 0xef, 0xff, 0xff,
  0x00, 0x00, 0x00, 0x01, 0x18, 0x00, 0x00, 0x00, 0x20, 0x00, 0x00, 0x00,
  0x3c, 0x00, 0x00, 0x00, 0x19, 0x00, 0x00, 0x00, 0x00, 0x00, 0x00, 0x09,
  0x68, 0x00, 0x00, 0x00, 0x02, 0x00, 0x00, 0x00, 0xff, 0xff, 0xff, 0xff,
  0x01, 0x00, 0x00, 0x00, 0xfc, 0xee, 0xff, 0xff, 0x08, 0x00, 0x00, 0x00,
  0x10, 0x00, 0x00, 0x00, 0x01, 0x00, 0x00, 0x00, 0xc5, 0xff, 0xff, 0xff,
  0xff, 0xff, 0xff, 0xff, 0x01, 0x00, 0x00, 0x00, 0xa8, 0x99, 0xfd, 0x3d,
  0x30, 0x00, 0x00, 0x00, 0x73, 0x65, 0x71, 0x75, 0x65, 0x6e, 0x74, 0x69,
  0x61, 0x6c, 0x2f, 0x64, 0x65, 0x6e, 0x73, 0x65, 0x2f, 0x4d, 0x61, 0x74,
  0x4d, 0x75, 0x6c, 0x3b, 0x73, 0x65, 0x71, 0x75, 0x65, 0x6e, 0x74, 0x69,
  0x61, 0x6c, 0x2f, 0x64, 0x65, 0x6e, 0x73, 0x65, 0x2f, 0x42, 0x69, 0x61,
  0x73, 0x41, 0x64, 0x64, 0x00, 0x00, 0x00, 0x00, 0x02, 0x00, 0x00, 0x00,
  0x01, 0x00, 0x00, 0x00, 0x01, 0x00, 0x00, 0x00, 0xaa, 0xef, 0xff, 0xff,
  0x00, 0x00, 0x00, 0x01, 0x18, 0x00, 0x00, 0x00, 0x20, 0x00, 0x00, 0x00,
  0x3c, 0x00, 0x00, 0x00, 0x18, 0x00, 0x00, 0x00, 0x00, 0x00, 0x00, 0x09,
  0x50, 0x00, 0x00, 0x00, 0x02, 0x00, 0x00, 0x00, 0xff, 0xff, 0xff, 0xff,
  0x00, 0x04, 0x00, 0x00, 0x8c, 0xef, 0xff, 0xff, 0x08, 0x00, 0x00, 0x00,
  0x10, 0x00, 0x00, 0x00, 0x01, 0x00, 0x00, 0x00, 0x80, 0xff, 0xff, 0xff,
  0xff, 0xff, 0xff, 0xff, 0x01, 0x00, 0x00, 0x00, 0x46, 0xdb, 0x1c, 0x3d,
  0x1a, 0x00, 0x00, 0x00, 0x73, 0x65, 0x71, 0x75, 0x65, 0x6e, 0x74, 0x69,
  0x61, 0x6c, 0x2f, 0x66, 0x6c, 0x61, 0x74, 0x74, 0x65, 0x6e, 0x2f, 0x52,
  0x65, 0x73, 0x68, 0x61, 0x70, 0x65, 0x00, 0x00, 0x02, 0x00, 0x00, 0x00,
  0x01, 0x00, 0x00, 0x00, 0x00, 0x04, 0x00, 0x00, 0x22, 0xf0, 0xff, 0xff,
  0x00, 0x00, 0x00, 0x01, 0x18, 0x00, 0x00, 0x00, 0x28, 0x00, 0x00, 0x00,
  0x44, 0x00, 0x00, 0x00, 0x17, 0x00, 0x00, 0x00, 0x00, 0x00, 0x00, 0x09,
  0xb8, 0x00, 0x00, 0x00, 0x04, 0x00, 0x00, 0x00, 0xff, 0xff, 0xff, 0xff,
  0x08, 0x00, 0x00, 0x00, 0x08, 0x00, 0x00, 0x00, 0x10, 0x00, 0x00, 0x00,
  0x0c, 0xf0, 0xff, 0xff, 0x08, 0x00, 0x00, 0x00, 0x10, 0x00, 0x00, 0x00,
  0x01, 0x00, 0x00, 0x00, 0x80, 0xff, 0xff, 0xff, 0xff, 0xff, 0xff, 0xff,
  0x01, 0x00, 0x00, 0x00, 0x46, 0xdb, 0x1c, 0x3d, 0x7a, 0x00, 0x00, 0x00,
  0x73, 0x65, 0x71, 0x75, 0x65, 0x6e, 0x74, 0x69, 0x61, 0x6c, 0x2f, 0x63,
  0x6f, 0x6e, 0x76, 0x32, 0x64, 0x5f, 0x34, 0x2f, 0x52, 0x65, 0x6c, 0x75,
  0x3b, 0x73, 0x65, 0x71, 0x75, 0x65, 0x6e, 0x74, 0x69, 0x61, 0x6c, 0x2f,
  0x63, 0x6f, 0x6e, 0x76, 0x32, 0x64, 0x5f, 0x34, 0x2f, 0x42, 0x69, 0x61,
  0x73, 0x41, 0x64, 0x64, 0x3b, 0x73, 0x65, 0x71, 0x75, 0x65, 0x6e, 0x74,
  0x69, 0x61, 0x6c, 0x2f, 0x63, 0x6f, 0x6e, 0x76, 0x32, 0x64, 0x5f, 0x34,
  0x2f, 0x43, 0x6f, 0x6e, 0x76, 0x32, 0x44, 0x3b, 0x73, 0x65, 0x71, 0x75,
  0x65, 0x6e, 0x74, 0x69, 0x61, 0x6c, 0x2f, 0x63, 0x6f, 0x6e, 0x76, 0x32,
  0x64, 0x5f, 0x34, 0x2f, 0x42, 0x69, 0x61, 0x73, 0x41, 0x64, 0x64, 0x2f,
  0x52, 0x65, 0x61, 0x64, 0x56, 0x61, 0x72, 0x69, 0x61, 0x62, 0x6c, 0x65,
  0x4f, 0x70, 0x00, 0x00, 0x04, 0x00, 0x00, 0x00, 0x01, 0x00, 0x00, 0x00,
  0x08, 0x00, 0x00, 0x00, 0x08, 0x00, 0x00, 0x00, 0x10, 0x00, 0x00, 0x00,
  0x0a, 0xf1, 0xff, 0xff, 0x00, 0x00, 0x00, 0x01, 0x18, 0x00, 0x00, 0x00,
  0x28, 0x00, 0x00, 0x00, 0x48, 0x00, 0x00, 0x00, 0x16, 0x00, 0x00, 0x00,
  0x00, 0x00, 0x00, 0x09, 0x68, 0x00, 0x00, 0x00, 0x04, 0x00, 0x00, 0x00,
  0xff, 0xff, 0xff, 0xff, 0x08, 0x00, 0x00, 0x00, 0x08, 0x00, 0x00, 0x00,
  0x08, 0x00, 0x00, 0x00, 0xf4, 0xf0, 0xff, 0xff, 0x08, 0x00, 0x00, 0x00,
  0x14, 0x00, 0x00, 0x00, 0x01, 0x00, 0x00, 0x00, 0x80, 0xff, 0xff, 0xff,
  0xff, 0xff, 0xff, 0xff, 0x00, 0x00, 0x00, 0x00, 0x01, 0x00, 0x00, 0x00,
  0xa0, 0x44, 0x9c, 0x3d, 0x26, 0x00, 0x00, 0x00, 0x73, 0x65, 0x71, 0x75,
  0x65, 0x6e, 0x74, 0x69, 0x61, 0x6c, 0x2f, 0x61, 0x76, 0x65, 0x72, 0x61,
  0x67, 0x65, 0x5f, 0x70, 0x6f, 0x6f, 0x6c, 0x69, 0x6e, 0x67, 0x32, 0x64,
  0x5f, 0x33, 0x2f, 0x41, 0x76, 0x67, 0x50, 0x6f, 0x6f, 0x6c, 0x00, 0x00,
  0x04, 0x00, 0x00, 0x00, 0x01, 0x00, 0x00, 0x00, 0x08, 0x00, 0x00, 0x00,
  0x08, 0x00, 0x00, 0x00, 0x08, 0x00, 0x00, 0x00, 0xa2, 0xf1, 0xff, 0xff,
  0x00, 0x00, 0x00, 0x01, 0x18, 0x00, 0x00, 0x00, 0x28, 0x00, 0x00, 0x00,
  0x44, 0x00, 0x00, 0x00, 0x15, 0x00, 0x00, 0x00, 0x00, 0x00, 0x00, 0x09,
  0xb8, 0x00, 0x00, 0x00, 0x04, 0x00, 0x00, 0x00, 0xff, 0xff, 0xff, 0xff,
  0x10, 0x00, 0x00, 0x00, 0x10, 0x00, 0x00, 0x00, 0x08, 0x00, 0x00, 0x00,
  0x8c, 0xf1, 0xff, 0xff, 0x08, 0x00, 0x00, 0x00, 0x10, 0x00, 0x00, 0x00,
  0x01, 0x00, 0x00, 0x00, 0x80, 0xff, 0xff, 0xff, 0xff, 0xff, 0xff, 0xff,
  0x01, 0x00, 0x00, 0x00, 0xa0, 0x44, 0x9c, 0x3d, 0x7a, 0x00, 0x00, 0x00,
  0x73, 0x65, 0x71, 0x75, 0x65, 0x6e, 0x74, 0x69, 0x61, 0x6c, 0x2f, 0x63,
  0x6f, 0x6e, 0x76, 0x32, 0x64, 0x5f, 0x33, 0x2f, 0x52, 0x65, 0x6c, 0x75,
  0x3b, 0x73, 0x65, 0x71, 0x75, 0x65, 0x6e, 0x74, 0x69, 0x61, 0x6c, 0x2f,
  0x63, 0x6f, 0x6e, 0x76, 0x32, 0x64, 0x5f, 0x33, 0x2f, 0x42, 0x69, 0x61,
  0x73, 0x41, 0x64, 0x64, 0x3b, 0x73, 0x65, 0x71, 0x75, 0x65, 0x6e, 0x74,
  0x69, 0x61, 0x6c, 0x2f, 0x63, 0x6f, 0x6e, 0x76, 0x32, 0x64, 0x5f, 0x33,
  0x2f, 0x43, 0x6f, 0x6e, 0x76, 0x32, 0x44, 0x3b, 0x73, 0x65, 0x71, 0x75,
  0x65, 0x6e, 0x74, 0x69, 0x61, 0x6c, 0x2f, 0x63, 0x6f, 0x6e, 0x76, 0x32,
  0x64, 0x5f, 0x33, 0x2f, 0x42, 0x69, 0x61, 0x73, 0x41, 0x64, 0x64, 0x2f,
  0x52, 0x65, 0x61, 0x64, 0x56, 0x61, 0x72, 0x69, 0x61, 0x62, 0x6c, 0x65,
  0x4f, 0x70, 0x00, 0x00, 0x04, 0x00, 0x00, 0x00, 0x01, 0x00, 0x00, 0x00,
  0x10, 0x00, 0x00, 0x00, 0x10, 0x00, 0x00, 0x00, 0x08, 0x00, 0x00, 0x00,
  0x8a, 0xf2, 0xff, 0xff, 0x00, 0x00, 0x00, 0x01, 0x18, 0x00, 0x00, 0x00,
  0x28, 0x00, 0x00, 0x00, 0x48, 0x00, 0x00, 0x00, 0x14, 0x00, 0x00, 0x00,
  0x00, 0x00, 0x00, 0x09, 0x68, 0x00, 0x00, 0x00, 0x04, 0x00, 0x00, 0x00,
  0xff, 0xff, 0xff, 0xff, 0x10, 0x00, 0x00, 0x00, 0x10, 0x00, 0x00, 0x00,
  0x08, 0x00, 0x00, 0x00, 0x74, 0xf2, 0xff, 0xff, 0x08, 0x00, 0x00, 0x00,
  0x14, 0x00, 0x00, 0x00, 0x01, 0x00, 0x00, 0x00, 0x80, 0xff, 0xff, 0xff,
  0xff, 0xff, 0xff, 0xff, 0x00, 0x00, 0x00, 0x00, 0x01, 0x00, 0x00, 0x00,
  0x49, 0x70, 0xcf, 0x3d, 0x26, 0x00, 0x00, 0x00, 0x73, 0x65, 0x71, 0x75,
  0x65, 0x6e, 0x74, 0x69, 0x61, 0x6c, 0x2f, 0x61, 0x76, 0x65, 0x72, 0x61,
  0x67, 0x65, 0x5f, 0x70, 0x6f, 0x6f, 0x6c, 0x69, 0x6e, 0x67, 0x32, 0x64,
  0x5f, 0x32, 0x2f, 0x41, 0x76, 0x67, 0x50, 0x6f, 0x6f, 0x6c, 0x00, 0x00,
  0x04, 0x00, 0x00, 0x00, 0x01, 0x00, 0x00, 0x00, 0x10, 0x00, 0x00, 0x00,
  0x10, 0x00, 0x00, 0x00, 0x08, 0x00, 0x00, 0x00, 0x22, 0xf3, 0xff, 0xff,
  0x00, 0x00, 0x00, 0x01, 0x18, 0x00, 0x00, 0x00, 0x28, 0x00, 0x00, 0x00,
  0x48, 0x00, 0x00, 0x00, 0x13, 0x00, 0x00, 0x00, 0x00, 0x00, 0x00, 0x09,
  0xd8, 0x00, 0x00, 0x00, 0x04, 0x00, 0x00, 0x00, 0xff, 0xff, 0xff, 0xff,
  0x20, 0x00, 0x00, 0x00, 0x20, 0x00, 0x00, 0x00, 0x08, 0x00, 0x00, 0x00,
  0x0c, 0xf3, 0xff, 0xff, 0x08, 0x00, 0x00, 0x00, 0x14, 0x00, 0x00, 0x00,
  0x01, 0x00, 0x00, 0x00, 0x80, 0xff, 0xff, 0xff, 0xff, 0xff, 0xff, 0xff,
  0x00, 0x00, 0x00, 0x00, 0x01, 0x00, 0x00, 0x00, 0x49, 0x70, 0xcf, 0x3d,
  0x95, 0x00, 0x00, 0x00, 0x73, 0x65, 0x71, 0x75, 0x65, 0x6e, 0x74, 0x69,
  0x61, 0x6c, 0x2f, 0x63, 0x6f, 0x6e, 0x76, 0x32, 0x64, 0x5f, 0x32, 0x2f,
  0x52, 0x65, 0x6c, 0x75, 0x3b, 0x73, 0x65, 0x71, 0x75, 0x65, 0x6e, 0x74,
  0x69, 0x61, 0x6c, 0x2f, 0x63, 0x6f, 0x6e, 0x76, 0x32, 0x64, 0x5f, 0x32,
  0x2f, 0x42, 0x69, 0x61, 0x73, 0x41, 0x64, 0x64, 0x3b, 0x73, 0x65, 0x71,
  0x75, 0x65, 0x6e, 0x74, 0x69, 0x61, 0x6c, 0x2f, 0x63, 0x6f, 0x6e, 0x76,
  0x32, 0x64, 0x5f, 0x33, 0x2f, 0x43, 0x6f, 0x6e, 0x76, 0x32, 0x44, 0x3b,
  0x73, 0x65, 0x71, 0x75, 0x65, 0x6e, 0x74, 0x69, 0x61, 0x6c, 0x2f, 0x63,
  0x6f, 0x6e, 0x76, 0x32, 0x64, 0x5f, 0x32, 0x2f, 0x43, 0x6f, 0x6e, 0x76,
  0x32, 0x44, 0x3b, 0x73, 0x65, 0x71, 0x75, 0x65, 0x6e, 0x74, 0x69, 0x61,
  0x6c, 0x2f, 0x63, 0x6f, 0x6e, 0x76, 0x32, 0x64, 0x5f, 0x32, 0x2f, 0x42,
  0x69, 0x61, 0x73, 0x41, 0x64, 0x64, 0x2f, 0x52, 0x65, 0x61, 0x64, 0x56,
  0x61, 0x72, 0x69, 0x61, 0x62, 0x6c, 0x65, 0x4f, 0x70, 0x00, 0x00, 0x00,
  0x04, 0x00, 0x00, 0x00, 0x01, 0x00, 0x00, 0x00, 0x20, 0x00, 0x00, 0x00,
  0x20, 0x00, 0x00, 0x00, 0x08, 0x00, 0x00, 0x00, 0x2a, 0xf4, 0xff, 0xff,
  0x00, 0x00, 0x00, 0x01, 0x18, 0x00, 0x00, 0x00, 0x28, 0x00, 0x00, 0x00,
  0x48, 0x00, 0x00, 0x00, 0x12, 0x00, 0x00, 0x00, 0x00, 0x00, 0x00, 0x09,
  0x68, 0x00, 0x00, 0x00, 0x04, 0x00, 0x00, 0x00, 0xff, 0xff, 0xff, 0xff,
  0x20, 0x00, 0x00, 0x00, 0x20, 0x00, 0x00, 0x00, 0x04, 0x00, 0x00, 0x00,
  0x14, 0xf4, 0xff, 0xff, 0x08, 0x00, 0x00, 0x00, 0x14, 0x00, 0x00, 0x00,
  0x01, 0x00, 0x00, 0x00, 0x80, 0xff, 0xff, 0xff, 0xff, 0xff, 0xff, 0xff,
  0x00, 0x00, 0x00, 0x00, 0x01, 0x00, 0x00, 0x00, 0x7f, 0x4b, 0x9b, 0x3e,
  0x26, 0x00, 0x00, 0x00, 0x73, 0x65, 0x71, 0x75, 0x65, 0x6e, 0x74, 0x69,
  0x61, 0x6c, 0x2f, 0x61, 0x76, 0x65, 0x72, 0x61, 0x67, 0x65, 0x5f, 0x70,
  0x6f, 0x6f, 0x6c, 0x69, 0x6e, 0x67, 0x32, 0x64, 0x5f, 0x31, 0x2f, 0x41,
  0x76, 0x67, 0x50, 0x6f, 0x6f, 0x6c, 0x00, 0x00, 0x04, 0x00, 0x00, 0x00,
  0x01, 0x00, 0x00, 0x00, 0x20, 0x00, 0x00, 0x00, 0x20, 0x00, 0x00, 0x00,
  0x04, 0x00, 0x00, 0x00, 0xc2, 0xf4, 0xff, 0xff, 0x00, 0x00, 0x00, 0x01,
  0x18, 0x00, 0x00, 0x00, 0x28, 0x00, 0x00, 0x00, 0x44, 0x00, 0x00, 0x00,
  0x11, 0x00, 0x00, 0x00, 0x00, 0x00, 0x00, 0x09, 0xb8, 0x00, 0x00, 0x00,
  0x04, 0x00, 0x00, 0x00, 0xff, 0xff, 0xff, 0xff, 0x40, 0x00, 0x00, 0x00,
  0x40, 0x00, 0x00, 0x00, 0x04, 0x00, 0x00, 0x00, 0xac, 0xf4, 0xff, 0xff,
  0x08, 0x00, 0x00, 0x00, 0x10, 0x00, 0x00, 0x00, 0x01, 0x00, 0x00, 0x00,
  0x80, 0xff, 0xff, 0xff, 0xff, 0xff, 0xff, 0xff, 0x01, 0x00, 0x00, 0x00,
  0x7f, 0x4b, 0x9b, 0x3e, 0x7a, 0x00, 0x00, 0x00, 0x73, 0x65, 0x71, 0x75,
  0x65, 0x6e, 0x74, 0x69, 0x61, 0x6c, 0x2f, 0x63, 0x6f, 0x6e, 0x76, 0x32,
  0x64, 0x5f, 0x31, 0x2f, 0x52, 0x65, 0x6c, 0x75, 0x3b, 0x73, 0x65, 0x71,
  0x75, 0x65, 0x6e, 0x74, 0x69, 0x61, 0x6c, 0x2f, 0x63, 0x6f, 0x6e, 0x76,
  0x32, 0x64, 0x5f, 0x31, 0x2f, 0x42, 0x69, 0x61, 0x73, 0x41, 0x64, 0x64,
  0x3b, 0x73, 0x65, 0x71, 0x75, 0x65, 0x6e, 0x74, 0x69, 0x61, 0x6c, 0x2f,
  0x63, 0x6f, 0x6e, 0x76, 0x32, 0x64, 0x5f, 0x31, 0x2f, 0x43, 0x6f, 0x6e,
  0x76, 0x32, 0x44, 0x3b, 0x73, 0x65, 0x71, 0x75, 0x65, 0x6e, 0x74, 0x69,
  0x61, 0x6c, 0x2f, 0x63, 0x6f, 0x6e, 0x76, 0x32, 0x64, 0x5f, 0x31, 0x2f,
  0x42, 0x69, 0x61, 0x73, 0x41, 0x64, 0x64, 0x2f, 0x52, 0x65, 0x61, 0x64,
  0x56, 0x61, 0x72, 0x69, 0x61, 0x62, 0x6c, 0x65, 0x4f, 0x70, 0x00, 0x00,
  0x04, 0x00, 0x00, 0x00, 0x01, 0x00, 0x00, 0x00, 0x40, 0x00, 0x00, 0x00,
  0x40, 0x00, 0x00, 0x00, 0x04, 0x00, 0x00, 0x00, 0xaa, 0xf5, 0xff, 0xff,
  0x00, 0x00, 0x00, 0x01, 0x18, 0x00, 0x00, 0x00, 0x28, 0x00, 0x00, 0x00,
  0x48, 0x00, 0x00, 0x00, 0x10, 0x00, 0x00, 0x00, 0x00, 0x00, 0x00, 0x09,
  0x68, 0x00, 0x00, 0x00, 0x04, 0x00, 0x00, 0x00, 0xff, 0xff, 0xff, 0xff,
  0x40, 0x00, 0x00, 0x00, 0x40, 0x00, 0x00, 0x00, 0x02, 0x00, 0x00, 0x00,
  0x94, 0xf5, 0xff, 0xff, 0x08, 0x00, 0x00, 0x00, 0x14, 0x00, 0x00, 0x00,
  0x01, 0x00, 0x00, 0x00, 0x80, 0xff, 0xff, 0xff, 0xff, 0xff, 0xff, 0xff,
  0x00, 0x00, 0x00, 0x00, 0x01, 0x00, 0x00, 0x00, 0x03, 0x09, 0x89, 0x3f,
  0x24, 0x00, 0x00, 0x00, 0x73, 0x65, 0x71, 0x75, 0x65, 0x6e, 0x74, 0x69,
  0x61, 0x6c, 0x2f, 0x61, 0x76, 0x65, 0x72, 0x61, 0x67, 0x65, 0x5f, 0x70,
  0x6f, 0x6f, 0x6c, 0x69, 0x6e, 0x67, 0x32, 0x64, 0x2f, 0x41, 0x76, 0x67,
  0x50, 0x6f, 0x6f, 0x6c, 0x00, 0x00, 0x00, 0x00, 0x04, 0x00, 0x00, 0x00,
  0x01, 0x00, 0x00, 0x00, 0x40, 0x00, 0x00, 0x00, 0x40, 0x00, 0x00, 0x00,
  0x02, 0x00, 0x00, 0x00, 0x42, 0xf6, 0xff, 0xff, 0x00, 0x00, 0x00, 0x01,
  0x18, 0x00, 0x00, 0x00, 0x28, 0x00, 0x00, 0x00, 0x44, 0x00, 0x00, 0x00,
  0x0f, 0x00, 0x00, 0x00, 0x00, 0x00, 0x00, 0x09, 0xb0, 0x00, 0x00, 0x00,
  0x04, 0x00, 0x00, 0x00, 0xff, 0xff, 0xff, 0xff, 0x80, 0x00, 0x00, 0x00,
  0x80, 0x00, 0x00, 0x00, 0x02, 0x00, 0x00, 0x00, 0x2c, 0xf6, 0xff, 0xff,
  0x08, 0x00, 0x00, 0x00, 0x10, 0x00, 0x00, 0x00, 0x01, 0x00, 0x00, 0x00,
  0x80, 0xff, 0xff, 0xff, 0xff, 0xff, 0xff, 0xff, 0x01, 0x00, 0x00, 0x00,
  0x03, 0x09, 0x89, 0x3f, 0x72, 0x00, 0x00, 0x00, 0x73, 0x65, 0x71, 0x75,
  0x65, 0x6e, 0x74, 0x69, 0x61, 0x6c, 0x2f, 0x63, 0x6f, 0x6e, 0x76, 0x32,
  0x64, 0x2f, 0x52, 0x65, 0x6c, 0x75, 0x3b, 0x73, 0x65, 0x71, 0x75, 0x65,
  0x6e, 0x74, 0x69, 0x61, 0x6c, 0x2f, 0x63, 0x6f, 0x6e, 0x76, 0x32, 0x64,
  0x2f, 0x42, 0x69, 0x61, 0x73, 0x41, 0x64, 0x64, 0x3b, 0x73, 0x65, 0x71,
  0x75, 0x65, 0x6e, 0x74, 0x69, 0x61, 0x6c, 0x2f, 0x63, 0x6f, 0x6e, 0x76,
  0x32, 0x64, 0x2f, 0x43, 0x6f, 0x6e, 0x76, 0x32, 0x44, 0x3b, 0x73, 0x65,
  0x71, 0x75, 0x65, 0x6e, 0x74, 0x69, 0x61, 0x6c, 0x2f, 0x63, 0x6f, 0x6e,
  0x76, 0x32, 0x64, 0x2f, 0x42, 0x69, 0x61, 0x73, 0x41, 0x64, 0x64, 0x2f,
  0x52, 0x65, 0x61, 0x64, 0x56, 0x61, 0x72, 0x69, 0x61, 0x62, 0x6c, 0x65,
  0x4f, 0x70, 0x00, 0x00, 0x04, 0x00, 0x00, 0x00, 0x01, 0x00, 0x00, 0x00,
  0x80, 0x00, 0x00, 0x00, 0x80, 0x00, 0x00, 0x00, 0x02, 0x00, 0x00, 0x00,
  0x86, 0xf7, 0xff, 0xff, 0x00, 0x00, 0x00, 0x01, 0x14, 0x00, 0x00, 0x00,
  0x40, 0x00, 0x00, 0x00, 0x0e, 0x00, 0x00, 0x00, 0x00, 0x00, 0x00, 0x09,
  0x54, 0x00, 0x00, 0x00, 0xf4, 0xf6, 0xff, 0xff, 0x08, 0x00, 0x00, 0x00,
  0x1c, 0x00, 0x00, 0x00, 0x02, 0x00, 0x00, 0x00, 0x00, 0x00, 0x00, 0x00,
  0x00, 0x00, 0x00, 0x00, 0x00, 0x00, 0x00, 0x00, 0x00, 0x00, 0x00, 0x00,
  0x00, 0x00, 0x00, 0x00, 0x02, 0x00, 0x00, 0x00, 0x1d, 0x71, 0x38, 0x3b,
  0xd6, 0xda, 0x68, 0x3b, 0x18, 0x00, 0x00, 0x00, 0x73, 0x65, 0x71, 0x75,
  0x65, 0x6e, 0x74, 0x69, 0x61, 0x6c, 0x2f, 0x63, 0x6f, 0x6e, 0x76, 0x32,
  0x64, 0x2f, 0x43, 0x6f, 0x6e, 0x76, 0x32, 0x44, 0x00, 0x00, 0x00, 0x00,
  0x04, 0x00, 0x00, 0x00, 0x02, 0x00, 0x00, 0x00, 0x03, 0x00, 0x00, 0x00,
  0x03, 0x00, 0x00, 0x00, 0x01, 0x00, 0x00, 0x00, 0x06, 0xf8, 0xff, 0xff,
  0x00, 0x00, 0x00, 0x01, 0x14, 0x00, 0x00, 0x00, 0x3c, 0x00, 0x00, 0x00,
  0x0d, 0x00, 0x00, 0x00, 0x00, 0x00, 0x00, 0x02, 0x60, 0x00, 0x00, 0x00,
  0x74, 0xf7, 0xff, 0xff, 0x08, 0x00, 0x00, 0x00, 0x18, 0x00, 0x00, 0x00,
  0x02, 0x00, 0x00, 0x00, 0x00, 0x00, 0x00, 0x00, 0x00, 0x00, 0x00, 0x00,
  0x00, 0x00, 0x00, 0x00, 0x00, 0x00, 0x00, 0x00, 0x02, 0x00, 0x00, 0x00,
  0x1d, 0x71, 0x38, 0x3b, 0xd6, 0xda, 0x68, 0x3b, 0x28, 0x00, 0x00, 0x00,
  0x73, 0x65, 0x71, 0x75, 0x65, 0x6e, 0x74, 0x69, 0x61, 0x6c, 0x2f, 0x63,
  0x6f, 0x6e, 0x76, 0x32, 0x64, 0x2f, 0x42, 0x69, 0x61, 0x73, 0x41, 0x64,
  0x64, 0x2f, 0x52, 0x65, 0x61, 0x64, 0x56, 0x61, 0x72, 0x69, 0x61, 0x62,
  0x6c, 0x65, 0x4f, 0x70, 0x00, 0x00, 0x00, 0x00, 0x01, 0x00, 0x00, 0x00,
  0x02, 0x00, 0x00, 0x00, 0x86, 0xf8, 0xff, 0xff, 0x00, 0x00, 0x00, 0x01,
  0x14, 0x00, 0x00, 0x00, 0x58, 0x00, 0x00, 0x00, 0x0c, 0x00, 0x00, 0x00,
  0x00, 0x00, 0x00, 0x09, 0x6c, 0x00, 0x00, 0x00, 0xf4, 0xf7, 0xff, 0xff,
  0x08, 0x00, 0x00, 0x00, 0x2c, 0x00, 0x00, 0x00, 0x04, 0x00, 0x00, 0x00,
  0x00, 0x00, 0x00, 0x00, 0x00, 0x00, 0x00, 0x00, 0x00, 0x00, 0x00, 0x00,
  0x00, 0x00, 0x00, 0x00, 0x00, 0x00, 0x00, 0x00, 0x00, 0x00, 0x00, 0x00,
  0x00, 0x00, 0x00, 0x00, 0x00, 0x00, 0x00, 0x00, 0x00, 0x00, 0x00, 0x00,
  0x04, 0x00, 0x00, 0x00, 0x7a, 0x9f, 0x25, 0x3b, 0x97, 0x80, 0x95, 0x3b,
  0x31, 0xad, 0x22, 0x3b, 0x85, 0xd5, 0x34, 0x3b, 0x1a, 0x00, 0x00, 0x00,
  0x73, 0x65, 0x71, 0x75, 0x65, 0x6e, 0x74, 0x69, 0x61, 0x6c, 0x2f, 0x63,
  0x6f, 0x6e, 0x76, 0x32, 0x64, 0x5f, 0x31, 0x2f, 0x43, 0x6f, 0x6e, 0x76,
  0x32, 0x44, 0x00, 0x00, 0x04, 0x00, 0x00, 0x00, 0x04, 0x00, 0x00, 0x00,
  0x03, 0x00, 0x00, 0x00, 0x03, 0x00, 0x00, 0x00, 0x02, 0x00, 0x00, 0x00,
  0x1e, 0xf9, 0xff, 0xff, 0x00, 0x00, 0x00, 0x01, 0x14, 0x00, 0x00, 0x00,
  0x54, 0x00, 0x00, 0x00, 0x0b, 0x00, 0x00, 0x00, 0x00, 0x00, 0x00, 0x02,
  0x78, 0x00, 0x00, 0x00, 0x8c, 0xf8, 0xff, 0xff, 0x08, 0x00, 0x00, 0x00,
  0x28, 0x00, 0x00, 0x00, 0x04, 0x00, 0x00, 0x00, 0x00, 0x00, 0x00, 0x00,
  0x00, 0x00, 0x00, 0x00, 0x00, 0x00, 0x00, 0x00, 0x00, 0x00, 0x00, 0x00,
  0x00, 0x00, 0x00, 0x00, 0x00, 0x00, 0x00, 0x00, 0x00, 0x00, 0x00, 0x00,
  0x00, 0x00, 0x00, 0x00, 0x04, 0x00, 0x00, 0x00, 0x5a, 0x50, 0x31, 0x3b,
  0x28, 0x0e, 0xa0, 0x3b, 0xd2, 0x28, 0x2e, 0x3b, 0x44, 0x99, 0x41, 0x3b,
  0x2a, 0x00, 0x00, 0x00, 0x73, 0x65, 0x71, 0x75, 0x65, 0x6e, 0x74, 0x69,
  0x61, 0x6c, 0x2f, 0x63, 0x6f, 0x6e, 0x76, 0x32, 0x64, 0x5f, 0x31, 0x2f,
  0x42, 0x69, 0x61, 0x73, 0x41, 0x64, 0x64, 0x2f, 0x52, 0x65, 0x61, 0x64,
  0x56, 0x61, 0x72, 0x69, 0x61, 0x62, 0x6c, 0x65, 0x4f, 0x70, 0x00, 0x00,
  0x01, 0x00, 0x00, 0x00, 0x04, 0x00, 0x00, 0x00, 0xb6, 0xf9, 0xff, 0xff,
  0x00, 0x00, 0x00, 0x01, 0x14, 0x00, 0x00, 0x00, 0x88, 0x00, 0x00, 0x00,
  0x0a, 0x00, 0x00, 0x00, 0x00, 0x00, 0x00, 0x09, 0x9c, 0x00, 0x00, 0x00,
  0x24, 0xf9, 0xff, 0xff, 0x08, 0x00, 0x00, 0x00, 0x4c, 0x00, 0x00, 0x00,
  0x08, 0x00, 0x00, 0x00, 0x00, 0x00, 0x00, 0x00, 0x00, 0x00, 0x00, 0x00,
  0x00, 0x00, 0x00, 0x00, 0x00, 0x00, 0x00, 0x00, 0x00, 0x00, 0x00, 0x00,
  0x00, 0x00, 0x00, 0x00, 0x00, 0x00, 0x00, 0x00, 0x00, 0x00, 0x00, 0x00,
  0x00, 0x00, 0x00, 0x00, 0x00, 0x00, 0x00, 0x00, 0x00, 0x00, 0x00, 0x00,
  0x00, 0x00, 0x00, 0x00, 0x00, 0x00, 0x00, 0x00, 0x00, 0x00, 0x00, 0x00,
  0x00, 0x00, 0x00, 0x00, 0x00, 0x00, 0x00, 0x00, 0x00, 0x00, 0x00, 0x00,
  0x08, 0x00, 0x00, 0x00, 0xc2, 0x1a, 0x66, 0x3b, 0xb0, 0xf1, 0x84, 0x3b,
  0x99, 0x55, 0x52, 0x3b, 0xb4, 0xde, 0x70, 0x3b, 0x46, 0xf7, 0x58, 0x3b,
  0x3f, 0x86, 0x36, 0x3b, 0x85, 0x82, 0x36, 0x3b, 0x38, 0xb4, 0x3f, 0x3b,
  0x1a, 0x00, 0x00, 0x00, 0x73, 0x65, 0x71, 0x75, 0x65, 0x6e, 0x74, 0x69,
  0x61, 0x6c, 0x2f, 0x63, 0x6f, 0x6e, 0x76, 0x32, 0x64, 0x5f, 0x32, 0x2f,
  0x43, 0x6f, 0x6e, 0x76, 0x32, 0x44, 0x00, 0x00, 0x04, 0x00, 0x00, 0x00,
  0x08, 0x00, 0x00, 0x00, 0x03, 0x00, 0x00, 0x00, 0x03, 0x00, 0x00, 0x00,
  0x04, 0x00, 0x00, 0x00, 0x7e, 0xfa, 0xff, 0xff, 0x00, 0x00, 0x00, 0x01,
  0x14, 0x00, 0x00, 0x00, 0x84, 0x00, 0x00, 0x00, 0x09, 0x00, 0x00, 0x00,
  0x00, 0x00, 0x00, 0x02, 0xa8, 0x00, 0x00, 0x00, 0xec, 0xf9, 0xff, 0xff,
  0x08, 0x00, 0x00, 0x00, 0x48, 0x00, 0x00, 0x00, 0x08, 0x00, 0x00, 0x00,
  0x00, 0x00, 0x00, 0x00, 0x00, 0x00, 0x00, 0x00, 0x00, 0x00, 0x00, 0x00,
  0x00, 0x00, 0x00, 0x00, 0x00, 0x00, 0x00, 0x00, 0x00, 0x00, 0x00, 0x00,
  0x00, 0x00, 0x00, 0x00, 0x00, 0x00, 0x00, 0x00, 0x00, 0x00, 0x00, 0x00,
  0x00, 0x00, 0x00, 0x00, 0x00, 0x00, 0x00, 0x00, 0x00, 0x00, 0x00, 0x00,
  0x00, 0x00, 0x00, 0x00, 0x00, 0x00, 0x00, 0x00, 0x00, 0x00, 0x00, 0x00,
  0x00, 0x00, 0x00, 0x00, 0x08, 0x00, 0x00, 0x00, 0x0f, 0x96, 0x8b, 0x3a,
  0x15, 0x4b, 0xa1, 0x3a, 0xb6, 0x2f, 0x7f, 0x3a, 0xe0, 0x1d, 0x92, 0x3a,
  0xb3, 0x9d, 0x83, 0x3a, 0x38, 0x72, 0x5d, 0x3a, 0xb3, 0x6d, 0x5d, 0x3a,
  0x4e, 0x95, 0x68, 0x3a, 0x2a, 0x00, 0x00, 0x00, 0x73, 0x65, 0x71, 0x75,
  0x65, 0x6e, 0x74, 0x69, 0x61, 0x6c, 0x2f, 0x63, 0x6f, 0x6e, 0x76, 0x32,
  0x64, 0x5f, 0x32, 0x2f, 0x42, 0x69, 0x61, 0x73, 0x41, 0x64, 0x64, 0x2f,
  0x52, 0x65, 0x61, 0x64, 0x56, 0x61, 0x72, 0x69, 0x61, 0x62, 0x6c, 0x65,
  0x4f, 0x70, 0x00, 0x00, 0x01, 0x00, 0x00, 0x00, 0x08, 0x00, 0x00, 0x00,
  0x46, 0xfb, 0xff, 0xff, 0x00, 0x00, 0x00, 0x01, 0x14, 0x00, 0x00, 0x00,
  0x88, 0x00, 0x00, 0x00, 0x08, 0x00, 0x00, 0x00, 0x00, 0x00, 0x00, 0x09,
  0x9c, 0x00, 0x00, 0x00, 0xb4, 0xfa, 0xff, 0xff, 0x08, 0x00, 0x00, 0x00,
  0x4c, 0x00, 0x00, 0x00, 0x08, 0x00, 0x00, 0x00, 0x00, 0x00, 0x00, 0x00,
  0x00, 0x00, 0x00, 0x00, 0x00, 0x00, 0x00, 0x00, 0x00, 0x00, 0x00, 0x00,
  0x00, 0x00, 0x00, 0x00, 0x00, 0x00, 0x00, 0x00, 0x00, 0x00, 0x00, 0x00,
  0x00, 0x00, 0x00, 0x00, 0x00, 0x00, 0x00, 0x00, 0x00, 0x00, 0x00, 0x00,
  0x00, 0x00, 0x00, 0x00, 0x00, 0x00, 0x00, 0x00, 0x00, 0x00, 0x00, 0x00,
  0x00, 0x00, 0x00, 0x00, 0x00, 0x00, 0x00, 0x00, 0x00, 0x00, 0x00, 0x00,
  0x00, 0x00, 0x00, 0x00, 0x08, 0x00, 0x00, 0x00, 0x49, 0x55, 0x2e, 0x3b,
  0xb4, 0x89, 0x5a, 0x3b, 0x35, 0x31, 0x42, 0x3b, 0xc8, 0xaa, 0x4f, 0x3b,
  0x5e, 0x09, 0x42, 0x3b, 0x43, 0x01, 0x52, 0x3b, 0xd5, 0x57, 0x51, 0x3b,
  0x2c, 0x20, 0x60, 0x3b, 0x1a, 0x00, 0x00, 0x00, 0x73, 0x65, 0x71, 0x75,
  0x65, 0x6e, 0x74, 0x69, 0x61, 0x6c, 0x2f, 0x63, 0x6f, 0x6e, 0x76, 0x32,
  0x64, 0x5f, 0x33, 0x2f, 0x43, 0x6f, 0x6e, 0x76, 0x32, 0x44, 0x00, 0x00,
  0x04, 0x00, 0x00, 0x00, 0x08, 0x00, 0x00, 0x00, 0x03, 0x00, 0x00, 0x00,
  0x03, 0x00, 0x00, 0x00, 0x08, 0x00, 0x00, 0x00, 0x0e, 0xfc, 0xff, 0xff,
  0x00, 0x00, 0x00, 0x01, 0x14, 0x00, 0x00, 0x00, 0x84, 0x00, 0x00, 0x00,
  0x07, 0x00, 0x00, 0x00, 0x00, 0x00, 0x00, 0x02, 0xa8, 0x00, 0x00, 0x00,
  0x7c, 0xfb, 0xff, 0xff, 0x08, 0x00, 0x00, 0x00, 0x48, 0x00, 0x00, 0x00,
  0x08, 0x00, 0x00, 0x00, 0x00, 0x00, 0x00, 0x00, 0x00, 0x00, 0x00, 0x00,
  0x00, 0x00, 0x00, 0x00, 0x00, 0x00, 0x00, 0x00, 0x00, 0x00, 0x00, 0x00,
  0x00, 0x00, 0x00, 0x00, 0x00, 0x00, 0x00, 0x00, 0x00, 0x00, 0x00, 0x00,
  0x00, 0x00, 0x00, 0x00, 0x00, 0x00, 0x00, 0x00, 0x00, 0x00, 0x00, 0x00,
  0x00, 0x00, 0x00, 0x00, 0x00, 0x00, 0x00, 0x00, 0x00, 0x00, 0x00, 0x00,
  0x00, 0x00, 0x00, 0x00, 0x00, 0x00, 0x00, 0x00, 0x08, 0x00, 0x00, 0x00,
  0x6d, 0x43, 0x8d, 0x39, 0x33, 0x15, 0xb1, 0x39, 0xf7, 0x5a, 0x9d, 0x39,
  0x2e, 0x46, 0xa8, 0x39, 0xae, 0x3a, 0x9d, 0x39, 0x22, 0x2b, 0xaa, 0x39,
  0xd7, 0xa1, 0xa9, 0x39, 0x52, 0x9c, 0xb5, 0x39, 0x2a, 0x00, 0x00, 0x00,
  0x73, 0x65, 0x71, 0x75, 0x65, 0x6e, 0x74, 0x69, 0x61, 0x6c, 0x2f, 0x63,
  0x6f, 0x6e, 0x76, 0x32, 0x64, 0x5f, 0x33, 0x2f, 0x42, 0x69, 0x61, 0x73,
  0x41, 0x64, 0x64, 0x2f, 0x52, 0x65, 0x61, 0x64, 0x56, 0x61, 0x72, 0x69,
  0x61, 0x62, 0x6c, 0x65, 0x4f, 0x70, 0x00, 0x00, 0x01, 0x00, 0x00, 0x00,
  0x08, 0x00, 0x00, 0x00, 0xd6, 0xfc, 0xff, 0xff, 0x00, 0x00, 0x00, 0x01,
  0x14, 0x00, 0x00, 0x00, 0xe8, 0x00, 0x00, 0x00, 0x06, 0x00, 0x00, 0x00,
  0x00, 0x00, 0x00, 0x09, 0xfc, 0x00, 0x00, 0x00, 0x44, 0xfc, 0xff, 0xff,
  0x08, 0x00, 0x00, 0x00, 0x8c, 0x00, 0x00, 0x00, 0x10, 0x00, 0x00, 0x00,
  0x00, 0x00, 0x00, 0x00, 0x00, 0x00, 0x00, 0x00, 0x00, 0x00, 0x00, 0x00,
  0x00, 0x00, 0x00, 0x00, 0x00, 0x00, 0x00, 0x00, 0x00, 0x00, 0x00, 0x00,
  0x00, 0x00, 0x00, 0x00, 0x00, 0x00, 0x00, 0x00, 0x00, 0x00, 0x00, 0x00,
  0x00, 0x00, 0x00, 0x00, 0x00, 0x00, 0x00, 0x00, 0x00, 0x00, 0x00, 0x00,
  0x00, 0x00, 0x00, 0x00, 0x00, 0x00, 0x00, 0x00, 0x00, 0x00, 0x00, 0x00,
  0x00, 0x00, 0x00, 0x00, 0x00, 0x00, 0x00, 0x00, 0x00, 0x00, 0x00, 0x00,
  0x00, 0x00, 0x00, 0x00, 0x00, 0x00, 0x00, 0x00, 0x00, 0x00, 0x00, 0x00,
  0x00, 0x00, 0x00, 0x00, 0x00, 0x00, 0x00, 0x00, 0x00, 0x00, 0x00, 0x00,
  0x00, 0x00, 0x00, 0x00, 0x00, 0x00, 0x00, 0x00, 0x00, 0x00, 0x00, 0x00,
  0x00, 0x00, 0x00, 0x00, 0x00, 0x00, 0x00, 0x00, 0x00, 0x00, 0x00, 0x00,
  0x00, 0x00, 0x00, 0x00, 0x00, 0x00, 0x00, 0x00, 0x00, 0x00, 0x00, 0x00,
  0x10, 0x00, 0x00, 0x00, 0xb8, 0x26, 0x35, 0x3b, 0x9d, 0xa1, 0x0a, 0x3b,
  0x6e, 0xe1, 0x43, 0x3b, 0x03, 0x6b, 0x46, 0x3b, 0xfa, 0x8b, 0x29, 0x3b,
  0xb4, 0xa9, 0x5c, 0x3b, 0xd8, 0x51, 0x1f, 0x3b, 0xd8, 0xc1, 0x19, 0x3b,
  0x74, 0xfd, 0x43, 0x3b, 0xc7, 0x78, 0x19, 0x3b, 0xe9, 0x5f, 0x22, 0x3b,
  0xc9, 0x1c, 0x62, 0x3b, 0xde, 0x77, 0x1c, 0x3b, 0x5b, 0x6b, 0x10, 0x3b,
  0x3b, 0x02, 0x08, 0x3b, 0xfd, 0x77, 0x27, 0x3b, 0x1a, 0x00, 0x00, 0x00,
  0x73, 0x65, 0x71, 0x75, 0x65, 0x6e, 0x74, 0x69, 0x61, 0x6c, 0x2f, 0x63,
  0x6f, 0x6e, 0x76, 0x32, 0x64, 0x5f, 0x34, 0x2f, 0x43, 0x6f, 0x6e, 0x76,
  0x32, 0x44, 0x00, 0x00, 0x04, 0x00, 0x00, 0x00, 0x10, 0x00, 0x00, 0x00,
  0x03, 0x00, 0x00, 0x00, 0x03, 0x00, 0x00, 0x00, 0x08, 0x00, 0x00, 0x00,
  0xfe, 0xfd, 0xff, 0xff, 0x00, 0x00, 0x00, 0x01, 0x14, 0x00, 0x00, 0x00,
  0xe4, 0x00, 0x00, 0x00, 0x05, 0x00, 0x00, 0x00, 0x00, 0x00, 0x00, 0x02,
  0x08, 0x01, 0x00, 0x00, 0x6c, 0xfd, 0xff, 0xff, 0x08, 0x00, 0x00, 0x00,
  0x88, 0x00, 0x00, 0x00, 0x10, 0x00, 0x00, 0x00, 0x00, 0x00, 0x00, 0x00,
  0x00, 0x00, 0x00, 0x00, 0x00, 0x00, 0x00, 0x00, 0x00, 0x00, 0x00, 0x00,
  0x00, 0x00, 0x00, 0x00, 0x00, 0x00, 0x00, 0x00, 0x00, 0x00, 0x00, 0x00,
  0x00, 0x00, 0x00, 0x00, 0x00, 0x00, 0x00, 0x00, 0x00, 0x00, 0x00, 0x00,
  0x00, 0x00, 0x00, 0x00, 0x00, 0x00, 0x00, 0x00, 0x00, 0x00, 0x00, 0x00,
  0x00, 0x00, 0x00, 0x00, 0x00, 0x00, 0x00, 0x00, 0x00, 0x00, 0x00, 0x00,
  0x00, 0x00, 0x00, 0x00, 0x00, 0x00, 0x00, 0x00, 0x00, 0x00, 0x00, 0x00,
  0x00, 0x00, 0x00, 0x00, 0x00, 0x00, 0x00, 0x00, 0x00, 0x00, 0x00, 0x00,
  0x00, 0x00, 0x00, 0x00, 0x00, 0x00, 0x00, 0x00, 0x00, 0x00, 0x00, 0x00,
  0x00, 0x00, 0x00, 0x00, 0x00, 0x00, 0x00, 0x00, 0x00, 0x00, 0x00, 0x00,
  0x00, 0x00, 0x00, 0x00, 0x00, 0x00, 0x00, 0x00, 0x00, 0x00, 0x00, 0x00,
  0x00, 0x00, 0x00, 0x00, 0x10, 0x00, 0x00, 0x00, 0x4f, 0x28, 0x5d, 0x39,
  0x4a, 0x3f, 0x29, 0x39, 0xc3, 0x23, 0x6f, 0x39, 0xcd, 0x3c, 0x72, 0x39,
  0x7f, 0xfd, 0x4e, 0x39, 0x91, 0xb2, 0x86, 0x39, 0x2a, 0x81, 0x42, 0x39,
  0xae, 0xb6, 0x3b, 0x39, 0xf9, 0x45, 0x6f, 0x39, 0x7b, 0x5d, 0x3b, 0x39,
  0xf2, 0x3b, 0x46, 0x39, 0x27, 0x06, 0x8a, 0x39, 0xfa, 0x05, 0x3f, 0x39,
  0x44, 0x50, 0x30, 0x39, 0xa3, 0x0b, 0x26, 0x39, 0x05, 0x74, 0x4c, 0x39,
  0x2a, 0x00, 0x00, 0x00, 0x73, 0x65, 0x71, 0x75, 0x65, 0x6e, 0x74, 0x69,
  0x61, 0x6c, 0x2f, 0x63, 0x6f, 0x6e, 0x76, 0x32, 0x64, 0x5f, 0x34, 0x2f,
  0x42, 0x69, 0x61, 0x73, 0x41, 0x64, 0x64, 0x2f, 0x52, 0x65, 0x61, 0x64,
  0x56, 0x61, 0x72, 0x69, 0x61, 0x62, 0x6c, 0x65, 0x4f, 0x70, 0x00, 0x00,
  0x01, 0x00, 0x00, 0x00, 0x10, 0x00, 0x00, 0x00, 0x26, 0xff, 0xff, 0xff,
  0x00, 0x00, 0x00, 0x01, 0x14, 0x00, 0x00, 0x00, 0x34, 0x00, 0x00, 0x00,
  0x04, 0x00, 0x00, 0x00, 0x00, 0x00, 0x00, 0x09, 0x44, 0x00, 0x00, 0x00,
  0x94, 0xfe, 0xff, 0xff, 0x08, 0x00, 0x00, 0x00, 0x14, 0x00, 0x00, 0x00,
  0x01, 0x00, 0x00, 0x00, 0x00, 0x00, 0x00, 0x00, 0x00, 0x00, 0x00, 0x00,
  0x00, 0x00, 0x00, 0x00, 0x01, 0x00, 0x00, 0x00, 0x78, 0x4a, 0x43, 0x3b,
  0x17, 0x00, 0x00, 0x00, 0x73, 0x65, 0x71, 0x75, 0x65, 0x6e, 0x74, 0x69,
  0x61, 0x6c, 0x2f, 0x64, 0x65, 0x6e, 0x73, 0x65, 0x2f, 0x4d, 0x61, 0x74,
  0x4d, 0x75, 0x6c, 0x00, 0x02, 0x00, 0x00, 0x00, 0x01, 0x00, 0x00, 0x00,
  0x00, 0x04, 0x00, 0x00, 0x8e, 0xff, 0xff, 0xff, 0x00, 0x00, 0x00, 0x01,
  0x14, 0x00, 0x00, 0x00, 0x30, 0x00, 0x00, 0x00, 0x03, 0x00, 0x00, 0x00,
  0x00, 0x00, 0x00, 0x02, 0x50, 0x00, 0x00, 0x00, 0xfc, 0xfe, 0xff, 0xff,
  0x08, 0x00, 0x00, 0x00, 0x10, 0x00, 0x00, 0x00, 0x01, 0x00, 0x00, 0x00,
  0x00, 0x00, 0x00, 0x00, 0x00, 0x00, 0x00, 0x00, 0x01, 0x00, 0x00, 0x00,
  0x4e, 0x51, 0xef, 0x38, 0x27, 0x00, 0x00, 0x00, 0x73, 0x65, 0x71, 0x75,
  0x65, 0x6e, 0x74, 0x69, 0x61, 0x6c, 0x2f, 0x64, 0x65, 0x6e, 0x73, 0x65,
  0x2f, 0x42, 0x69, 0x61, 0x73, 0x41, 0x64, 0x64, 0x2f, 0x52, 0x65, 0x61,
  0x64, 0x56, 0x61, 0x72, 0x69, 0x61, 0x62, 0x6c, 0x65, 0x4f, 0x70, 0x00,
  0x01, 0x00, 0x00, 0x00, 0x01, 0x00, 0x00, 0x00, 0x00, 0x00, 0x16, 0x00,
  0x1c, 0x00, 0x18, 0x00, 0x17, 0x00, 0x10, 0x00, 0x0c, 0x00, 0x08, 0x00,
  0x00, 0x00, 0x00, 0x00, 0x00, 0x00, 0x07, 0x00, 0x16, 0x00, 0x00, 0x00,
  0x00, 0x00, 0x00, 0x01, 0x18, 0x00, 0x00, 0x00, 0x18, 0x00, 0x00, 0x00,
  0x02, 0x00, 0x00, 0x00, 0x00, 0x00, 0x00, 0x02, 0x2c, 0x00, 0x00, 0x00,
  0x04, 0x00, 0x04, 0x00, 0x04, 0x00, 0x00, 0x00, 0x18, 0x00, 0x00, 0x00,
  0x73, 0x65, 0x71, 0x75, 0x65, 0x6e, 0x74, 0x69, 0x61, 0x6c, 0x2f, 0x66,
  0x6c, 0x61, 0x74, 0x74, 0x65, 0x6e, 0x2f, 0x43, 0x6f, 0x6e, 0x73, 0x74,
  0x00, 0x00, 0x00, 0x00, 0x01, 0x00, 0x00, 0x00, 0x02, 0x00, 0x00, 0x00,
  0x00, 0x00, 0x16, 0x00, 0x20, 0x00, 0x1c, 0x00, 0x1b, 0x00, 0x14, 0x00,
  0x10, 0x00, 0x0c, 0x00, 0x00, 0x00, 0x00, 0x00, 0x08, 0x00, 0x07, 0x00,
  0x16, 0x00, 0x00, 0x00, 0x00, 0x00, 0x00, 0x01, 0x18, 0x00, 0x00, 0x00,
  0x34, 0x00, 0x00, 0x00, 0x54, 0x00, 0x00, 0x00, 0x01, 0x00, 0x00, 0x00,
  0x00, 0x00, 0x00, 0x09, 0x6c, 0x00, 0x00, 0x00, 0x04, 0x00, 0x00, 0x00,
  0xff, 0xff, 0xff, 0xff, 0x80, 0x00, 0x00, 0x00, 0x80, 0x00, 0x00, 0x00,
  0x01, 0x00, 0x00, 0x00, 0x0c, 0x00, 0x0c, 0x00, 0x00, 0x00, 0x00, 0x00,
  0x08, 0x00, 0x04, 0x00, 0x0c, 0x00, 0x00, 0x00, 0x08, 0x00, 0x00, 0x00,
  0x14, 0x00, 0x00, 0x00, 0x01, 0x00, 0x00, 0x00, 0x80, 0xff, 0xff, 0xff,
  0xff, 0xff, 0xff, 0xff, 0x00, 0x00, 0x00, 0x00, 0x01, 0x00, 0x00, 0x00,
  0x00, 0x00, 0x80, 0x3f, 0x1e, 0x00, 0x00, 0x00, 0x73, 0x65, 0x72, 0x76,
  0x69, 0x6e, 0x67, 0x5f, 0x64, 0x65, 0x66, 0x61, 0x75, 0x6c, 0x74, 0x5f,
  0x63, 0x6f, 0x6e, 0x76, 0x32, 0x64, 0x5f, 0x69, 0x6e, 0x70, 0x75, 0x74,
  0x3a, 0x30, 0x00, 0x00, 0x04, 0x00, 0x00, 0x00, 0x01, 0x00, 0x00, 0x00,
  0x80, 0x00, 0x00, 0x00, 0x80, 0x00, 0x00, 0x00, 0x01, 0x00, 0x00, 0x00,
  0x05, 0x00, 0x00, 0x00, 0x68, 0x00, 0x00, 0x00, 0x48, 0x00, 0x00, 0x00,
  0x38, 0x00, 0x00, 0x00, 0x18, 0x00, 0x00, 0x00, 0x04, 0x00, 0x00, 0x00,
  0xb8, 0xff, 0xff, 0xff, 0x0e, 0x00, 0x00, 0x00, 0x02, 0x00, 0x00, 0x00,
  0x00, 0x00, 0x00, 0x0e, 0xc8, 0xff, 0xff, 0xff, 0x09, 0x00, 0x00, 0x00,
  0x04, 0x00, 0x00, 0x00, 0x00, 0x00, 0x00, 0x09, 0x0c, 0x00, 0x0c, 0x00,
  0x0b, 0x00, 0x00, 0x00, 0x00, 0x00, 0x04, 0x00, 0x0c, 0x00, 0x00, 0x00,
  0x16, 0x00, 0x00, 0x00, 0x00, 0x00, 0x00, 0x16, 0xf0, 0xff, 0xff, 0xff,
  0x01, 0x00, 0x00, 0x00, 0x02, 0x00, 0x00, 0x00, 0x00, 0x00, 0x00, 0x01,
  0x0c, 0x00, 0x10, 0x00, 0x0f, 0x00, 0x00, 0x00, 0x08, 0x00, 0x04, 0x00,
  0x0c, 0x00, 0x00, 0x00, 0x03, 0x00, 0x00, 0x00, 0x03, 0x00, 0x00, 0x00,
  0x00, 0x00, 0x00, 0x03
};


const int g_model_len = 9784;
