
/* Copyright 2019 The TensorFlow Authors. All Rights Reserved.

Licensed under the Apache License, Version 2.0 (the "License");
you may not use this file except in compliance with the License.
You may obtain a copy of the License at

    http://www.apache.org/licenses/LICENSE-2.0

Unless required by applicable law or agreed to in writing, software
distributed under the License is distributed on an "AS IS" BASIS,
WITHOUT WARRANTIES OR CONDITIONS OF ANY KIND, either express or implied.
See the License for the specific language governing permissions and
limitations under the License.
==============================================================================*/

// This is a TensorFlow Lite model file that has been converted into a C data
// array using the tensorflow.lite.util.convert_bytes_to_c_source() function.
// This form is useful for compiling into a binary for devices that don't have a
// file system.

#include "model_data.h"

// Keep model aligned to 8 bytes to guarantee aligned 64-bit accesses.
// just switch between { }
// change model len far below too
alignas(8) const unsigned char g_model[] = {
  0x1c, 0x00, 0x00, 0x00, 0x54, 0x46, 0x4c, 0x33, 0x14, 0x00, 0x20, 0x00,
  0x1c, 0x00, 0x18, 0x00, 0x14, 0x00, 0x10, 0x00, 0x0c, 0x00, 0x00, 0x00,
  0x08, 0x00, 0x04, 0x00, 0x14, 0x00, 0x00, 0x00, 0x1c, 0x00, 0x00, 0x00,
  0x98, 0x00, 0x00, 0x00, 0xc8, 0x00, 0x00, 0x00, 0x10, 0x0b, 0x00, 0x00,
  0x20, 0x0b, 0x00, 0x00, 0xe4, 0x1f, 0x00, 0x00, 0x03, 0x00, 0x00, 0x00,
  0x01, 0x00, 0x00, 0x00, 0x04, 0x00, 0x00, 0x00, 0xb0, 0xe0, 0xff, 0xff,
  0x10, 0x00, 0x00, 0x00, 0x18, 0x00, 0x00, 0x00, 0x28, 0x00, 0x00, 0x00,
  0x44, 0x00, 0x00, 0x00, 0x05, 0x00, 0x00, 0x00, 0x73, 0x65, 0x72, 0x76,
  0x65, 0x00, 0x00, 0x00, 0x0f, 0x00, 0x00, 0x00, 0x73, 0x65, 0x72, 0x76,
  0x69, 0x6e, 0x67, 0x5f, 0x64, 0x65, 0x66, 0x61, 0x75, 0x6c, 0x74, 0x00,
  0x01, 0x00, 0x00, 0x00, 0x04, 0x00, 0x00, 0x00, 0xbc, 0xff, 0xff, 0xff,
  0x19, 0x00, 0x00, 0x00, 0x04, 0x00, 0x00, 0x00, 0x07, 0x00, 0x00, 0x00,
  0x64, 0x65, 0x6e, 0x73, 0x65, 0x5f, 0x32, 0x00, 0x01, 0x00, 0x00, 0x00,
  0x04, 0x00, 0x00, 0x00, 0x82, 0xf5, 0xff, 0xff, 0x04, 0x00, 0x00, 0x00,
  0x0f, 0x00, 0x00, 0x00, 0x63, 0x6f, 0x6e, 0x76, 0x32, 0x64, 0x5f, 0x31,
  0x30, 0x5f, 0x69, 0x6e, 0x70, 0x75, 0x74, 0x00, 0x01, 0x00, 0x00, 0x00,
  0x0c, 0x00, 0x00, 0x00, 0x08, 0x00, 0x0c, 0x00, 0x08, 0x00, 0x04, 0x00,
  0x08, 0x00, 0x00, 0x00, 0x1b, 0x00, 0x00, 0x00, 0x04, 0x00, 0x00, 0x00,
  0x13, 0x00, 0x00, 0x00, 0x6d, 0x69, 0x6e, 0x5f, 0x72, 0x75, 0x6e, 0x74,
  0x69, 0x6d, 0x65, 0x5f, 0x76, 0x65, 0x72, 0x73, 0x69, 0x6f, 0x6e, 0x00,
  0x1c, 0x00, 0x00, 0x00, 0x44, 0x0a, 0x00, 0x00, 0x3c, 0x0a, 0x00, 0x00,
  0x28, 0x0a, 0x00, 0x00, 0xd0, 0x09, 0x00, 0x00, 0xa0, 0x09, 0x00, 0x00,
  0x70, 0x09, 0x00, 0x00, 0x50, 0x09, 0x00, 0x00, 0x38, 0x09, 0x00, 0x00,
  0x20, 0x09, 0x00, 0x00, 0x10, 0x05, 0x00, 0x00, 0xec, 0x04, 0x00, 0x00,
  0x94, 0x04, 0x00, 0x00, 0x64, 0x03, 0x00, 0x00, 0x14, 0x01, 0x00, 0x00,
  0x84, 0x00, 0x00, 0x00, 0x7c, 0x00, 0x00, 0x00, 0x74, 0x00, 0x00, 0x00,
  0x6c, 0x00, 0x00, 0x00, 0x64, 0x00, 0x00, 0x00, 0x5c, 0x00, 0x00, 0x00,
  0x54, 0x00, 0x00, 0x00, 0x4c, 0x00, 0x00, 0x00, 0x44, 0x00, 0x00, 0x00,
  0x3c, 0x00, 0x00, 0x00, 0x34, 0x00, 0x00, 0x00, 0x2c, 0x00, 0x00, 0x00,
  0x24, 0x00, 0x00, 0x00, 0x04, 0x00, 0x00, 0x00, 0x46, 0xf6, 0xff, 0xff,
  0x04, 0x00, 0x00, 0x00, 0x10, 0x00, 0x00, 0x00, 0x31, 0x2e, 0x31, 0x34,
  0x2e, 0x30, 0x00, 0x00, 0x00, 0x00, 0x00, 0x00, 0x00, 0x00, 0x00, 0x00,
  0xfc, 0xe5, 0xff, 0xff, 0x00, 0xe6, 0xff, 0xff, 0x04, 0xe6, 0xff, 0xff,
  0x08, 0xe6, 0xff, 0xff, 0x0c, 0xe6, 0xff, 0xff, 0x10, 0xe6, 0xff, 0xff,
  0x14, 0xe6, 0xff, 0xff, 0x18, 0xe6, 0xff, 0xff, 0x1c, 0xe6, 0xff, 0xff,
  0x20, 0xe6, 0xff, 0xff, 0x24, 0xe6, 0xff, 0xff, 0x28, 0xe6, 0xff, 0xff,
  0x92, 0xf6, 0xff, 0xff, 0x04, 0x00, 0x00, 0x00, 0x80, 0x00, 0x00, 0x00,
  0x92, 0x3e, 0x1f, 0x20, 0x29, 0x58, 0x7f, 0x9b, 0xaf, 0xea, 0xd7, 0x36,
  0x06, 0xf1, 0xe2, 0x7f, 0x28, 0xbb, 0x83, 0x7f, 0x5b, 0x82, 0xa3, 0xbf,
  0xdd, 0xd8, 0x1e, 0x33, 0xa0, 0x7f, 0x1d, 0xbb, 0x55, 0x3a, 0x1e, 0xe8,
  0x81, 0x23, 0xe9, 0xea, 0xb9, 0xe2, 0x43, 0x81, 0x51, 0xcd, 0x42, 0x3f,
  0x9f, 0x5a, 0x63, 0x7f, 0x2e, 0xdb, 0x89, 0x41, 0x13, 0xd3, 0x81, 0x18,
  0x02, 0x26, 0xc6, 0x73, 0x3a, 0xf6, 0xef, 0x09, 0xf2, 0xf6, 0x7f, 0x19,
  0x40, 0x0b, 0x7f, 0x21, 0x4d, 0x12, 0xbb, 0xae, 0x50, 0x96, 0x04, 0x0f,
  0xf7, 0x73, 0x81, 0x10, 0xa4, 0x7f, 0xbb, 0xc2, 0xc8, 0x0a, 0xad, 0xdd,
  0xe2, 0x81, 0xff, 0xee, 0xfb, 0xe5, 0xb3, 0x00, 0x81, 0xec, 0x91, 0x8a,
  0x79, 0xed, 0x35, 0xec, 0x09, 0x9e, 0x74, 0x7f, 0xe4, 0xb0, 0x01, 0x0e,
  0x6d, 0xcc, 0x70, 0x81, 0xb3, 0xad, 0x88, 0x58, 0x1e, 0xf7, 0xff, 0xff,
  0x04, 0x00, 0x00, 0x00, 0x40, 0x02, 0x00, 0x00, 0xfb, 0xb7, 0x0e, 0xeb,
  0xb0, 0xd2, 0x32, 0x7f, 0x19, 0xdf, 0x19, 0x1c, 0xd1, 0x39, 0x36, 0x1d,
  0xfe, 0x2a, 0x2d, 0x42, 0x04, 0x08, 0x1a, 0x3d, 0x24, 0xd0, 0xef, 0x30,
  0x8d, 0x29, 0x3a, 0x04, 0xe4, 0x02, 0x08, 0x18, 0xe8, 0x25, 0x0c, 0x27,
  0xd9, 0xdf, 0xc9, 0xfb, 0xe0, 0xac, 0xe1, 0x0d, 0x14, 0xc5, 0x21, 0x3b,
  0xbc, 0x26, 0x32, 0xf2, 0xe2, 0xc0, 0xf8, 0xe0, 0xcf, 0x01, 0xdf, 0x3f,
  0xdf, 0xc8, 0x8a, 0xeb, 0xab, 0x86, 0x9f, 0xe5, 0x20, 0x01, 0x25, 0xc1,
  0x17, 0xa9, 0x1a, 0xa3, 0x0b, 0xd7, 0xe6, 0x7f, 0xb0, 0xf3, 0x37, 0x48,
  0x1e, 0x24, 0x18, 0x12, 0xc2, 0xed, 0xf8, 0xd3, 0x83, 0xbe, 0xbb, 0x19,
  0xd4, 0xc9, 0xaf, 0x1e, 0x13, 0xb5, 0xf7, 0xef, 0x72, 0x41, 0xe8, 0x45,
  0x5d, 0xa3, 0x55, 0x27, 0x2b, 0x30, 0x48, 0x26, 0xdd, 0xbd, 0xc6, 0x0e,
  0xb1, 0xf6, 0x26, 0x13, 0xe4, 0x10, 0x96, 0x38, 0xee, 0x00, 0xca, 0x25,
  0x05, 0xd6, 0x48, 0x3b, 0x0a, 0x28, 0xdf, 0x1e, 0xdd, 0x0f, 0x49, 0x69,
  0xeb, 0xaf, 0x3b, 0x1e, 0xd0, 0xe0, 0xe4, 0x15, 0x0d, 0xe6, 0xe4, 0x32,
  0xe4, 0xf1, 0x3e, 0x13, 0x36, 0x50, 0xa8, 0x1b, 0xdb, 0x31, 0xe9, 0xa8,
  0xff, 0xce, 0xa1, 0x16, 0xd3, 0xee, 0x03, 0x22, 0xe8, 0xcd, 0x81, 0xd9,
  0xfc, 0x3d, 0xbd, 0x30, 0x1e, 0xdf, 0xd8, 0x0d, 0xed, 0xa6, 0xaf, 0xdb,
  0xa5, 0xdd, 0xce, 0xc7, 0x0d, 0xb6, 0xe3, 0x47, 0xe3, 0x52, 0xfd, 0x21,
  0x08, 0x50, 0xb5, 0x59, 0x71, 0xff, 0x3e, 0xfa, 0x01, 0x35, 0xe8, 0x0b,
  0x32, 0xec, 0xfe, 0xeb, 0xc0, 0x1d, 0x31, 0x22, 0xc4, 0xb1, 0xc9, 0xfe,
  0xc6, 0xd6, 0xb4, 0x6d, 0xf5, 0x27, 0xc7, 0xc8, 0x31, 0x15, 0xd1, 0x0f,
  0x36, 0xf6, 0x06, 0xc1, 0xd9, 0xf5, 0xd3, 0x06, 0xff, 0x24, 0xb8, 0x08,
  0xac, 0x06, 0x08, 0xf2, 0xf5, 0xc7, 0xdb, 0x08, 0x3d, 0x0d, 0x11, 0x11,
  0x23, 0x1a, 0xf9, 0x31, 0xf4, 0x08, 0x15, 0x20, 0x21, 0x7f, 0x2f, 0x2c,
  0xdb, 0xfb, 0x21, 0x45, 0xee, 0xd4, 0x45, 0xdc, 0x11, 0x81, 0x13, 0xba,
  0xc3, 0x99, 0xc7, 0x03, 0x22, 0xb2, 0xdf, 0x17, 0xfb, 0xf5, 0xe6, 0xcd,
  0x2d, 0xc5, 0xdf, 0x3c, 0x66, 0x30, 0xeb, 0x03, 0x3b, 0xfc, 0x00, 0xc4,
  0x1c, 0xdc, 0x9a, 0xe4, 0x1d, 0xc6, 0xc3, 0xd9, 0xcc, 0xe4, 0xa3, 0xb0,
  0xec, 0xed, 0xc4, 0xc6, 0x35, 0x01, 0xed, 0xc1, 0x5d, 0x1f, 0x24, 0x8b,
  0x76, 0x31, 0xea, 0xd8, 0x2b, 0x2a, 0x0b, 0x37, 0xdd, 0x15, 0xd8, 0xf4,
  0x3f, 0xf0, 0x44, 0xd1, 0xda, 0xc5, 0xfe, 0xe3, 0x01, 0x35, 0xc2, 0x0d,
  0x4e, 0x2d, 0xf0, 0x15, 0x15, 0x28, 0x21, 0x52, 0xe7, 0x00, 0x11, 0x2b,
  0xe7, 0x4a, 0xf0, 0x40, 0x1f, 0xe9, 0xe9, 0xfe, 0x02, 0xe5, 0x02, 0xec,
  0xd8, 0xe9, 0x0f, 0xf9, 0x26, 0x0a, 0x01, 0x34, 0x06, 0x20, 0x0c, 0x1a,
  0x0d, 0x2e, 0xf9, 0xfc, 0xec, 0x1b, 0x09, 0x13, 0xcd, 0xf3, 0xf4, 0x0d,
  0xd9, 0xac, 0x8a, 0xe4, 0xd5, 0xbe, 0xf8, 0x0e, 0xff, 0xe2, 0x81, 0xc1,
  0xf1, 0xc6, 0x23, 0x14, 0xea, 0xe6, 0xe1, 0x2a, 0x35, 0x26, 0x47, 0xfe,
  0xfd, 0x46, 0x19, 0x44, 0x1b, 0x09, 0x13, 0x45, 0x01, 0x30, 0xdb, 0x0c,
  0xd1, 0xfa, 0x43, 0x64, 0x7f, 0x3a, 0x24, 0x25, 0xd1, 0x9d, 0x2e, 0xb0,
  0x32, 0x41, 0x11, 0xd2, 0xf1, 0x19, 0xe0, 0x1f, 0x0f, 0x05, 0xb4, 0xe1,
  0xee, 0xc0, 0x06, 0x43, 0xc4, 0x30, 0xe2, 0x15, 0xe1, 0xf5, 0xa0, 0xaa,
  0x05, 0xc2, 0xe3, 0xb0, 0xf8, 0xf6, 0xf7, 0xe4, 0xb9, 0xe9, 0x08, 0xde,
  0xb1, 0xe2, 0xe2, 0xcd, 0x13, 0x8c, 0xec, 0xe0, 0xdd, 0xed, 0x02, 0x12,
  0xcf, 0x14, 0x10, 0x25, 0xe4, 0x81, 0xee, 0x0b, 0xfe, 0xcf, 0xd1, 0xce,
  0xda, 0x97, 0xe5, 0xdd, 0xd8, 0xf5, 0xbf, 0xda, 0xf7, 0x25, 0xff, 0x20,
  0x34, 0xe4, 0xf5, 0x05, 0xef, 0x2a, 0xee, 0x0a, 0x37, 0x24, 0xfe, 0x2f,
  0xf0, 0xfe, 0xc5, 0xeb, 0xdb, 0x09, 0xed, 0xce, 0x28, 0xfe, 0x19, 0x5a,
  0xe0, 0x39, 0x34, 0x00, 0xf6, 0x23, 0x1a, 0x43, 0x4a, 0x0c, 0x2f, 0x0e,
  0xeb, 0xaf, 0xe7, 0xd2, 0xec, 0x0b, 0x95, 0x05, 0x6a, 0xf9, 0xff, 0xff,
  0x04, 0x00, 0x00, 0x00, 0x20, 0x01, 0x00, 0x00, 0x0d, 0x8d, 0xc0, 0x47,
  0x22, 0xc4, 0xa8, 0x31, 0xe5, 0xb4, 0xe3, 0x26, 0xb6, 0x8e, 0xce, 0xfa,
  0x5d, 0x81, 0xf3, 0x4c, 0x48, 0xa7, 0x06, 0x2c, 0x2c, 0xd8, 0xf0, 0xe2,
  0x4f, 0x93, 0x01, 0xf4, 0x1c, 0xc7, 0x1f, 0x2c, 0xc8, 0xf7, 0xcc, 0x17,
  0x20, 0x81, 0xda, 0xe6, 0x0b, 0xcf, 0xc3, 0xdf, 0xbd, 0xdf, 0xc5, 0xe4,
  0xc9, 0xc2, 0x3e, 0x12, 0xd9, 0xae, 0x22, 0xec, 0x25, 0xed, 0x5c, 0xfe,
  0x1b, 0x22, 0x16, 0x28, 0xe1, 0x95, 0x02, 0x0a, 0xf6, 0xd5, 0x4e, 0x4d,
  0x27, 0x6f, 0x6a, 0xd3, 0xc3, 0xb5, 0x35, 0x86, 0xdb, 0xb8, 0x11, 0xee,
  0x2a, 0x07, 0xc0, 0xf6, 0xdd, 0x17, 0x81, 0xf3, 0x18, 0x6d, 0x9e, 0xbd,
  0xa7, 0xbe, 0x05, 0xa4, 0xac, 0x34, 0x17, 0xaa, 0x9e, 0x9d, 0x34, 0x2d,
  0xc2, 0x81, 0xc6, 0x0a, 0x07, 0x1a, 0x54, 0x2b, 0x27, 0x6f, 0x1c, 0x45,
  0xd7, 0xa8, 0x2a, 0xc2, 0xec, 0xd8, 0x88, 0xeb, 0xbf, 0xd3, 0xc6, 0xb6,
  0x1a, 0x6e, 0xe3, 0xc3, 0xbc, 0xbf, 0x2d, 0x70, 0x07, 0x34, 0xec, 0xa4,
  0xdd, 0xc2, 0x1d, 0x1b, 0x08, 0xf6, 0x4d, 0x47, 0x27, 0xd3, 0x16, 0xe1,
  0x14, 0xb4, 0xfa, 0x88, 0xc2, 0xb3, 0xf9, 0xd9, 0x1f, 0x0a, 0xf2, 0x64,
  0xdc, 0xe2, 0x52, 0xac, 0x81, 0x2a, 0xac, 0x92, 0xd9, 0xfe, 0xed, 0xe3,
  0xed, 0x03, 0xc4, 0xbf, 0x20, 0x41, 0x2b, 0x07, 0xcd, 0xf2, 0x05, 0xcd,
  0xe2, 0x81, 0x15, 0xcc, 0x1e, 0x13, 0xf3, 0x20, 0xfe, 0xe9, 0x08, 0x8c,
  0xdd, 0x3c, 0x17, 0x17, 0x26, 0x2b, 0x35, 0x1f, 0x2a, 0x29, 0x32, 0xe0,
  0xc2, 0xc9, 0xf6, 0x23, 0x9f, 0x93, 0xd4, 0xd6, 0xba, 0xc4, 0xc4, 0xd3,
  0x2c, 0x57, 0x39, 0x3a, 0x3a, 0x31, 0xf4, 0x1f, 0xa1, 0xd0, 0x99, 0x02,
  0xe5, 0x81, 0xeb, 0x22, 0x1e, 0x01, 0x19, 0xe3, 0x63, 0x3f, 0x3a, 0x46,
  0xc9, 0x0e, 0xd7, 0xba, 0xc0, 0x64, 0xbf, 0x06, 0xdf, 0xe7, 0x31, 0x9d,
  0xb9, 0x20, 0xf1, 0xd2, 0xff, 0x08, 0x37, 0x10, 0xd2, 0xf9, 0x23, 0x45,
  0xcf, 0xed, 0x10, 0xd4, 0xf8, 0x81, 0x3f, 0xf6, 0x96, 0xfa, 0xff, 0xff,
  0x04, 0x00, 0x00, 0x00, 0x48, 0x00, 0x00, 0x00, 0x7f, 0xab, 0x4a, 0x59,
  0x01, 0x5c, 0x1e, 0x50, 0x35, 0x8a, 0x4c, 0xea, 0x1b, 0x57, 0x07, 0x07,
  0x0e, 0xfd, 0x7d, 0x5b, 0xdc, 0x14, 0xaf, 0xb8, 0xd4, 0x3e, 0xd4, 0x89,
  0xb5, 0xc7, 0xbf, 0x13, 0xe3, 0x81, 0xac, 0xf6, 0x0c, 0x81, 0xd4, 0xf1,
  0x66, 0xe5, 0x3d, 0xed, 0xb9, 0x30, 0x33, 0xdf, 0xc1, 0xc5, 0x22, 0x01,
  0xf6, 0xd1, 0x38, 0xbd, 0xf1, 0xe3, 0x4b, 0xcf, 0xe9, 0xbd, 0x09, 0x40,
  0xd4, 0x69, 0xe0, 0x5e, 0x7f, 0xf4, 0xeb, 0x2d, 0xea, 0xfa, 0xff, 0xff,
  0x04, 0x00, 0x00, 0x00, 0x12, 0x00, 0x00, 0x00, 0x81, 0xa0, 0x4e, 0x63,
  0x30, 0x3c, 0x45, 0xbb, 0x87, 0x81, 0x20, 0xa9, 0x36, 0xd0, 0x10, 0x53,
  0xdd, 0xcc, 0x00, 0x00, 0x0a, 0xfb, 0xff, 0xff, 0x04, 0x00, 0x00, 0x00,
  0x00, 0x04, 0x00, 0x00, 0xf8, 0x24, 0x03, 0xfe, 0xf4, 0xf5, 0xe3, 0xff,
  0xfc, 0xf8, 0x03, 0xf5, 0x24, 0xf6, 0x1e, 0xf2, 0xfc, 0x1b, 0x28, 0x09,
  0xf0, 0x0f, 0xe8, 0x16, 0xf8, 0xf9, 0x05, 0xf5, 0x21, 0x0e, 0xe6, 0x0d,
  0xfc, 0x1f, 0x0a, 0xfa, 0xf9, 0xf3, 0xfc, 0x0d, 0xfa, 0xfe, 0x04, 0x02,
  0x1e, 0x02, 0x02, 0x0a, 0xfe, 0x22, 0xfd, 0xf0, 0x06, 0x04, 0x20, 0x11,
  0x07, 0xf0, 0xf9, 0x1d, 0x15, 0x15, 0x0f, 0x13, 0xf5, 0x26, 0x22, 0x00,
  0x04, 0x0d, 0x05, 0x12, 0x08, 0xfa, 0xfc, 0xf0, 0x1e, 0xf7, 0x1f, 0x28,
  0x04, 0x2b, 0x0c, 0x02, 0x02, 0x1b, 0x00, 0x2b, 0xfd, 0xfa, 0xf7, 0x01,
  0x1c, 0x21, 0xf3, 0xff, 0x00, 0x1c, 0x1c, 0xfd, 0x05, 0x2f, 0x16, 0xfc,
  0xfb, 0x08, 0xf4, 0xfc, 0x30, 0x13, 0x15, 0x04, 0xf7, 0x0d, 0x0c, 0xf5,
  0xf7, 0x16, 0x08, 0xfd, 0xf6, 0xf8, 0x00, 0xfc, 0x54, 0xf8, 0xf7, 0xf7,
  0x23, 0x68, 0xf2, 0x16, 0x03, 0x18, 0x10, 0x4b, 0x28, 0x08, 0x3c, 0xf9,
  0xe9, 0x0d, 0x27, 0xef, 0x1f, 0x3c, 0xe6, 0x25, 0x06, 0x2c, 0x02, 0x1b,
  0x1c, 0x0c, 0x0f, 0xf7, 0x20, 0x00, 0x12, 0xea, 0x0c, 0x10, 0x16, 0x10,
  0x07, 0x03, 0xff, 0xf6, 0xfe, 0x00, 0xf0, 0xee, 0x26, 0xfc, 0xef, 0xeb,
  0x12, 0x00, 0xfd, 0x03, 0xf3, 0xf7, 0xf7, 0x07, 0x0a, 0x05, 0x02, 0xef,
  0x22, 0x0d, 0xfd, 0xf3, 0x02, 0xfd, 0x06, 0x0d, 0x1a, 0x08, 0xfe, 0xf5,
  0x09, 0x07, 0x19, 0xe9, 0x27, 0xff, 0x05, 0x15, 0xfe, 0x09, 0x05, 0x0f,
  0x11, 0xfa, 0x02, 0x06, 0x2a, 0x01, 0x06, 0x22, 0x19, 0xdf, 0x14, 0x05,
  0x18, 0x04, 0xfd, 0x28, 0x42, 0x09, 0x0e, 0x0a, 0x25, 0x0c, 0x11, 0x57,
  0xf3, 0x07, 0x00, 0x00, 0x08, 0xfb, 0x08, 0x04, 0x40, 0xf1, 0xf9, 0x02,
  0x12, 0x12, 0x0c, 0xf2, 0xfe, 0x1d, 0xf4, 0x1c, 0x0a, 0x18, 0x24, 0x1f,
  0xe8, 0x30, 0x19, 0x4c, 0xf2, 0x16, 0x25, 0x06, 0xeb, 0x0e, 0x06, 0xe6,
  0x07, 0xe6, 0x17, 0x10, 0xf6, 0x28, 0xfa, 0x36, 0xf3, 0x07, 0x0f, 0x0b,
  0xd7, 0x15, 0xf0, 0x23, 0x06, 0x02, 0x03, 0x05, 0xfc, 0x14, 0xf6, 0xea,
  0xfa, 0xf5, 0xff, 0x16, 0x17, 0x0e, 0xed, 0x1c, 0xfc, 0xe9, 0xee, 0xfc,
  0xed, 0xfb, 0xfd, 0xe3, 0x0b, 0x05, 0x00, 0xb3, 0x5d, 0xf3, 0x0d, 0xfe,
  0xfa, 0x14, 0xfd, 0xd9, 0xd8, 0x04, 0xfa, 0x06, 0x0d, 0x04, 0x1a, 0x1d,
  0x45, 0xee, 0x0d, 0x0d, 0x02, 0x0b, 0x06, 0x05, 0x01, 0x03, 0x0b, 0x02,
  0x02, 0x04, 0xfc, 0x23, 0x3e, 0xe1, 0xf0, 0x16, 0xf7, 0x05, 0x00, 0x12,
  0x4c, 0x01, 0xff, 0x0d, 0x0d, 0x03, 0x01, 0x1d, 0x03, 0x00, 0x0a, 0xf8,
  0x0e, 0xfb, 0x0c, 0xee, 0x0e, 0x1d, 0x07, 0xf7, 0x0d, 0x14, 0x02, 0xdd,
  0xd6, 0x15, 0x04, 0x0e, 0x02, 0x2b, 0xe5, 0x22, 0x15, 0xe1, 0x07, 0x3b,
  0x04, 0x08, 0x36, 0x15, 0x1c, 0xfc, 0xec, 0xfc, 0x02, 0xf1, 0x0d, 0xfe,
  0x1c, 0xfa, 0xfc, 0x0b, 0x0a, 0xff, 0x0d, 0x0e, 0xfd, 0xf5, 0xf3, 0xfe,
  0x03, 0xfb, 0xf6, 0xee, 0x18, 0xf5, 0xfd, 0xf5, 0xfa, 0x05, 0xff, 0x11,
  0x08, 0x09, 0xf9, 0x0d, 0xf1, 0x0e, 0xe4, 0xf7, 0x0b, 0xfd, 0xd8, 0xf8,
  0x01, 0xf9, 0xfe, 0xe3, 0x46, 0xc6, 0xfe, 0x04, 0xf8, 0x15, 0xcc, 0xf6,
  0xf7, 0xfe, 0xf3, 0x08, 0xf4, 0xfb, 0xf1, 0xf8, 0x7f, 0xee, 0xad, 0x24,
  0xff, 0x02, 0xff, 0x0e, 0xeb, 0xed, 0xf8, 0x04, 0x01, 0x06, 0x03, 0xe9,
  0x4b, 0xf8, 0x2d, 0x0d, 0x02, 0x06, 0x01, 0x0f, 0xf5, 0x00, 0x05, 0xf3,
  0xf7, 0xfa, 0x0d, 0xf2, 0x1f, 0xfc, 0x10, 0x2a, 0x0b, 0x13, 0xeb, 0x06,
  0x05, 0x20, 0x13, 0x10, 0x08, 0x04, 0xfe, 0xde, 0x00, 0xfd, 0xf7, 0xd9,
  0xf6, 0x0e, 0x15, 0x03, 0x0a, 0xfc, 0xfb, 0x30, 0x33, 0xfa, 0x29, 0x02,
  0x05, 0xf9, 0x03, 0xf6, 0x06, 0x12, 0x0f, 0xf2, 0xf9, 0xf7, 0x07, 0x07,
  0x12, 0xf6, 0x15, 0x0b, 0x12, 0xfd, 0xdb, 0xe5, 0xfb, 0x01, 0x12, 0xfd,
  0x07, 0xf1, 0xfa, 0x11, 0xfc, 0x06, 0xf9, 0x0c, 0x09, 0xf6, 0xe2, 0xf5,
  0xf4, 0xf9, 0x0b, 0xf4, 0x02, 0xfc, 0xf5, 0xfd, 0xeb, 0xf8, 0xf4, 0x18,
  0x30, 0x02, 0xfb, 0x1b, 0xf3, 0x09, 0x0b, 0x04, 0xff, 0x15, 0x03, 0x03,
  0xf5, 0xf7, 0xe6, 0xf1, 0x4a, 0x0b, 0xf6, 0xf3, 0xf6, 0xec, 0xfd, 0xf3,
  0xf2, 0x0b, 0x12, 0x0a, 0xf2, 0xeb, 0xf9, 0xf6, 0x19, 0x10, 0xf4, 0x0a,
  0xf5, 0x01, 0x0d, 0x04, 0xf5, 0xf2, 0x07, 0x04, 0xfb, 0xff, 0x0a, 0x55,
  0xc8, 0x0e, 0x09, 0x0c, 0x17, 0xf8, 0xff, 0x1c, 0x03, 0xd3, 0x30, 0xf5,
  0xfd, 0x09, 0x21, 0x0c, 0x0a, 0xfe, 0xf5, 0xfc, 0xfd, 0x0c, 0x0e, 0x03,
  0x05, 0xfd, 0x0a, 0xea, 0x05, 0x00, 0x21, 0xf3, 0x06, 0xfa, 0x0f, 0xfb,
  0x0e, 0x55, 0x04, 0x08, 0xff, 0xf6, 0x07, 0x27, 0x0a, 0xff, 0xff, 0x00,
  0xf5, 0xf5, 0x47, 0x35, 0xfe, 0x0d, 0x08, 0xfc, 0xf3, 0xe6, 0x05, 0x0c,
  0x13, 0xff, 0xf4, 0x0b, 0x56, 0xed, 0xf4, 0x00, 0xfe, 0x08, 0x05, 0xfa,
  0x10, 0x09, 0x0d, 0x05, 0xfd, 0x06, 0x06, 0xfd, 0x0c, 0xfd, 0x15, 0xdf,
  0xf9, 0xbe, 0xf5, 0xff, 0xfb, 0x16, 0xfc, 0xed, 0xf9, 0x07, 0x06, 0x16,
  0x4d, 0x12, 0x02, 0x10, 0xf5, 0x20, 0xec, 0xf5, 0x07, 0xf7, 0x02, 0xf9,
  0xfa, 0xf9, 0xfd, 0x17, 0x15, 0xeb, 0x14, 0x13, 0xf7, 0x01, 0xf0, 0xfe,
  0xf6, 0x0a, 0x07, 0x16, 0x19, 0xfb, 0x08, 0x40, 0x20, 0xf7, 0x0b, 0xe9,
  0x29, 0x08, 0xe7, 0x1f, 0x16, 0x4c, 0x1a, 0x08, 0x24, 0x02, 0x03, 0x02,
  0xfc, 0x07, 0x04, 0xfe, 0xf3, 0x2e, 0xfa, 0xed, 0x17, 0x06, 0x05, 0x24,
  0x0b, 0x10, 0x1d, 0xf5, 0xdd, 0x13, 0x29, 0xf6, 0x09, 0x4e, 0x19, 0x04,
  0xf7, 0x0c, 0x25, 0x36, 0x0c, 0x17, 0x17, 0x0c, 0x68, 0x08, 0x1f, 0x48,
  0xff, 0x1e, 0x02, 0x12, 0x18, 0xed, 0x11, 0x15, 0x0f, 0xff, 0x03, 0x0c,
  0x18, 0xec, 0x23, 0x21, 0x02, 0x0b, 0x04, 0x07, 0x0c, 0x1b, 0x00, 0x0b,
  0x0d, 0xfa, 0x08, 0x1b, 0x50, 0xfb, 0xfe, 0xfe, 0x07, 0xfb, 0x0b, 0xf9,
  0x02, 0x05, 0xf4, 0x0c, 0x08, 0xfc, 0x06, 0xf5, 0x40, 0xf9, 0x12, 0x16,
  0x0c, 0x10, 0x0a, 0xf3, 0x02, 0x0a, 0x0b, 0x06, 0x0f, 0x06, 0xf6, 0xdd,
  0x00, 0x02, 0xe7, 0xf0, 0x1f, 0x35, 0x10, 0x20, 0xf7, 0xf1, 0x32, 0x0e,
  0xfe, 0x09, 0xf3, 0xf3, 0x12, 0x26, 0xfc, 0xfc, 0x30, 0x1e, 0xff, 0x1c,
  0x0f, 0x33, 0x1c, 0xff, 0x14, 0x0e, 0x0c, 0x12, 0x04, 0x0b, 0x1a, 0xfb,
  0xff, 0x05, 0xef, 0xf9, 0xf4, 0xf6, 0x03, 0xf5, 0x01, 0xfa, 0xf6, 0x45,
  0x0d, 0x0b, 0xfc, 0xf1, 0x04, 0xfd, 0x06, 0xfc, 0x10, 0xfc, 0x0b, 0xf3,
  0x1c, 0x07, 0xf0, 0x2d, 0x31, 0xf0, 0xfe, 0x32, 0x09, 0x06, 0xe9, 0x03,
  0xf5, 0x05, 0x02, 0xfc, 0x34, 0x07, 0xec, 0x21, 0x35, 0x0e, 0xf4, 0xd5,
  0x09, 0xff, 0x0d, 0x09, 0x2e, 0xde, 0xf9, 0x06, 0x19, 0x01, 0x02, 0x29,
  0x3b, 0xf0, 0xf1, 0x29, 0x08, 0x05, 0x0a, 0x11, 0x0d, 0xfb, 0xeb, 0x11,
  0x1c, 0xfc, 0x03, 0x06, 0x3e, 0xfa, 0xe5, 0x05, 0x0b, 0x01, 0xf1, 0xfe,
  0x0e, 0xf1, 0xf2, 0x07, 0x11, 0xf9, 0xfb, 0x27, 0x25, 0x06, 0x14, 0x04,
  0xf8, 0xe8, 0x00, 0xf4, 0xe9, 0x08, 0xf7, 0x04, 0x04, 0xf5, 0xf7, 0xf6,
  0x45, 0xf3, 0xf4, 0xde, 0xff, 0xf7, 0xe6, 0x02, 0x19, 0xea, 0xf7, 0xee,
  0x04, 0xf1, 0xf4, 0x2b, 0x46, 0xe8, 0x02, 0xf5, 0x16, 0xff, 0xff, 0xff,
  0x04, 0x00, 0x00, 0x00, 0x08, 0x00, 0x00, 0x00, 0xff, 0xff, 0xff, 0xff,
  0x00, 0x04, 0x00, 0x00, 0x2a, 0xff, 0xff, 0xff, 0x04, 0x00, 0x00, 0x00,
  0x08, 0x00, 0x00, 0x00, 0xa4, 0xff, 0xff, 0xff, 0xbd, 0xff, 0xff, 0xff,
  0x3e, 0xff, 0xff, 0xff, 0x04, 0x00, 0x00, 0x00, 0x10, 0x00, 0x00, 0x00,
  0xf5, 0xff, 0xff, 0xff, 0x5b, 0x00, 0x00, 0x00, 0xf6, 0xff, 0xff, 0xff,
  0x1a, 0x00, 0x00, 0x00, 0x5a, 0xff, 0xff, 0xff, 0x04, 0x00, 0x00, 0x00,
  0x20, 0x00, 0x00, 0x00, 0xa0, 0xfe, 0xff, 0xff, 0x0a, 0x00, 0x00, 0x00,
  0x56, 0xff, 0xff, 0xff, 0x34, 0x00, 0x00, 0x00, 0x0c, 0xfe, 0xff, 0xff,
  0xb8, 0xff, 0xff, 0xff, 0x2d, 0x00, 0x00, 0x00, 0xef, 0xff, 0xff, 0xff,
  0x86, 0xff, 0xff, 0xff, 0x04, 0x00, 0x00, 0x00, 0x20, 0x00, 0x00, 0x00,
  0x39, 0x00, 0x00, 0x00, 0xb4, 0xfe, 0xff, 0xff, 0x4e, 0x00, 0x00, 0x00,
  0xff, 0xff, 0xff, 0xff, 0x3b, 0xff, 0xff, 0xff, 0xfe, 0xff, 0xff, 0xff,
  0xb1, 0xfe, 0xff, 0xff, 0x33, 0xff, 0xff, 0xff, 0xb2, 0xff, 0xff, 0xff,
  0x04, 0x00, 0x00, 0x00, 0x40, 0x00, 0x00, 0x00, 0x0a, 0x00, 0x00, 0x00,
  0xd0, 0xff, 0xff, 0xff, 0x49, 0x00, 0x00, 0x00, 0x7e, 0x00, 0x00, 0x00,
  0x4f, 0x00, 0x00, 0x00, 0x40, 0xff, 0xff, 0xff, 0x34, 0xff, 0xff, 0xff,
  0xe1, 0xfe, 0xff, 0xff, 0x39, 0x00, 0x00, 0x00, 0xb6, 0xfe, 0xff, 0xff,
  0x56, 0x00, 0x00, 0x00, 0xb6, 0x01, 0x00, 0x00, 0x31, 0x03, 0x00, 0x00,
  0x17, 0xff, 0xff, 0xff, 0xe7, 0x00, 0x00, 0x00, 0x95, 0x00, 0x00, 0x00,
  0x00, 0x00, 0x06, 0x00, 0x08, 0x00, 0x04, 0x00, 0x06, 0x00, 0x00, 0x00,
  0x04, 0x00, 0x00, 0x00, 0x04, 0x00, 0x00, 0x00, 0x7b, 0x00, 0x00, 0x00,
  0xb0, 0xef, 0xff, 0xff, 0xb4, 0xef, 0xff, 0xff, 0x0f, 0x00, 0x00, 0x00,
  0x4d, 0x4c, 0x49, 0x52, 0x20, 0x43, 0x6f, 0x6e, 0x76, 0x65, 0x72, 0x74,
  0x65, 0x64, 0x2e, 0x00, 0x01, 0x00, 0x00, 0x00, 0x14, 0x00, 0x00, 0x00,
  0x00, 0x00, 0x0e, 0x00, 0x18, 0x00, 0x14, 0x00, 0x10, 0x00, 0x0c, 0x00,
  0x08, 0x00, 0x04, 0x00, 0x0e, 0x00, 0x00, 0x00, 0x14, 0x00, 0x00, 0x00,
  0x1c, 0x00, 0x00, 0x00, 0x38, 0x03, 0x00, 0x00, 0x3c, 0x03, 0x00, 0x00,
  0x40, 0x03, 0x00, 0x00, 0x04, 0x00, 0x00, 0x00, 0x6d, 0x61, 0x69, 0x6e,
  0x00, 0x00, 0x00, 0x00, 0x0c, 0x00, 0x00, 0x00, 0xd4, 0x02, 0x00, 0x00,
  0x70, 0x02, 0x00, 0x00, 0x20, 0x02, 0x00, 0x00, 0xdc, 0x01, 0x00, 0x00,
  0x9c, 0x01, 0x00, 0x00, 0x58, 0x01, 0x00, 0x00, 0x18, 0x01, 0x00, 0x00,
  0xd4, 0x00, 0x00, 0x00, 0x94, 0x00, 0x00, 0x00, 0x6c, 0x00, 0x00, 0x00,
  0x28, 0x00, 0x00, 0x00, 0x04, 0x00, 0x00, 0x00, 0xaa, 0xff, 0xff, 0xff,
  0x0c, 0x00, 0x00, 0x00, 0x10, 0x00, 0x00, 0x00, 0x04, 0x00, 0x00, 0x00,
  0x01, 0x00, 0x00, 0x00, 0x19, 0x00, 0x00, 0x00, 0x01, 0x00, 0x00, 0x00,
  0x18, 0x00, 0x00, 0x00, 0xea, 0xfd, 0xff, 0xff, 0x14, 0x00, 0x00, 0x00,
  0x00, 0x00, 0x00, 0x08, 0x10, 0x00, 0x00, 0x00, 0x14, 0x00, 0x00, 0x00,
  0x03, 0x00, 0x00, 0x00, 0x74, 0xf0, 0xff, 0xff, 0x01, 0x00, 0x00, 0x00,
  0x18, 0x00, 0x00, 0x00, 0x03, 0x00, 0x00, 0x00, 0x17, 0x00, 0x00, 0x00,
  0x08, 0x00, 0x00, 0x00, 0x01, 0x00, 0x00, 0x00, 0x00, 0x00, 0x0a, 0x00,
  0x10, 0x00, 0x0c, 0x00, 0x08, 0x00, 0x04, 0x00, 0x0a, 0x00, 0x00, 0x00,
  0x0c, 0x00, 0x00, 0x00, 0x10, 0x00, 0x00, 0x00, 0x02, 0x00, 0x00, 0x00,
  0x01, 0x00, 0x00, 0x00, 0x17, 0x00, 0x00, 0x00, 0x02, 0x00, 0x00, 0x00,
  0x16, 0x00, 0x00, 0x00, 0x07, 0x00, 0x00, 0x00, 0xee, 0xfd, 0xff, 0xff,
  0x10, 0x00, 0x00, 0x00, 0x00, 0x00, 0x00, 0x01, 0x18, 0x00, 0x00, 0x00,
  0x1c, 0x00, 0x00, 0x00, 0xe0, 0xfd, 0xff, 0xff, 0x00, 0x00, 0x00, 0x01,
  0x01, 0x00, 0x00, 0x00, 0x01, 0x00, 0x00, 0x00, 0x01, 0x00, 0x00, 0x00,
  0x16, 0x00, 0x00, 0x00, 0x03, 0x00, 0x00, 0x00, 0x15, 0x00, 0x00, 0x00,
  0x0d, 0x00, 0x00, 0x00, 0x02, 0x00, 0x00, 0x00, 0x8a, 0xfe, 0xff, 0xff,
  0x14, 0x00, 0x00, 0x00, 0x00, 0x00, 0x00, 0x05, 0x24, 0x00, 0x00, 0x00,
  0x28, 0x00, 0x00, 0x00, 0x01, 0x00, 0x00, 0x00, 0x7a, 0xfe, 0xff, 0xff,
  0x02, 0x00, 0x00, 0x00, 0x02, 0x00, 0x00, 0x00, 0x02, 0x00, 0x00, 0x00,
  0x02, 0x00, 0x00, 0x00, 0x00, 0x00, 0x00, 0x01, 0x01, 0x00, 0x00, 0x00,
  0x15, 0x00, 0x00, 0x00, 0x01, 0x00, 0x00, 0x00, 0x14, 0x00, 0x00, 0x00,
  0x6a, 0xfe, 0xff, 0xff, 0x10, 0x00, 0x00, 0x00, 0x00, 0x00, 0x00, 0x01,
  0x18, 0x00, 0x00, 0x00, 0x1c, 0x00, 0x00, 0x00, 0x5c, 0xfe, 0xff, 0xff,
  0x00, 0x00, 0x00, 0x01, 0x01, 0x00, 0x00, 0x00, 0x01, 0x00, 0x00, 0x00,
  0x01, 0x00, 0x00, 0x00, 0x14, 0x00, 0x00, 0x00, 0x03, 0x00, 0x00, 0x00,
  0x13, 0x00, 0x00, 0x00, 0x0c, 0x00, 0x00, 0x00, 0x03, 0x00, 0x00, 0x00,
  0x06, 0xff, 0xff, 0xff, 0x14, 0x00, 0x00, 0x00, 0x00, 0x00, 0x00, 0x05,
  0x24, 0x00, 0x00, 0x00, 0x28, 0x00, 0x00, 0x00, 0x01, 0x00, 0x00, 0x00,
  0xf6, 0xfe, 0xff, 0xff, 0x02, 0x00, 0x00, 0x00, 0x02, 0x00, 0x00, 0x00,
  0x02, 0x00, 0x00, 0x00, 0x02, 0x00, 0x00, 0x00, 0x00, 0x00, 0x00, 0x01,
  0x01, 0x00, 0x00, 0x00, 0x13, 0x00, 0x00, 0x00, 0x01, 0x00, 0x00, 0x00,
  0x12, 0x00, 0x00, 0x00, 0xe6, 0xfe, 0xff, 0xff, 0x10, 0x00, 0x00, 0x00,
  0x00, 0x00, 0x00, 0x01, 0x18, 0x00, 0x00, 0x00, 0x1c, 0x00, 0x00, 0x00,
  0xd8, 0xfe, 0xff, 0xff, 0x00, 0x00, 0x00, 0x01, 0x01, 0x00, 0x00, 0x00,
  0x01, 0x00, 0x00, 0x00, 0x01, 0x00, 0x00, 0x00, 0x12, 0x00, 0x00, 0x00,
  0x03, 0x00, 0x00, 0x00, 0x11, 0x00, 0x00, 0x00, 0x0b, 0x00, 0x00, 0x00,
  0x04, 0x00, 0x00, 0x00, 0x82, 0xff, 0xff, 0xff, 0x14, 0x00, 0x00, 0x00,
  0x00, 0x00, 0x00, 0x05, 0x24, 0x00, 0x00, 0x00, 0x28, 0x00, 0x00, 0x00,
  0x01, 0x00, 0x00, 0x00, 0x72, 0xff, 0xff, 0xff, 0x02, 0x00, 0x00, 0x00,
  0x02, 0x00, 0x00, 0x00, 0x02, 0x00, 0x00, 0x00, 0x02, 0x00, 0x00, 0x00,
  0x00, 0x00, 0x00, 0x01, 0x01, 0x00, 0x00, 0x00, 0x11, 0x00, 0x00, 0x00,
  0x01, 0x00, 0x00, 0x00, 0x10, 0x00, 0x00, 0x00, 0x62, 0xff, 0xff, 0xff,
  0x10, 0x00, 0x00, 0x00, 0x00, 0x00, 0x00, 0x01, 0x18, 0x00, 0x00, 0x00,
  0x1c, 0x00, 0x00, 0x00, 0x54, 0xff, 0xff, 0xff, 0x00, 0x00, 0x00, 0x01,
  0x01, 0x00, 0x00, 0x00, 0x01, 0x00, 0x00, 0x00, 0x01, 0x00, 0x00, 0x00,
  0x10, 0x00, 0x00, 0x00, 0x03, 0x00, 0x00, 0x00, 0x0f, 0x00, 0x00, 0x00,
  0x0a, 0x00, 0x00, 0x00, 0x05, 0x00, 0x00, 0x00, 0x00, 0x00, 0x0e, 0x00,
  0x1a, 0x00, 0x14, 0x00, 0x10, 0x00, 0x0c, 0x00, 0x0b, 0x00, 0x04, 0x00,
  0x0e, 0x00, 0x00, 0x00, 0x24, 0x00, 0x00, 0x00, 0x00, 0x00, 0x00, 0x05,
  0x34, 0x00, 0x00, 0x00, 0x38, 0x00, 0x00, 0x00, 0x01, 0x00, 0x00, 0x00,
  0x00, 0x00, 0x0e, 0x00, 0x18, 0x00, 0x17, 0x00, 0x10, 0x00, 0x0c, 0x00,
  0x08, 0x00, 0x04, 0x00, 0x0e, 0x00, 0x00, 0x00, 0x02, 0x00, 0x00, 0x00,
  0x02, 0x00, 0x00, 0x00, 0x02, 0x00, 0x00, 0x00, 0x02, 0x00, 0x00, 0x00,
  0x00, 0x00, 0x00, 0x01, 0x01, 0x00, 0x00, 0x00, 0x0f, 0x00, 0x00, 0x00,
  0x01, 0x00, 0x00, 0x00, 0x0e, 0x00, 0x00, 0x00, 0x00, 0x00, 0x0e, 0x00,
  0x14, 0x00, 0x00, 0x00, 0x10, 0x00, 0x0c, 0x00, 0x0b, 0x00, 0x04, 0x00,
  0x0e, 0x00, 0x00, 0x00, 0x1c, 0x00, 0x00, 0x00, 0x00, 0x00, 0x00, 0x01,
  0x24, 0x00, 0x00, 0x00, 0x28, 0x00, 0x00, 0x00, 0x0c, 0x00, 0x10, 0x00,
  0x00, 0x00, 0x0c, 0x00, 0x08, 0x00, 0x07, 0x00, 0x0c, 0x00, 0x00, 0x00,
  0x00, 0x00, 0x00, 0x01, 0x01, 0x00, 0x00, 0x00, 0x01, 0x00, 0x00, 0x00,
  0x01, 0x00, 0x00, 0x00, 0x0e, 0x00, 0x00, 0x00, 0x03, 0x00, 0x00, 0x00,
  0x00, 0x00, 0x00, 0x00, 0x09, 0x00, 0x00, 0x00, 0x06, 0x00, 0x00, 0x00,
  0x01, 0x00, 0x00, 0x00, 0x19, 0x00, 0x00, 0x00, 0x01, 0x00, 0x00, 0x00,
  0x00, 0x00, 0x00, 0x00, 0x1a, 0x00, 0x00, 0x00, 0xa4, 0x10, 0x00, 0x00,
  0x28, 0x10, 0x00, 0x00, 0x08, 0x0f, 0x00, 0x00, 0x5c, 0x0e, 0x00, 0x00,
  0xb0, 0x0d, 0x00, 0x00, 0x34, 0x0d, 0x00, 0x00, 0xd0, 0x0c, 0x00, 0x00,
  0x90, 0x0c, 0x00, 0x00, 0x18, 0x0c, 0x00, 0x00, 0x84, 0x0b, 0x00, 0x00,
  0xc8, 0x0a, 0x00, 0x00, 0xbc, 0x09, 0x00, 0x00, 0xb0, 0x08, 0x00, 0x00,
  0x04, 0x07, 0x00, 0x00, 0x68, 0x06, 0x00, 0x00, 0xd4, 0x05, 0x00, 0x00,
  0x38, 0x05, 0x00, 0x00, 0x9c, 0x04, 0x00, 0x00, 0x00, 0x04, 0x00, 0x00,
  0x64, 0x03, 0x00, 0x00, 0xc8, 0x02, 0x00, 0x00, 0x2c, 0x02, 0x00, 0x00,
  0x90, 0x01, 0x00, 0x00, 0x0c, 0x01, 0x00, 0x00, 0x80, 0x00, 0x00, 0x00,
  0x04, 0x00, 0x00, 0x00, 0xd8, 0xef, 0xff, 0xff, 0x18, 0x00, 0x00, 0x00,
  0x20, 0x00, 0x00, 0x00, 0x3c, 0x00, 0x00, 0x00, 0x1a, 0x00, 0x00, 0x00,
  0x00, 0x00, 0x00, 0x09, 0x54, 0x00, 0x00, 0x00, 0x02, 0x00, 0x00, 0x00,
  0xff, 0xff, 0xff, 0xff, 0x01, 0x00, 0x00, 0x00, 0x4c, 0xf0, 0xff, 0xff,
  0x08, 0x00, 0x00, 0x00, 0x10, 0x00, 0x00, 0x00, 0x01, 0x00, 0x00, 0x00,
  0x80, 0xff, 0xff, 0xff, 0xff, 0xff, 0xff, 0xff, 0x01, 0x00, 0x00, 0x00,
  0x00, 0x00, 0x80, 0x3b, 0x1e, 0x00, 0x00, 0x00, 0x53, 0x74, 0x61, 0x74,
  0x65, 0x66, 0x75, 0x6c, 0x50, 0x61, 0x72, 0x74, 0x69, 0x74, 0x69, 0x6f,
  0x6e, 0x65, 0x64, 0x43, 0x61, 0x6c, 0x6c, 0x3a, 0x30, 0x5f, 0x69, 0x6e,
  0x74, 0x38, 0x00, 0x00, 0x02, 0x00, 0x00, 0x00, 0x01, 0x00, 0x00, 0x00,
  0x01, 0x00, 0x00, 0x00, 0x50, 0xf0, 0xff, 0xff, 0x18, 0x00, 0x00, 0x00,
  0x20, 0x00, 0x00, 0x00, 0x58, 0x00, 0x00, 0x00, 0x19, 0x00, 0x00, 0x00,
  0x00, 0x00, 0x00, 0x09, 0x64, 0x00, 0x00, 0x00, 0x02, 0x00, 0x00, 0x00,
  0xff, 0xff, 0xff, 0xff, 0x01, 0x00, 0x00, 0x00, 0x34, 0xf0, 0xff, 0xff,
  0x10, 0x00, 0x00, 0x00, 0x1c, 0x00, 0x00, 0x00, 0x20, 0x00, 0x00, 0x00,
  0x24, 0x00, 0x00, 0x00, 0x01, 0x00, 0x00, 0x00, 0xc2, 0xff, 0xff, 0xff,
  0xff, 0xff, 0xff, 0xff, 0x00, 0x00, 0x00, 0x00, 0x01, 0x00, 0x00, 0x00,
  0xb6, 0x8a, 0x6e, 0x3e, 0x01, 0x00, 0x00, 0x00, 0x1a, 0x26, 0x30, 0x42,
  0x01, 0x00, 0x00, 0x00, 0x43, 0xd8, 0x75, 0xc1, 0x13, 0x00, 0x00, 0x00,
  0x74, 0x66, 0x6c, 0x2e, 0x66, 0x75, 0x6c, 0x6c, 0x79, 0x5f, 0x63, 0x6f,
  0x6e, 0x6e, 0x65, 0x63, 0x74, 0x65, 0x64, 0x00, 0x02, 0x00, 0x00, 0x00,
  0x01, 0x00, 0x00, 0x00, 0x01, 0x00, 0x00, 0x00, 0xd8, 0xf0, 0xff, 0xff,
  0x18, 0x00, 0x00, 0x00, 0x20, 0x00, 0x00, 0x00, 0x58, 0x00, 0x00, 0x00,
  0x18, 0x00, 0x00, 0x00, 0x00, 0x00, 0x00, 0x09, 0x5c, 0x00, 0x00, 0x00,
  0x02, 0x00, 0x00, 0x00, 0xff, 0xff, 0xff, 0xff, 0x00, 0x04, 0x00, 0x00,
  0xbc, 0xf0, 0xff, 0xff, 0x10, 0x00, 0x00, 0x00, 0x1c, 0x00, 0x00, 0x00,
  0x20, 0x00, 0x00, 0x00, 0x24, 0x00, 0x00, 0x00, 0x01, 0x00, 0x00, 0x00,
  0x80, 0xff, 0xff, 0xff, 0xff, 0xff, 0xff, 0xff, 0x00, 0x00, 0x00, 0x00,
  0x01, 0x00, 0x00, 0x00, 0x7d, 0x7b, 0x0f, 0x3e, 0x01, 0x00, 0x00, 0x00,
  0x02, 0xec, 0x0e, 0x42, 0x01, 0x00, 0x00, 0x00, 0x00, 0x00, 0x00, 0x00,
  0x0b, 0x00, 0x00, 0x00, 0x74, 0x66, 0x6c, 0x2e, 0x72, 0x65, 0x73, 0x68,
  0x61, 0x70, 0x65, 0x00, 0x02, 0x00, 0x00, 0x00, 0x01, 0x00, 0x00, 0x00,
  0x00, 0x04, 0x00, 0x00, 0x58, 0xf1, 0xff, 0xff, 0x18, 0x00, 0x00, 0x00,
  0x28, 0x00, 0x00, 0x00, 0x60, 0x00, 0x00, 0x00, 0x17, 0x00, 0x00, 0x00,
  0x00, 0x00, 0x00, 0x09, 0x6c, 0x00, 0x00, 0x00, 0x04, 0x00, 0x00, 0x00,
  0xff, 0xff, 0xff, 0xff, 0x08, 0x00, 0x00, 0x00, 0x08, 0x00, 0x00, 0x00,
  0x10, 0x00, 0x00, 0x00, 0x44, 0xf1, 0xff, 0xff, 0x10, 0x00, 0x00, 0x00,
  0x1c, 0x00, 0x00, 0x00, 0x20, 0x00, 0x00, 0x00, 0x24, 0x00, 0x00, 0x00,
  0x01, 0x00, 0x00, 0x00, 0x80, 0xff, 0xff, 0xff, 0xff, 0xff, 0xff, 0xff,
  0x00, 0x00, 0x00, 0x00, 0x01, 0x00, 0x00, 0x00, 0x7d, 0x7b, 0x0f, 0x3e,
  0x01, 0x00, 0x00, 0x00, 0x02, 0xec, 0x0e, 0x42, 0x01, 0x00, 0x00, 0x00,
  0x00, 0x00, 0x00, 0x00, 0x11, 0x00, 0x00, 0x00, 0x3b, 0x3b, 0x3b, 0x63,
  0x6f, 0x6e, 0x76, 0x32, 0x64, 0x5f, 0x31, 0x34, 0x2f, 0x62, 0x69, 0x61,
  0x73, 0x00, 0x00, 0x00, 0x04, 0x00, 0x00, 0x00, 0x01, 0x00, 0x00, 0x00,
  0x08, 0x00, 0x00, 0x00, 0x08, 0x00, 0x00, 0x00, 0x10, 0x00, 0x00, 0x00,
  0xf0, 0xf1, 0xff, 0xff, 0x18, 0x00, 0x00, 0x00, 0x28, 0x00, 0x00, 0x00,
  0x60, 0x00, 0x00, 0x00, 0x16, 0x00, 0x00, 0x00, 0x00, 0x00, 0x00, 0x09,
  0x6c, 0x00, 0x00, 0x00, 0x04, 0x00, 0x00, 0x00, 0xff, 0xff, 0xff, 0xff,
  0x08, 0x00, 0x00, 0x00, 0x08, 0x00, 0x00, 0x00, 0x08, 0x00, 0x00, 0x00,
  0xdc, 0xf1, 0xff, 0xff, 0x10, 0x00, 0x00, 0x00, 0x1c, 0x00, 0x00, 0x00,
  0x20, 0x00, 0x00, 0x00, 0x24, 0x00, 0x00, 0x00, 0x01, 0x00, 0x00, 0x00,
  0x80, 0xff, 0xff, 0xff, 0xff, 0xff, 0xff, 0xff, 0x00, 0x00, 0x00, 0x00,
  0x01, 0x00, 0x00, 0x00, 0xf8, 0xfb, 0x43, 0x3e, 0x01, 0x00, 0x00, 0x00,
  0xfc, 0x37, 0x43, 0x42, 0x01, 0x00, 0x00, 0x00, 0x00, 0x00, 0x00, 0x00,
  0x10, 0x00, 0x00, 0x00, 0x74, 0x66, 0x6c, 0x2e, 0x6d, 0x61, 0x78, 0x5f,
  0x70, 0x6f, 0x6f, 0x6c, 0x5f, 0x32, 0x64, 0x33, 0x00, 0x00, 0x00, 0x00,
  0x04, 0x00, 0x00, 0x00, 0x01, 0x00, 0x00, 0x00, 0x08, 0x00, 0x00, 0x00,
  0x08, 0x00, 0x00, 0x00, 0x08, 0x00, 0x00, 0x00, 0x88, 0xf2, 0xff, 0xff,
  0x18, 0x00, 0x00, 0x00, 0x28, 0x00, 0x00, 0x00, 0x60, 0x00, 0x00, 0x00,
  0x15, 0x00, 0x00, 0x00, 0x00, 0x00, 0x00, 0x09, 0x6c, 0x00, 0x00, 0x00,
  0x04, 0x00, 0x00, 0x00, 0xff, 0xff, 0xff, 0xff, 0x10, 0x00, 0x00, 0x00,
  0x10, 0x00, 0x00, 0x00, 0x08, 0x00, 0x00, 0x00, 0x74, 0xf2, 0xff, 0xff,
  0x10, 0x00, 0x00, 0x00, 0x1c, 0x00, 0x00, 0x00, 0x20, 0x00, 0x00, 0x00,
  0x24, 0x00, 0x00, 0x00, 0x01, 0x00, 0x00, 0x00, 0x80, 0xff, 0xff, 0xff,
  0xff, 0xff, 0xff, 0xff, 0x00, 0x00, 0x00, 0x00, 0x01, 0x00, 0x00, 0x00,
  0xf8, 0xfb, 0x43, 0x3e, 0x01, 0x00, 0x00, 0x00, 0xfc, 0x37, 0x43, 0x42,
  0x01, 0x00, 0x00, 0x00, 0x00, 0x00, 0x00, 0x00, 0x11, 0x00, 0x00, 0x00,
  0x3b, 0x3b, 0x3b, 0x63, 0x6f, 0x6e, 0x76, 0x32, 0x64, 0x5f, 0x31, 0x33,
  0x2f, 0x62, 0x69, 0x61, 0x73, 0x00, 0x00, 0x00, 0x04, 0x00, 0x00, 0x00,
  0x01, 0x00, 0x00, 0x00, 0x10, 0x00, 0x00, 0x00, 0x10, 0x00, 0x00, 0x00,
  0x08, 0x00, 0x00, 0x00, 0x20, 0xf3, 0xff, 0xff, 0x18, 0x00, 0x00, 0x00,
  0x28, 0x00, 0x00, 0x00, 0x60, 0x00, 0x00, 0x00, 0x14, 0x00, 0x00, 0x00,
  0x00, 0x00, 0x00, 0x09, 0x6c, 0x00, 0x00, 0x00, 0x04, 0x00, 0x00, 0x00,
  0xff, 0xff, 0xff, 0xff, 0x10, 0x00, 0x00, 0x00, 0x10, 0x00, 0x00, 0x00,
  0x08, 0x00, 0x00, 0x00, 0x0c, 0xf3, 0xff, 0xff, 0x10, 0x00, 0x00, 0x00,
  0x1c, 0x00, 0x00, 0x00, 0x20, 0x00, 0x00, 0x00, 0x24, 0x00, 0x00, 0x00,
  0x01, 0x00, 0x00, 0x00, 0x80, 0xff, 0xff, 0xff, 0xff, 0xff, 0xff, 0xff,
  0x00, 0x00, 0x00, 0x00, 0x01, 0x00, 0x00, 0x00, 0xd2, 0xdf, 0xa5, 0x3e,
  0x01, 0x00, 0x00, 0x00, 0xf2, 0x39, 0xa5, 0x42, 0x01, 0x00, 0x00, 0x00,
  0x00, 0x00, 0x00, 0x00, 0x10, 0x00, 0x00, 0x00, 0x74, 0x66, 0x6c, 0x2e,
  0x6d, 0x61, 0x78, 0x5f, 0x70, 0x6f, 0x6f, 0x6c, 0x5f, 0x32, 0x64, 0x32,
  0x00, 0x00, 0x00, 0x00, 0x04, 0x00, 0x00, 0x00, 0x01, 0x00, 0x00, 0x00,
  0x10, 0x00, 0x00, 0x00, 0x10, 0x00, 0x00, 0x00, 0x08, 0x00, 0x00, 0x00,
  0xb8, 0xf3, 0xff, 0xff, 0x18, 0x00, 0x00, 0x00, 0x28, 0x00, 0x00, 0x00,
  0x60, 0x00, 0x00, 0x00, 0x13, 0x00, 0x00, 0x00, 0x00, 0x00, 0x00, 0x09,
  0x6c, 0x00, 0x00, 0x00, 0x04, 0x00, 0x00, 0x00, 0xff, 0xff, 0xff, 0xff,
  0x20, 0x00, 0x00, 0x00, 0x20, 0x00, 0x00, 0x00, 0x08, 0x00, 0x00, 0x00,
  0xa4, 0xf3, 0xff, 0xff, 0x10, 0x00, 0x00, 0x00, 0x1c, 0x00, 0x00, 0x00,
  0x20, 0x00, 0x00, 0x00, 0x24, 0x00, 0x00, 0x00, 0x01, 0x00, 0x00, 0x00,
  0x80, 0xff, 0xff, 0xff, 0xff, 0xff, 0xff, 0xff, 0x00, 0x00, 0x00, 0x00,
  0x01, 0x00, 0x00, 0x00, 0xd2, 0xdf, 0xa5, 0x3e, 0x01, 0x00, 0x00, 0x00,
  0xf2, 0x39, 0xa5, 0x42, 0x01, 0x00, 0x00, 0x00, 0x00, 0x00, 0x00, 0x00,
  0x12, 0x00, 0x00, 0x00, 0x3b, 0x3b, 0x3b, 0x3b, 0x63, 0x6f, 0x6e, 0x76,
  0x32, 0x64, 0x5f, 0x31, 0x32, 0x2f, 0x62, 0x69, 0x61, 0x73, 0x00, 0x00,
  0x04, 0x00, 0x00, 0x00, 0x01, 0x00, 0x00, 0x00, 0x20, 0x00, 0x00, 0x00,
  0x20, 0x00, 0x00, 0x00, 0x08, 0x00, 0x00, 0x00, 0x50, 0xf4, 0xff, 0xff,
  0x18, 0x00, 0x00, 0x00, 0x28, 0x00, 0x00, 0x00, 0x60, 0x00, 0x00, 0x00,
  0x12, 0x00, 0x00, 0x00, 0x00, 0x00, 0x00, 0x09, 0x6c, 0x00, 0x00, 0x00,
  0x04, 0x00, 0x00, 0x00, 0xff, 0xff, 0xff, 0xff, 0x20, 0x00, 0x00, 0x00,
  0x20, 0x00, 0x00, 0x00, 0x04, 0x00, 0x00, 0x00, 0x3c, 0xf4, 0xff, 0xff,
  0x10, 0x00, 0x00, 0x00, 0x1c, 0x00, 0x00, 0x00, 0x20, 0x00, 0x00, 0x00,
  0x24, 0x00, 0x00, 0x00, 0x01, 0x00, 0x00, 0x00, 0x80, 0xff, 0xff, 0xff,
  0xff, 0xff, 0xff, 0xff, 0x00, 0x00, 0x00, 0x00, 0x01, 0x00, 0x00, 0x00,
  0x12, 0x9d, 0x02, 0x3f, 0x01, 0x00, 0x00, 0x00, 0x75, 0x1a, 0x02, 0x43,
  0x01, 0x00, 0x00, 0x00, 0x00, 0x00, 0x00, 0x00, 0x10, 0x00, 0x00, 0x00,
  0x74, 0x66, 0x6c, 0x2e, 0x6d, 0x61, 0x78, 0x5f, 0x70, 0x6f, 0x6f, 0x6c,
  0x5f, 0x32, 0x64, 0x31, 0x00, 0x00, 0x00, 0x00, 0x04, 0x00, 0x00, 0x00,
  0x01, 0x00, 0x00, 0x00, 0x20, 0x00, 0x00, 0x00, 0x20, 0x00, 0x00, 0x00,
  0x04, 0x00, 0x00, 0x00, 0xe8, 0xf4, 0xff, 0xff, 0x18, 0x00, 0x00, 0x00,
  0x28, 0x00, 0x00, 0x00, 0x60, 0x00, 0x00, 0x00, 0x11, 0x00, 0x00, 0x00,
  0x00, 0x00, 0x00, 0x09, 0x6c, 0x00, 0x00, 0x00, 0x04, 0x00, 0x00, 0x00,
  0xff, 0xff, 0xff, 0xff, 0x40, 0x00, 0x00, 0x00, 0x40, 0x00, 0x00, 0x00,
  0x04, 0x00, 0x00, 0x00, 0xd4, 0xf4, 0xff, 0xff, 0x10, 0x00, 0x00, 0x00,
  0x1c, 0x00, 0x00, 0x00, 0x20, 0x00, 0x00, 0x00, 0x24, 0x00, 0x00, 0x00,
  0x01, 0x00, 0x00, 0x00, 0x80, 0xff, 0xff, 0xff, 0xff, 0xff, 0xff, 0xff,
  0x00, 0x00, 0x00, 0x00, 0x01, 0x00, 0x00, 0x00, 0x12, 0x9d, 0x02, 0x3f,
  0x01, 0x00, 0x00, 0x00, 0x75, 0x1a, 0x02, 0x43, 0x01, 0x00, 0x00, 0x00,
  0x00, 0x00, 0x00, 0x00, 0x11, 0x00, 0x00, 0x00, 0x3b, 0x3b, 0x3b, 0x63,
  0x6f, 0x6e, 0x76, 0x32, 0x64, 0x5f, 0x31, 0x31, 0x2f, 0x62, 0x69, 0x61,
  0x73, 0x00, 0x00, 0x00, 0x04, 0x00, 0x00, 0x00, 0x01, 0x00, 0x00, 0x00,
  0x40, 0x00, 0x00, 0x00, 0x40, 0x00, 0x00, 0x00, 0x04, 0x00, 0x00, 0x00,
  0x80, 0xf5, 0xff, 0xff, 0x18, 0x00, 0x00, 0x00, 0x28, 0x00, 0x00, 0x00,
  0x5c, 0x00, 0x00, 0x00, 0x10, 0x00, 0x00, 0x00, 0x00, 0x00, 0x00, 0x09,
  0x64, 0x00, 0x00, 0x00, 0x04, 0x00, 0x00, 0x00, 0xff, 0xff, 0xff, 0xff,
  0x40, 0x00, 0x00, 0x00, 0x40, 0x00, 0x00, 0x00, 0x02, 0x00, 0x00, 0x00,
  0x6c, 0xf5, 0xff, 0xff, 0x10, 0x00, 0x00, 0x00, 0x18, 0x00, 0x00, 0x00,
  0x1c, 0x00, 0x00, 0x00, 0x20, 0x00, 0x00, 0x00, 0x01, 0x00, 0x00, 0x00,
  0x80, 0xff, 0xff, 0xff, 0xff, 0xff, 0xff, 0xff, 0x01, 0x00, 0x00, 0x00,
  0x20, 0x4c, 0x52, 0x3f, 0x01, 0x00, 0x00, 0x00, 0xd4, 0x79, 0x51, 0x43,
  0x01, 0x00, 0x00, 0x00, 0x00, 0x00, 0x00, 0x00, 0x0f, 0x00, 0x00, 0x00,
  0x74, 0x66, 0x6c, 0x2e, 0x6d, 0x61, 0x78, 0x5f, 0x70, 0x6f, 0x6f, 0x6c,
  0x5f, 0x32, 0x64, 0x00, 0x04, 0x00, 0x00, 0x00, 0x01, 0x00, 0x00, 0x00,
  0x40, 0x00, 0x00, 0x00, 0x40, 0x00, 0x00, 0x00, 0x02, 0x00, 0x00, 0x00,
  0x10, 0xf6, 0xff, 0xff, 0x18, 0x00, 0x00, 0x00, 0x28, 0x00, 0x00, 0x00,
  0x60, 0x00, 0x00, 0x00, 0x0f, 0x00, 0x00, 0x00, 0x00, 0x00, 0x00, 0x09,
  0x6c, 0x00, 0x00, 0x00, 0x04, 0x00, 0x00, 0x00, 0xff, 0xff, 0xff, 0xff,
  0x80, 0x00, 0x00, 0x00, 0x80, 0x00, 0x00, 0x00, 0x02, 0x00, 0x00, 0x00,
  0xfc, 0xf5, 0xff, 0xff, 0x10, 0x00, 0x00, 0x00, 0x1c, 0x00, 0x00, 0x00,
  0x20, 0x00, 0x00, 0x00, 0x24, 0x00, 0x00, 0x00, 0x01, 0x00, 0x00, 0x00,
  0x80, 0xff, 0xff, 0xff, 0xff, 0xff, 0xff, 0xff, 0x00, 0x00, 0x00, 0x00,
  0x01, 0x00, 0x00, 0x00, 0x20, 0x4c, 0x52, 0x3f, 0x01, 0x00, 0x00, 0x00,
  0xd4, 0x79, 0x51, 0x43, 0x01, 0x00, 0x00, 0x00, 0x00, 0x00, 0x00, 0x00,
  0x11, 0x00, 0x00, 0x00, 0x3b, 0x3b, 0x3b, 0x63, 0x6f, 0x6e, 0x76, 0x32,
  0x64, 0x5f, 0x31, 0x30, 0x2f, 0x62, 0x69, 0x61, 0x73, 0x00, 0x00, 0x00,
  0x04, 0x00, 0x00, 0x00, 0x01, 0x00, 0x00, 0x00, 0x80, 0x00, 0x00, 0x00,
  0x80, 0x00, 0x00, 0x00, 0x02, 0x00, 0x00, 0x00, 0x1a, 0xf7, 0xff, 0xff,
  0x14, 0x00, 0x00, 0x00, 0x78, 0x01, 0x00, 0x00, 0x0e, 0x00, 0x00, 0x00,
  0x00, 0x00, 0x00, 0x09, 0x80, 0x01, 0x00, 0x00, 0x7c, 0xf6, 0xff, 0xff,
  0x10, 0x00, 0x00, 0x00, 0x94, 0x00, 0x00, 0x00, 0xd4, 0x00, 0x00, 0x00,
  0x14, 0x01, 0x00, 0x00, 0x10, 0x00, 0x00, 0x00, 0x00, 0x00, 0x00, 0x00,
  0x00, 0x00, 0x00, 0x00, 0x00, 0x00, 0x00, 0x00, 0x00, 0x00, 0x00, 0x00,
  0x00, 0x00, 0x00, 0x00, 0x00, 0x00, 0x00, 0x00, 0x00, 0x00, 0x00, 0x00,
  0x00, 0x00, 0x00, 0x00, 0x00, 0x00, 0x00, 0x00, 0x00, 0x00, 0x00, 0x00,
  0x00, 0x00, 0x00, 0x00, 0x00, 0x00, 0x00, 0x00, 0x00, 0x00, 0x00, 0x00,
  0x00, 0x00, 0x00, 0x00, 0x00, 0x00, 0x00, 0x00, 0x00, 0x00, 0x00, 0x00,
  0x00, 0x00, 0x00, 0x00, 0x00, 0x00, 0x00, 0x00, 0x00, 0x00, 0x00, 0x00,
  0x00, 0x00, 0x00, 0x00, 0x00, 0x00, 0x00, 0x00, 0x00, 0x00, 0x00, 0x00,
  0x00, 0x00, 0x00, 0x00, 0x00, 0x00, 0x00, 0x00, 0x00, 0x00, 0x00, 0x00,
  0x00, 0x00, 0x00, 0x00, 0x00, 0x00, 0x00, 0x00, 0x00, 0x00, 0x00, 0x00,
  0x00, 0x00, 0x00, 0x00, 0x00, 0x00, 0x00, 0x00, 0x00, 0x00, 0x00, 0x00,
  0x00, 0x00, 0x00, 0x00, 0x00, 0x00, 0x00, 0x00, 0x10, 0x00, 0x00, 0x00,
  0x82, 0xfd, 0x6c, 0x3b, 0xbb, 0x6d, 0xb8, 0x3b, 0xb8, 0x04, 0x88, 0x3b,
  0xe5, 0xad, 0x8b, 0x3b, 0x4e, 0x08, 0x99, 0x3b, 0x20, 0xea, 0x80, 0x3b,
  0xd7, 0x19, 0xfd, 0x3a, 0x86, 0x3e, 0xa3, 0x3b, 0x47, 0x32, 0xa4, 0x3b,
  0x73, 0x8f, 0x90, 0x3b, 0xcd, 0x40, 0x7f, 0x3b, 0x51, 0x3e, 0x6f, 0x3b,
  0xc5, 0x19, 0x7b, 0x3b, 0x0f, 0x21, 0x82, 0x3b, 0x5f, 0x2f, 0x42, 0x3b,
  0x3f, 0xe1, 0x69, 0x3b, 0x10, 0x00, 0x00, 0x00, 0x87, 0x23, 0xeb, 0x3e,
  0xe0, 0xfc, 0x36, 0x3f, 0xaf, 0xf4, 0x06, 0x3f, 0x89, 0x96, 0x0a, 0x3f,
  0xb1, 0xaf, 0xcb, 0x3e, 0x1e, 0xc2, 0xa3, 0x3e, 0xa3, 0x1f, 0x7b, 0x3e,
  0x77, 0xf8, 0x12, 0x3f, 0xe2, 0xe9, 0x22, 0x3f, 0x54, 0x6e, 0x0f, 0x3f,
  0x06, 0x63, 0xe4, 0x3e, 0xd4, 0x5f, 0xed, 0x3e, 0xa2, 0x2a, 0xda, 0x3a,
  0x4b, 0x2c, 0xf5, 0x3e, 0x00, 0xab, 0xc0, 0x3e, 0x92, 0x5e, 0xcc, 0x3e,
  0x10, 0x00, 0x00, 0x00, 0xc2, 0x51, 0xcc, 0xbe, 0x7b, 0x1b, 0xe9, 0xbe,
  0x70, 0x1d, 0x06, 0xbf, 0x61, 0x9c, 0xd0, 0xbe, 0x3d, 0xd6, 0x17, 0xbf,
  0x98, 0xd0, 0xff, 0xbe, 0xd6, 0x0c, 0x6b, 0xbe, 0x09, 0xf8, 0x21, 0xbf,
  0x73, 0x01, 0xaf, 0xbd, 0xe7, 0xc4, 0xb8, 0xbe, 0x4b, 0x42, 0xfd, 0xbe,
  0xee, 0x65, 0xab, 0xbe, 0x91, 0x23, 0xf9, 0xbe, 0xcd, 0x1c, 0x01, 0xbf,
  0x40, 0x78, 0x94, 0xbe, 0x7d, 0x0d, 0xe8, 0xbe, 0x0d, 0x00, 0x00, 0x00,
  0x73, 0x74, 0x64, 0x2e, 0x63, 0x6f, 0x6e, 0x73, 0x74, 0x61, 0x6e, 0x74,
  0x36, 0x00, 0x00, 0x00, 0x04, 0x00, 0x00, 0x00, 0x10, 0x00, 0x00, 0x00,
  0x01, 0x00, 0x00, 0x00, 0x01, 0x00, 0x00, 0x00, 0x08, 0x00, 0x00, 0x00,
  0xc2, 0xf8, 0xff, 0xff, 0x14, 0x00, 0x00, 0x00, 0xd8, 0x00, 0x00, 0x00,
  0x0d, 0x00, 0x00, 0x00, 0x00, 0x00, 0x00, 0x09, 0xe0, 0x00, 0x00, 0x00,
  0x24, 0xf8, 0xff, 0xff, 0x10, 0x00, 0x00, 0x00, 0x54, 0x00, 0x00, 0x00,
  0x74, 0x00, 0x00, 0x00, 0x94, 0x00, 0x00, 0x00, 0x08, 0x00, 0x00, 0x00,
  0x00, 0x00, 0x00, 0x00, 0x00, 0x00, 0x00, 0x00, 0x00, 0x00, 0x00, 0x00,
  0x00, 0x00, 0x00, 0x00, 0x00, 0x00, 0x00, 0x00, 0x00, 0x00, 0x00, 0x00,
  0x00, 0x00, 0x00, 0x00, 0x00, 0x00, 0x00, 0x00, 0x00, 0x00, 0x00, 0x00,
  0x00, 0x00, 0x00, 0x00, 0x00, 0x00, 0x00, 0x00, 0x00, 0x00, 0x00, 0x00,
  0x00, 0x00, 0x00, 0x00, 0x00, 0x00, 0x00, 0x00, 0x00, 0x00, 0x00, 0x00,
  0x00, 0x00, 0x00, 0x00, 0x00, 0x00, 0x00, 0x00, 0x08, 0x00, 0x00, 0x00,
  0xbe, 0x92, 0x52, 0x3b, 0x05, 0x30, 0x37, 0x3b, 0x5d, 0x66, 0x63, 0x3b,
  0xd1, 0x40, 0x5e, 0x3b, 0x13, 0xd8, 0x40, 0x3b, 0xdf, 0x2a, 0x96, 0x3b,
  0xf3, 0x23, 0x61, 0x3b, 0x9e, 0x61, 0x8a, 0x3b, 0x08, 0x00, 0x00, 0x00,
  0x99, 0xed, 0xd0, 0x3e, 0xa5, 0xc1, 0xb5, 0x3e, 0xe2, 0x35, 0xc9, 0x3e,
  0x4f, 0x84, 0xdc, 0x3e, 0xde, 0x72, 0xb1, 0x3e, 0xdf, 0xcc, 0xbf, 0x3e,
  0xab, 0x61, 0xdf, 0x3e, 0x25, 0x40, 0xc2, 0x3e, 0x08, 0x00, 0x00, 0x00,
  0xaa, 0xb8, 0xc8, 0xbe, 0x4f, 0x73, 0xb3, 0xbe, 0x90, 0x9f, 0xe1, 0xbe,
  0x85, 0x81, 0x92, 0xbe, 0x63, 0x56, 0xbf, 0xbe, 0x89, 0xfe, 0x14, 0xbf,
  0xe6, 0x9c, 0xcc, 0xbe, 0xdb, 0x4c, 0x09, 0xbf, 0x0d, 0x00, 0x00, 0x00,
  0x73, 0x74, 0x64, 0x2e, 0x63, 0x6f, 0x6e, 0x73, 0x74, 0x61, 0x6e, 0x74,
  0x35, 0x00, 0x00, 0x00, 0x04, 0x00, 0x00, 0x00, 0x08, 0x00, 0x00, 0x00,
  0x03, 0x00, 0x00, 0x00, 0x03, 0x00, 0x00, 0x00, 0x08, 0x00, 0x00, 0x00,
  0xca, 0xf9, 0xff, 0xff, 0x14, 0x00, 0x00, 0x00, 0xd8, 0x00, 0x00, 0x00,
  0x0c, 0x00, 0x00, 0x00, 0x00, 0x00, 0x00, 0x09, 0xe0, 0x00, 0x00, 0x00,
  0x2c, 0xf9, 0xff, 0xff, 0x10, 0x00, 0x00, 0x00, 0x54, 0x00, 0x00, 0x00,
  0x74, 0x00, 0x00, 0x00, 0x94, 0x00, 0x00, 0x00, 0x08, 0x00, 0x00, 0x00,
  0x00, 0x00, 0x00, 0x00, 0x00, 0x00, 0x00, 0x00, 0x00, 0x00, 0x00, 0x00,
  0x00, 0x00, 0x00, 0x00, 0x00, 0x00, 0x00, 0x00, 0x00, 0x00, 0x00, 0x00,
  0x00, 0x00, 0x00, 0x00, 0x00, 0x00, 0x00, 0x00, 0x00, 0x00, 0x00, 0x00,
  0x00, 0x00, 0x00, 0x00, 0x00, 0x00, 0x00, 0x00, 0x00, 0x00, 0x00, 0x00,
  0x00, 0x00, 0x00, 0x00, 0x00, 0x00, 0x00, 0x00, 0x00, 0x00, 0x00, 0x00,
  0x00, 0x00, 0x00, 0x00, 0x00, 0x00, 0x00, 0x00, 0x08, 0x00, 0x00, 0x00,
  0x6c, 0x16, 0x18, 0x3b, 0xff, 0x05, 0x8e, 0x3b, 0xd7, 0x8e, 0x31, 0x3b,
  0xee, 0xca, 0x33, 0x3b, 0x89, 0xcf, 0x4e, 0x3b, 0xf7, 0x04, 0x78, 0x3b,
  0x20, 0x14, 0x56, 0x3b, 0x0f, 0x68, 0x28, 0x3b, 0x08, 0x00, 0x00, 0x00,
  0x21, 0xaa, 0x5d, 0x3e, 0xa3, 0xc8, 0xcb, 0x3e, 0x35, 0x37, 0x9a, 0x3e,
  0x5a, 0xde, 0x9c, 0x3e, 0x7f, 0xc6, 0xa1, 0x3e, 0xa6, 0xe3, 0x7b, 0x3e,
  0x01, 0x0c, 0x91, 0x3e, 0x49, 0x38, 0x83, 0x3e, 0x08, 0x00, 0x00, 0x00,
  0x3f, 0xe6, 0x96, 0xbe, 0xf3, 0xe9, 0x0c, 0xbf, 0xb9, 0x2b, 0xb0, 0xbe,
  0x58, 0x63, 0xb2, 0xbe, 0xea, 0x31, 0xcd, 0xbe, 0xed, 0x14, 0xf6, 0xbe,
  0xf8, 0x67, 0xd4, 0xbe, 0x3f, 0x17, 0xa7, 0xbe, 0x0d, 0x00, 0x00, 0x00,
  0x73, 0x74, 0x64, 0x2e, 0x63, 0x6f, 0x6e, 0x73, 0x74, 0x61, 0x6e, 0x74,
  0x34, 0x00, 0x00, 0x00, 0x04, 0x00, 0x00, 0x00, 0x08, 0x00, 0x00, 0x00,
  0x03, 0x00, 0x00, 0x00, 0x03, 0x00, 0x00, 0x00, 0x04, 0x00, 0x00, 0x00,
  0xd2, 0xfa, 0xff, 0xff, 0x14, 0x00, 0x00, 0x00, 0x88, 0x00, 0x00, 0x00,
  0x0b, 0x00, 0x00, 0x00, 0x00, 0x00, 0x00, 0x09, 0x90, 0x00, 0x00, 0x00,
  0x34, 0xfa, 0xff, 0xff, 0x10, 0x00, 0x00, 0x00, 0x34, 0x00, 0x00, 0x00,
  0x44, 0x00, 0x00, 0x00, 0x54, 0x00, 0x00, 0x00, 0x04, 0x00, 0x00, 0x00,
  0x00, 0x00, 0x00, 0x00, 0x00, 0x00, 0x00, 0x00, 0x00, 0x00, 0x00, 0x00,
  0x00, 0x00, 0x00, 0x00, 0x00, 0x00, 0x00, 0x00, 0x00, 0x00, 0x00, 0x00,
  0x00, 0x00, 0x00, 0x00, 0x00, 0x00, 0x00, 0x00, 0x00, 0x00, 0x00, 0x00,
  0x04, 0x00, 0x00, 0x00, 0xcd, 0x3c, 0x35, 0x3b, 0xb4, 0x9f, 0x51, 0x3b,
  0xf9, 0xca, 0x4e, 0x3b, 0xf2, 0x46, 0x63, 0x3b, 0x04, 0x00, 0x00, 0x00,
  0x53, 0xd2, 0xb3, 0x3e, 0xdd, 0x5c, 0xcc, 0x3e, 0x3d, 0x8d, 0xa5, 0x3e,
  0x64, 0x80, 0xe1, 0x3e, 0x04, 0x00, 0x00, 0x00, 0xf2, 0x97, 0xa6, 0xbe,
  0x75, 0xfc, 0xcf, 0xbe, 0x63, 0x2d, 0xcd, 0xbe, 0x1a, 0xe0, 0x6e, 0xbe,
  0x0d, 0x00, 0x00, 0x00, 0x73, 0x74, 0x64, 0x2e, 0x63, 0x6f, 0x6e, 0x73,
  0x74, 0x61, 0x6e, 0x74, 0x33, 0x00, 0x00, 0x00, 0x04, 0x00, 0x00, 0x00,
  0x04, 0x00, 0x00, 0x00, 0x03, 0x00, 0x00, 0x00, 0x03, 0x00, 0x00, 0x00,
  0x02, 0x00, 0x00, 0x00, 0x8a, 0xfb, 0xff, 0xff, 0x14, 0x00, 0x00, 0x00,
  0x60, 0x00, 0x00, 0x00, 0x0a, 0x00, 0x00, 0x00, 0x00, 0x00, 0x00, 0x09,
  0x68, 0x00, 0x00, 0x00, 0xec, 0xfa, 0xff, 0xff, 0x10, 0x00, 0x00, 0x00,
  0x24, 0x00, 0x00, 0x00, 0x2c, 0x00, 0x00, 0x00, 0x34, 0x00, 0x00, 0x00,
  0x02, 0x00, 0x00, 0x00, 0x00, 0x00, 0x00, 0x00, 0x00, 0x00, 0x00, 0x00,
  0x00, 0x00, 0x00, 0x00, 0x00, 0x00, 0x00, 0x00, 0x00, 0x00, 0x00, 0x00,
  0x02, 0x00, 0x00, 0x00, 0xd5, 0x0b, 0x67, 0x3b, 0x54, 0x10, 0x8e, 0x3b,
  0x02, 0x00, 0x00, 0x00, 0x5c, 0x4f, 0xb3, 0x3e, 0x03, 0xd8, 0xb7, 0x3e,
  0x02, 0x00, 0x00, 0x00, 0xbd, 0x3d, 0xe5, 0xbe, 0x33, 0xf4, 0x0c, 0xbf,
  0x0d, 0x00, 0x00, 0x00, 0x73, 0x74, 0x64, 0x2e, 0x63, 0x6f, 0x6e, 0x73,
  0x74, 0x61, 0x6e, 0x74, 0x32, 0x00, 0x00, 0x00, 0x04, 0x00, 0x00, 0x00,
  0x02, 0x00, 0x00, 0x00, 0x03, 0x00, 0x00, 0x00, 0x03, 0x00, 0x00, 0x00,
  0x01, 0x00, 0x00, 0x00, 0x1a, 0xfc, 0xff, 0xff, 0x14, 0x00, 0x00, 0x00,
  0x4c, 0x00, 0x00, 0x00, 0x09, 0x00, 0x00, 0x00, 0x00, 0x00, 0x00, 0x09,
  0x54, 0x00, 0x00, 0x00, 0x7c, 0xfb, 0xff, 0xff, 0x10, 0x00, 0x00, 0x00,
  0x1c, 0x00, 0x00, 0x00, 0x20, 0x00, 0x00, 0x00, 0x24, 0x00, 0x00, 0x00,
  0x01, 0x00, 0x00, 0x00, 0x00, 0x00, 0x00, 0x00, 0x00, 0x00, 0x00, 0x00,
  0x00, 0x00, 0x00, 0x00, 0x01, 0x00, 0x00, 0x00, 0x46, 0x80, 0x03, 0x3c,
  0x01, 0x00, 0x00, 0x00, 0x45, 0x79, 0x82, 0x3f, 0x01, 0x00, 0x00, 0x00,
  0xd6, 0xab, 0x29, 0xbf, 0x0d, 0x00, 0x00, 0x00, 0x73, 0x74, 0x64, 0x2e,
  0x63, 0x6f, 0x6e, 0x73, 0x74, 0x61, 0x6e, 0x74, 0x31, 0x00, 0x00, 0x00,
  0x02, 0x00, 0x00, 0x00, 0x01, 0x00, 0x00, 0x00, 0x00, 0x04, 0x00, 0x00,
  0x8e, 0xfc, 0xff, 0xff, 0x18, 0x00, 0x00, 0x00, 0x18, 0x00, 0x00, 0x00,
  0x08, 0x00, 0x00, 0x00, 0x00, 0x00, 0x00, 0x02, 0x20, 0x00, 0x00, 0x00,
  0x04, 0x00, 0x04, 0x00, 0x04, 0x00, 0x00, 0x00, 0x0c, 0x00, 0x00, 0x00,
  0x73, 0x74, 0x64, 0x2e, 0x63, 0x6f, 0x6e, 0x73, 0x74, 0x61, 0x6e, 0x74,
  0x00, 0x00, 0x00, 0x00, 0x01, 0x00, 0x00, 0x00, 0x02, 0x00, 0x00, 0x00,
  0xca, 0xfc, 0xff, 0xff, 0x14, 0x00, 0x00, 0x00, 0x3c, 0x00, 0x00, 0x00,
  0x07, 0x00, 0x00, 0x00, 0x00, 0x00, 0x00, 0x02, 0x44, 0x00, 0x00, 0x00,
  0xbc, 0xfc, 0xff, 0xff, 0x08, 0x00, 0x00, 0x00, 0x18, 0x00, 0x00, 0x00,
  0x02, 0x00, 0x00, 0x00, 0x00, 0x00, 0x00, 0x00, 0x00, 0x00, 0x00, 0x00,
  0x00, 0x00, 0x00, 0x00, 0x00, 0x00, 0x00, 0x00, 0x02, 0x00, 0x00, 0x00,
  0xd5, 0x0b, 0x67, 0x3b, 0x54, 0x10, 0x8e, 0x3b, 0x0e, 0x00, 0x00, 0x00,
  0x63, 0x6f, 0x6e, 0x76, 0x32, 0x64, 0x5f, 0x31, 0x30, 0x2f, 0x62, 0x69,
  0x61, 0x73, 0x00, 0x00, 0x01, 0x00, 0x00, 0x00, 0x02, 0x00, 0x00, 0x00,
  0x2a, 0xfd, 0xff, 0xff, 0x14, 0x00, 0x00, 0x00, 0x54, 0x00, 0x00, 0x00,
  0x06, 0x00, 0x00, 0x00, 0x00, 0x00, 0x00, 0x02, 0x5c, 0x00, 0x00, 0x00,
  0x1c, 0xfd, 0xff, 0xff, 0x08, 0x00, 0x00, 0x00, 0x28, 0x00, 0x00, 0x00,
  0x04, 0x00, 0x00, 0x00, 0x00, 0x00, 0x00, 0x00, 0x00, 0x00, 0x00, 0x00,
  0x00, 0x00, 0x00, 0x00, 0x00, 0x00, 0x00, 0x00, 0x00, 0x00, 0x00, 0x00,
  0x00, 0x00, 0x00, 0x00, 0x00, 0x00, 0x00, 0x00, 0x00, 0x00, 0x00, 0x00,
  0x04, 0x00, 0x00, 0x00, 0xc5, 0xe1, 0x14, 0x3b, 0x57, 0x33, 0x2c, 0x3b,
  0xfe, 0xdf, 0x29, 0x3b, 0xc8, 0xb3, 0x3a, 0x3b, 0x0e, 0x00, 0x00, 0x00,
  0x63, 0x6f, 0x6e, 0x76, 0x32, 0x64, 0x5f, 0x31, 0x31, 0x2f, 0x62, 0x69,
  0x61, 0x73, 0x00, 0x00, 0x01, 0x00, 0x00, 0x00, 0x04, 0x00, 0x00, 0x00,
  0xa2, 0xfd, 0xff, 0xff, 0x14, 0x00, 0x00, 0x00, 0x84, 0x00, 0x00, 0x00,
  0x05, 0x00, 0x00, 0x00, 0x00, 0x00, 0x00, 0x02, 0x8c, 0x00, 0x00, 0x00,
  0x94, 0xfd, 0xff, 0xff, 0x08, 0x00, 0x00, 0x00, 0x48, 0x00, 0x00, 0x00,
  0x08, 0x00, 0x00, 0x00, 0x00, 0x00, 0x00, 0x00, 0x00, 0x00, 0x00, 0x00,
  0x00, 0x00, 0x00, 0x00, 0x00, 0x00, 0x00, 0x00, 0x00, 0x00, 0x00, 0x00,
  0x00, 0x00, 0x00, 0x00, 0x00, 0x00, 0x00, 0x00, 0x00, 0x00, 0x00, 0x00,
  0x00, 0x00, 0x00, 0x00, 0x00, 0x00, 0x00, 0x00, 0x00, 0x00, 0x00, 0x00,
  0x00, 0x00, 0x00, 0x00, 0x00, 0x00, 0x00, 0x00, 0x00, 0x00, 0x00, 0x00,
  0x00, 0x00, 0x00, 0x00, 0x00, 0x00, 0x00, 0x00, 0x08, 0x00, 0x00, 0x00,
  0x67, 0x31, 0x9b, 0x3a, 0x5e, 0xec, 0x10, 0x3b, 0xf5, 0x2e, 0xb5, 0x3a,
  0xba, 0x76, 0xb7, 0x3a, 0x8f, 0x08, 0xd3, 0x3a, 0x64, 0x15, 0xfd, 0x3a,
  0x23, 0x73, 0xda, 0x3a, 0x57, 0xd8, 0xab, 0x3a, 0x0e, 0x00, 0x00, 0x00,
  0x63, 0x6f, 0x6e, 0x76, 0x32, 0x64, 0x5f, 0x31, 0x32, 0x2f, 0x62, 0x69,
  0x61, 0x73, 0x00, 0x00, 0x01, 0x00, 0x00, 0x00, 0x08, 0x00, 0x00, 0x00,
  0x4a, 0xfe, 0xff, 0xff, 0x14, 0x00, 0x00, 0x00, 0x84, 0x00, 0x00, 0x00,
  0x04, 0x00, 0x00, 0x00, 0x00, 0x00, 0x00, 0x02, 0x8c, 0x00, 0x00, 0x00,
  0x3c, 0xfe, 0xff, 0xff, 0x08, 0x00, 0x00, 0x00, 0x48, 0x00, 0x00, 0x00,
  0x08, 0x00, 0x00, 0x00, 0x00, 0x00, 0x00, 0x00, 0x00, 0x00, 0x00, 0x00,
  0x00, 0x00, 0x00, 0x00, 0x00, 0x00, 0x00, 0x00, 0x00, 0x00, 0x00, 0x00,
  0x00, 0x00, 0x00, 0x00, 0x00, 0x00, 0x00, 0x00, 0x00, 0x00, 0x00, 0x00,
  0x00, 0x00, 0x00, 0x00, 0x00, 0x00, 0x00, 0x00, 0x00, 0x00, 0x00, 0x00,
  0x00, 0x00, 0x00, 0x00, 0x00, 0x00, 0x00, 0x00, 0x00, 0x00, 0x00, 0x00,
  0x00, 0x00, 0x00, 0x00, 0x00, 0x00, 0x00, 0x00, 0x08, 0x00, 0x00, 0x00,
  0xaf, 0x70, 0x88, 0x3a, 0x39, 0x64, 0x6d, 0x3a, 0xcb, 0x57, 0x93, 0x3a,
  0x17, 0x02, 0x90, 0x3a, 0xbd, 0xe7, 0x79, 0x3a, 0xd9, 0x99, 0xc2, 0x3a,
  0x03, 0xe1, 0x91, 0x3a, 0xcf, 0x53, 0xb3, 0x3a, 0x0e, 0x00, 0x00, 0x00,
  0x63, 0x6f, 0x6e, 0x76, 0x32, 0x64, 0x5f, 0x31, 0x33, 0x2f, 0x62, 0x69,
  0x61, 0x73, 0x00, 0x00, 0x01, 0x00, 0x00, 0x00, 0x08, 0x00, 0x00, 0x00,
  0xf2, 0xfe, 0xff, 0xff, 0x14, 0x00, 0x00, 0x00, 0xe8, 0x00, 0x00, 0x00,
  0x03, 0x00, 0x00, 0x00, 0x00, 0x00, 0x00, 0x02, 0xf0, 0x00, 0x00, 0x00,
  0xe4, 0xfe, 0xff, 0xff, 0x08, 0x00, 0x00, 0x00, 0x8c, 0x00, 0x00, 0x00,
  0x10, 0x00, 0x00, 0x00, 0x00, 0x00, 0x00, 0x00, 0x00, 0x00, 0x00, 0x00,
  0x00, 0x00, 0x00, 0x00, 0x00, 0x00, 0x00, 0x00, 0x00, 0x00, 0x00, 0x00,
  0x00, 0x00, 0x00, 0x00, 0x00, 0x00, 0x00, 0x00, 0x00, 0x00, 0x00, 0x00,
  0x00, 0x00, 0x00, 0x00, 0x00, 0x00, 0x00, 0x00, 0x00, 0x00, 0x00, 0x00,
  0x00, 0x00, 0x00, 0x00, 0x00, 0x00, 0x00, 0x00, 0x00, 0x00, 0x00, 0x00,
  0x00, 0x00, 0x00, 0x00, 0x00, 0x00, 0x00, 0x00, 0x00, 0x00, 0x00, 0x00,
  0x00, 0x00, 0x00, 0x00, 0x00, 0x00, 0x00, 0x00, 0x00, 0x00, 0x00, 0x00,
  0x00, 0x00, 0x00, 0x00, 0x00, 0x00, 0x00, 0x00, 0x00, 0x00, 0x00, 0x00,
  0x00, 0x00, 0x00, 0x00, 0x00, 0x00, 0x00, 0x00, 0x00, 0x00, 0x00, 0x00,
  0x00, 0x00, 0x00, 0x00, 0x00, 0x00, 0x00, 0x00, 0x00, 0x00, 0x00, 0x00,
  0x00, 0x00, 0x00, 0x00, 0x00, 0x00, 0x00, 0x00, 0x00, 0x00, 0x00, 0x00,
  0x00, 0x00, 0x00, 0x00, 0x10, 0x00, 0x00, 0x00, 0x5c, 0x6e, 0x35, 0x3a,
  0x1c, 0x31, 0x8d, 0x3a, 0xf1, 0x42, 0x50, 0x3a, 0xe0, 0xdd, 0x55, 0x3a,
  0xe6, 0x4f, 0x6a, 0x3a, 0x72, 0x62, 0x45, 0x3a, 0xcc, 0xc3, 0xc1, 0x39,
  0x99, 0xf2, 0x79, 0x3a, 0xd1, 0x67, 0x7b, 0x3a, 0x1b, 0x57, 0x5d, 0x3a,
  0x98, 0x69, 0x43, 0x3a, 0xf2, 0x27, 0x37, 0x3a, 0xc7, 0x3b, 0x40, 0x3a,
  0x86, 0x3e, 0x47, 0x3a, 0x36, 0xa9, 0x14, 0x3a, 0xc5, 0x0c, 0x33, 0x3a,
  0x0e, 0x00, 0x00, 0x00, 0x63, 0x6f, 0x6e, 0x76, 0x32, 0x64, 0x5f, 0x31,
  0x34, 0x2f, 0x62, 0x69, 0x61, 0x73, 0x00, 0x00, 0x01, 0x00, 0x00, 0x00,
  0x10, 0x00, 0x00, 0x00, 0x00, 0x00, 0x0e, 0x00, 0x18, 0x00, 0x14, 0x00,
  0x13, 0x00, 0x0c, 0x00, 0x08, 0x00, 0x04, 0x00, 0x0e, 0x00, 0x00, 0x00,
  0x20, 0x00, 0x00, 0x00, 0x40, 0x00, 0x00, 0x00, 0x02, 0x00, 0x00, 0x00,
  0x00, 0x00, 0x00, 0x02, 0x48, 0x00, 0x00, 0x00, 0x0c, 0x00, 0x0c, 0x00,
  0x00, 0x00, 0x00, 0x00, 0x08, 0x00, 0x04, 0x00, 0x0c, 0x00, 0x00, 0x00,
  0x08, 0x00, 0x00, 0x00, 0x14, 0x00, 0x00, 0x00, 0x01, 0x00, 0x00, 0x00,
  0x00, 0x00, 0x00, 0x00, 0x00, 0x00, 0x00, 0x00, 0x00, 0x00, 0x00, 0x00,
  0x01, 0x00, 0x00, 0x00, 0x2c, 0x68, 0x93, 0x3a, 0x0c, 0x00, 0x00, 0x00,
  0x64, 0x65, 0x6e, 0x73, 0x65, 0x5f, 0x32, 0x2f, 0x62, 0x69, 0x61, 0x73,
  0x00, 0x00, 0x00, 0x00, 0x01, 0x00, 0x00, 0x00, 0x01, 0x00, 0x00, 0x00,
  0x14, 0x00, 0x1c, 0x00, 0x18, 0x00, 0x17, 0x00, 0x10, 0x00, 0x0c, 0x00,
  0x08, 0x00, 0x00, 0x00, 0x00, 0x00, 0x04, 0x00, 0x14, 0x00, 0x00, 0x00,
  0x18, 0x00, 0x00, 0x00, 0x34, 0x00, 0x00, 0x00, 0x68, 0x00, 0x00, 0x00,
  0x01, 0x00, 0x00, 0x00, 0x00, 0x00, 0x00, 0x09, 0x88, 0x00, 0x00, 0x00,
  0x04, 0x00, 0x00, 0x00, 0xff, 0xff, 0xff, 0xff, 0x80, 0x00, 0x00, 0x00,
  0x80, 0x00, 0x00, 0x00, 0x01, 0x00, 0x00, 0x00, 0x0c, 0x00, 0x14, 0x00,
  0x10, 0x00, 0x0c, 0x00, 0x08, 0x00, 0x04, 0x00, 0x0c, 0x00, 0x00, 0x00,
  0x10, 0x00, 0x00, 0x00, 0x18, 0x00, 0x00, 0x00, 0x1c, 0x00, 0x00, 0x00,
  0x20, 0x00, 0x00, 0x00, 0x01, 0x00, 0x00, 0x00, 0x80, 0xff, 0xff, 0xff,
  0xff, 0xff, 0xff, 0xff, 0x01, 0x00, 0x00, 0x00, 0x00, 0x00, 0x80, 0x3f,
  0x01, 0x00, 0x00, 0x00, 0x00, 0x00, 0x7f, 0x43, 0x01, 0x00, 0x00, 0x00,
  0x00, 0x00, 0x00, 0x00, 0x26, 0x00, 0x00, 0x00, 0x73, 0x65, 0x72, 0x76,
  0x69, 0x6e, 0x67, 0x5f, 0x64, 0x65, 0x66, 0x61, 0x75, 0x6c, 0x74, 0x5f,
  0x63, 0x6f, 0x6e, 0x76, 0x32, 0x64, 0x5f, 0x31, 0x30, 0x5f, 0x69, 0x6e,
  0x70, 0x75, 0x74, 0x3a, 0x30, 0x5f, 0x69, 0x6e, 0x74, 0x38, 0x00, 0x00,
  0x04, 0x00, 0x00, 0x00, 0x01, 0x00, 0x00, 0x00, 0x80, 0x00, 0x00, 0x00,
  0x80, 0x00, 0x00, 0x00, 0x01, 0x00, 0x00, 0x00, 0x07, 0x00, 0x00, 0x00,
  0x8c, 0x00, 0x00, 0x00, 0x6c, 0x00, 0x00, 0x00, 0x5c, 0x00, 0x00, 0x00,
  0x3c, 0x00, 0x00, 0x00, 0x28, 0x00, 0x00, 0x00, 0x18, 0x00, 0x00, 0x00,
  0x04, 0x00, 0x00, 0x00, 0x9c, 0xff, 0xff, 0xff, 0x06, 0x00, 0x00, 0x00,
  0x02, 0x00, 0x00, 0x00, 0x00, 0x00, 0x00, 0x06, 0xd4, 0xff, 0xff, 0xff,
  0x72, 0x00, 0x00, 0x00, 0x00, 0x00, 0x00, 0x72, 0xb8, 0xff, 0xff, 0xff,
  0x0e, 0x00, 0x00, 0x00, 0x02, 0x00, 0x00, 0x00, 0x00, 0x00, 0x00, 0x0e,
  0xc8, 0xff, 0xff, 0xff, 0x09, 0x00, 0x00, 0x00, 0x04, 0x00, 0x00, 0x00,
  0x00, 0x00, 0x00, 0x09, 0x0c, 0x00, 0x0c, 0x00, 0x0b, 0x00, 0x00, 0x00,
  0x00, 0x00, 0x04, 0x00, 0x0c, 0x00, 0x00, 0x00, 0x16, 0x00, 0x00, 0x00,
  0x00, 0x00, 0x00, 0x16, 0xf0, 0xff, 0xff, 0xff, 0x11, 0x00, 0x00, 0x00,
  0x02, 0x00, 0x00, 0x00, 0x00, 0x00, 0x00, 0x11, 0x0c, 0x00, 0x10, 0x00,
  0x0f, 0x00, 0x00, 0x00, 0x08, 0x00, 0x04, 0x00, 0x0c, 0x00, 0x00, 0x00,
  0x03, 0x00, 0x00, 0x00, 0x03, 0x00, 0x00, 0x00, 0x00, 0x00, 0x00, 0x03
};



const int g_model_len = 23064;
