
/* Copyright 2019 The TensorFlow Authors. All Rights Reserved.

Licensed under the Apache License, Version 2.0 (the "License");
you may not use this file except in compliance with the License.
You may obtain a copy of the License at

    http://www.apache.org/licenses/LICENSE-2.0

Unless required by applicable law or agreed to in writing, software
distributed under the License is distributed on an "AS IS" BASIS,
WITHOUT WARRANTIES OR CONDITIONS OF ANY KIND, either express or implied.
See the License for the specific language governing permissions and
limitations under the License.
==============================================================================*/

// This is a TensorFlow Lite model file that has been converted into a C data
// array using the tensorflow.lite.util.convert_bytes_to_c_source() function.
// This form is useful for compiling into a binary for devices that don't have a
// file system.

#include "person_detect_model_data.h"

// Keep model aligned to 8 bytes to guarantee aligned 64-bit accesses.
alignas(8) const unsigned char g_person_detect_model_data[] = {
  0x1c, 0x00, 0x00, 0x00, 0x54, 0x46, 0x4c, 0x33, 0x14, 0x00, 0x20, 0x00,
  0x1c, 0x00, 0x18, 0x00, 0x14, 0x00, 0x10, 0x00, 0x0c, 0x00, 0x00, 0x00,
  0x08, 0x00, 0x04, 0x00, 0x14, 0x00, 0x00, 0x00, 0x1c, 0x00, 0x00, 0x00,
  0xa0, 0x00, 0x00, 0x00, 0xd0, 0x00, 0x00, 0x00, 0x2c, 0x0c, 0x00, 0x00,
  0x3c, 0x0c, 0x00, 0x00, 0x9c, 0x1a, 0x00, 0x00, 0x03, 0x00, 0x00, 0x00,
  0x01, 0x00, 0x00, 0x00, 0x04, 0x00, 0x00, 0x00, 0x00, 0xe6, 0xff, 0xff,
  0x10, 0x00, 0x00, 0x00, 0x18, 0x00, 0x00, 0x00, 0x28, 0x00, 0x00, 0x00,
  0x44, 0x00, 0x00, 0x00, 0x05, 0x00, 0x00, 0x00, 0x73, 0x65, 0x72, 0x76,
  0x65, 0x00, 0x00, 0x00, 0x0f, 0x00, 0x00, 0x00, 0x73, 0x65, 0x72, 0x76,
  0x69, 0x6e, 0x67, 0x5f, 0x64, 0x65, 0x66, 0x61, 0x75, 0x6c, 0x74, 0x00,
  0x01, 0x00, 0x00, 0x00, 0x04, 0x00, 0x00, 0x00, 0xb4, 0xff, 0xff, 0xff,
  0x13, 0x00, 0x00, 0x00, 0x04, 0x00, 0x00, 0x00, 0x07, 0x00, 0x00, 0x00,
  0x64, 0x65, 0x6e, 0x73, 0x65, 0x5f, 0x33, 0x00, 0x01, 0x00, 0x00, 0x00,
  0x04, 0x00, 0x00, 0x00, 0x66, 0xf4, 0xff, 0xff, 0x04, 0x00, 0x00, 0x00,
  0x15, 0x00, 0x00, 0x00, 0x6d, 0x61, 0x78, 0x5f, 0x70, 0x6f, 0x6f, 0x6c,
  0x69, 0x6e, 0x67, 0x32, 0x64, 0x5f, 0x34, 0x5f, 0x69, 0x6e, 0x70, 0x75,
  0x74, 0x00, 0x00, 0x00, 0x01, 0x00, 0x00, 0x00, 0x0c, 0x00, 0x00, 0x00,
  0x08, 0x00, 0x0c, 0x00, 0x08, 0x00, 0x04, 0x00, 0x08, 0x00, 0x00, 0x00,
  0x15, 0x00, 0x00, 0x00, 0x04, 0x00, 0x00, 0x00, 0x13, 0x00, 0x00, 0x00,
  0x6d, 0x69, 0x6e, 0x5f, 0x72, 0x75, 0x6e, 0x74, 0x69, 0x6d, 0x65, 0x5f,
  0x76, 0x65, 0x72, 0x73, 0x69, 0x6f, 0x6e, 0x00, 0x16, 0x00, 0x00, 0x00,
  0x58, 0x0b, 0x00, 0x00, 0x50, 0x0b, 0x00, 0x00, 0x3c, 0x0b, 0x00, 0x00,
  0xa4, 0x0a, 0x00, 0x00, 0x84, 0x0a, 0x00, 0x00, 0x54, 0x0a, 0x00, 0x00,
  0x3c, 0x0a, 0x00, 0x00, 0x2c, 0x02, 0x00, 0x00, 0xfc, 0x01, 0x00, 0x00,
  0xa4, 0x01, 0x00, 0x00, 0x74, 0x00, 0x00, 0x00, 0x6c, 0x00, 0x00, 0x00,
  0x64, 0x00, 0x00, 0x00, 0x5c, 0x00, 0x00, 0x00, 0x54, 0x00, 0x00, 0x00,
  0x4c, 0x00, 0x00, 0x00, 0x44, 0x00, 0x00, 0x00, 0x3c, 0x00, 0x00, 0x00,
  0x34, 0x00, 0x00, 0x00, 0x2c, 0x00, 0x00, 0x00, 0x24, 0x00, 0x00, 0x00,
  0x04, 0x00, 0x00, 0x00, 0x1a, 0xf5, 0xff, 0xff, 0x04, 0x00, 0x00, 0x00,
  0x10, 0x00, 0x00, 0x00, 0x31, 0x2e, 0x31, 0x34, 0x2e, 0x30, 0x00, 0x00,
  0x00, 0x00, 0x00, 0x00, 0x00, 0x00, 0x00, 0x00, 0x7c, 0xe9, 0xff, 0xff,
  0x80, 0xe9, 0xff, 0xff, 0x84, 0xe9, 0xff, 0xff, 0x88, 0xe9, 0xff, 0xff,
  0x8c, 0xe9, 0xff, 0xff, 0x90, 0xe9, 0xff, 0xff, 0x94, 0xe9, 0xff, 0xff,
  0x98, 0xe9, 0xff, 0xff, 0x9c, 0xe9, 0xff, 0xff, 0xa0, 0xe9, 0xff, 0xff,
  0x5e, 0xf5, 0xff, 0xff, 0x04, 0x00, 0x00, 0x00, 0x20, 0x01, 0x00, 0x00,
  0xa1, 0x7e, 0xe3, 0x87, 0xba, 0xf0, 0x56, 0x2b, 0xd4, 0x0e, 0xfa, 0x8a,
  0x04, 0xd8, 0x14, 0x76, 0xfd, 0x93, 0x68, 0xea, 0x40, 0x7f, 0xe2, 0x5f,
  0x00, 0x75, 0xb0, 0xc0, 0x29, 0x27, 0x97, 0x6e, 0x1a, 0x17, 0xfd, 0xf2,
  0x81, 0x07, 0x6a, 0xfb, 0x77, 0x31, 0x8c, 0xe3, 0xc3, 0x2b, 0xb1, 0xc6,
  0xcb, 0xbd, 0x04, 0x95, 0xf8, 0x5a, 0x18, 0x3b, 0x03, 0x17, 0x5e, 0xd4,
  0xb1, 0xb1, 0xe4, 0x94, 0x7f, 0x08, 0x78, 0xfe, 0x33, 0xb4, 0xaa, 0xbb,
  0xfc, 0x29, 0xc7, 0xc8, 0xf3, 0xbf, 0x7c, 0x94, 0x44, 0xc5, 0xf2, 0xd5,
  0xf2, 0x02, 0x70, 0x73, 0xce, 0x55, 0xaf, 0xc8, 0xf4, 0xde, 0xda, 0xde,
  0x4a, 0x79, 0xb4, 0x5d, 0xa6, 0x33, 0xfc, 0x9c, 0x12, 0x21, 0x86, 0x41,
  0xf2, 0x1c, 0x69, 0x4d, 0x06, 0x2d, 0xad, 0x9c, 0x09, 0x3a, 0x8e, 0x79,
  0x7f, 0x5d, 0x84, 0x7f, 0xf5, 0xb8, 0x0a, 0xfc, 0x49, 0x33, 0xb4, 0x4d,
  0x48, 0xf3, 0x18, 0xea, 0x31, 0xb5, 0xb0, 0xba, 0x0f, 0xf0, 0xf9, 0x9a,
  0x8d, 0xd5, 0x63, 0x45, 0x95, 0x44, 0x49, 0x21, 0xe4, 0x2e, 0x0d, 0x57,
  0x49, 0xac, 0x43, 0x47, 0x15, 0x00, 0x4c, 0xfb, 0x24, 0x24, 0x5b, 0xdd,
  0xca, 0xd3, 0xe2, 0x81, 0xf5, 0xec, 0x01, 0x6c, 0x96, 0x9b, 0xec, 0x48,
  0x42, 0x0c, 0xff, 0x66, 0xd5, 0xdb, 0xde, 0x83, 0x5b, 0x53, 0x5d, 0x36,
  0x26, 0x93, 0x37, 0x40, 0x0e, 0x50, 0x95, 0xe5, 0xb9, 0x2f, 0xb3, 0xb3,
  0xc6, 0x51, 0xff, 0x92, 0x4b, 0x19, 0xa4, 0xe7, 0x3a, 0xed, 0xec, 0x25,
  0x26, 0x65, 0xf7, 0x67, 0xb0, 0x05, 0xea, 0x0c, 0x4b, 0x71, 0xce, 0x17,
  0xd4, 0x11, 0x20, 0xc8, 0xc5, 0x68, 0x7f, 0xc6, 0xe5, 0xb9, 0x1d, 0xd1,
  0x40, 0xb9, 0xc0, 0x5e, 0x59, 0x9c, 0x0b, 0xcf, 0x2e, 0x70, 0x7e, 0x9c,
  0x16, 0x47, 0x2d, 0x0a, 0xfe, 0x42, 0x32, 0xd0, 0x1a, 0x08, 0xa5, 0x37,
  0x65, 0x66, 0xe2, 0xbe, 0x6b, 0x90, 0x75, 0xb4, 0x6c, 0xd1, 0x3a, 0xa0,
  0x87, 0x6c, 0x4f, 0x04, 0x5c, 0xe8, 0x1b, 0xa6, 0x07, 0x3d, 0xe4, 0x15,
  0x8a, 0xf6, 0xff, 0xff, 0x04, 0x00, 0x00, 0x00, 0x48, 0x00, 0x00, 0x00,
  0x7a, 0xc2, 0x81, 0x8c, 0x17, 0x43, 0x08, 0xb2, 0xec, 0x7f, 0xf8, 0xa1,
  0x30, 0xc9, 0x57, 0xf7, 0x1c, 0x1c, 0xbb, 0x3d, 0x6e, 0x30, 0xd4, 0xe5,
  0xea, 0xd6, 0x81, 0x05, 0xb9, 0x06, 0x3c, 0x0b, 0x92, 0x81, 0x4a, 0x51,
  0x3c, 0xd9, 0xe3, 0xe4, 0x81, 0x58, 0x76, 0x6d, 0xcb, 0x73, 0xfa, 0x47,
  0x03, 0xab, 0x69, 0x81, 0xb5, 0x2a, 0xb1, 0x03, 0xf1, 0xdc, 0x53, 0x19,
  0x81, 0x48, 0x5b, 0x44, 0xb0, 0x7c, 0x38, 0xc1, 0xc0, 0x18, 0x81, 0x37,
  0xde, 0xf6, 0xff, 0xff, 0x04, 0x00, 0x00, 0x00, 0x20, 0x00, 0x00, 0x00,
  0x0c, 0x75, 0x95, 0xbf, 0xc8, 0x4e, 0x25, 0x2f, 0x78, 0x25, 0x1c, 0x94,
  0x9e, 0x43, 0xe1, 0x09, 0x61, 0x5c, 0x79, 0xe4, 0x40, 0x4e, 0x78, 0x8e,
  0xbd, 0xc1, 0x7f, 0x4d, 0xb5, 0x21, 0x1c, 0x9d, 0x0a, 0xf7, 0xff, 0xff,
  0x04, 0x00, 0x00, 0x00, 0x00, 0x08, 0x00, 0x00, 0xb5, 0xbd, 0x18, 0x24,
  0x8d, 0x75, 0xef, 0x28, 0xf2, 0x1d, 0xa7, 0x23, 0xec, 0x8f, 0x97, 0xd6,
  0x74, 0x2c, 0x03, 0xd4, 0x6c, 0x9f, 0x1a, 0x97, 0x8b, 0x17, 0x0d, 0x05,
  0xe7, 0x91, 0x4a, 0x8f, 0x8a, 0x9e, 0x96, 0x22, 0x45, 0xca, 0xe6, 0x92,
  0xc2, 0xa3, 0xf5, 0xb8, 0xf2, 0x55, 0x3a, 0x10, 0xd1, 0xbe, 0x92, 0xd5,
  0x4a, 0xbb, 0xa5, 0x59, 0xb0, 0x51, 0x52, 0x4a, 0x9e, 0xdb, 0xee, 0xac,
  0x02, 0x72, 0x36, 0x6c, 0x9b, 0xdd, 0x7a, 0x12, 0xdc, 0x1a, 0x0e, 0x78,
  0xa8, 0x52, 0xbd, 0xca, 0xe0, 0x7e, 0xf0, 0xd6, 0xee, 0xda, 0xac, 0xf7,
  0x27, 0xce, 0x5e, 0x65, 0x3b, 0x31, 0xd0, 0xe0, 0x73, 0xa2, 0x7e, 0xd3,
  0xa3, 0x49, 0xab, 0xc3, 0xad, 0x10, 0x07, 0xb0, 0x7d, 0x4a, 0x4f, 0xb0,
  0x70, 0x34, 0x83, 0xe6, 0x58, 0x16, 0x33, 0x67, 0x5a, 0x06, 0xcf, 0x5b,
  0xdc, 0x20, 0xea, 0x14, 0xa9, 0xd1, 0xab, 0x32, 0xd0, 0xd4, 0xe1, 0xbe,
  0x67, 0xe0, 0x1e, 0x08, 0x3a, 0xa5, 0x0e, 0xcf, 0x3e, 0x17, 0x4a, 0x42,
  0x60, 0xe0, 0x17, 0x07, 0xa4, 0x09, 0xad, 0x28, 0xd9, 0xbd, 0xa9, 0x47,
  0xdd, 0x98, 0xbc, 0x83, 0x92, 0x85, 0x2b, 0x47, 0xb8, 0x78, 0xbc, 0x85,
  0x1b, 0x20, 0x78, 0x86, 0xa6, 0x8e, 0x56, 0x7b, 0xe3, 0x7e, 0x30, 0x9c,
  0xc5, 0xd4, 0xd2, 0x1b, 0x8d, 0x59, 0x09, 0x21, 0xf8, 0xd1, 0xaf, 0x33,
  0x10, 0xba, 0x48, 0xd7, 0x25, 0x03, 0xd9, 0x04, 0x31, 0x71, 0xbb, 0xae,
  0xb5, 0x2c, 0x84, 0x63, 0x4b, 0xd3, 0xe0, 0x48, 0x38, 0x38, 0x32, 0x07,
  0x05, 0xbf, 0xe1, 0x65, 0xf5, 0x88, 0x3b, 0x36, 0x8e, 0x1f, 0x1d, 0xb4,
  0xd4, 0xd8, 0x39, 0xf7, 0xda, 0xfb, 0xd6, 0x07, 0xef, 0xe4, 0x52, 0xcf,
  0x4c, 0x7f, 0xe2, 0xa9, 0x57, 0xba, 0xa4, 0xb3, 0x39, 0x2d, 0x61, 0xb8,
  0x93, 0x01, 0x8b, 0x3c, 0xd2, 0x67, 0xad, 0x1f, 0xb1, 0x52, 0x8b, 0x20,
  0x2d, 0xc7, 0xb5, 0x7e, 0xee, 0xe9, 0x46, 0x6c, 0x15, 0xa3, 0x4b, 0x37,
  0x22, 0x38, 0x75, 0x4d, 0x08, 0xc9, 0x7c, 0x72, 0x90, 0x75, 0x5f, 0x43,
  0xb8, 0x44, 0xca, 0x4d, 0x5b, 0xf3, 0x00, 0xf9, 0xae, 0xae, 0x2d, 0xff,
  0xb5, 0xa6, 0x6c, 0xfc, 0x98, 0xcf, 0xe1, 0x4e, 0xb5, 0x70, 0xa5, 0x8b,
  0x14, 0xef, 0x95, 0xc0, 0x5f, 0xba, 0xaa, 0x05, 0x2e, 0x28, 0xa2, 0xcf,
  0x88, 0xe7, 0x10, 0x01, 0xe3, 0x4e, 0x5e, 0x39, 0xe1, 0xa2, 0x5f, 0x24,
  0xba, 0xd6, 0xea, 0x27, 0x9c, 0x1d, 0x50, 0x2c, 0x46, 0xac, 0xc6, 0x09,
  0xa3, 0xa0, 0x96, 0x77, 0x94, 0x6b, 0x45, 0xe2, 0xf0, 0xdc, 0x87, 0x0e,
  0x0e, 0x55, 0xa1, 0xbd, 0x2c, 0x7c, 0x56, 0x15, 0x50, 0x57, 0x54, 0x08,
  0xde, 0xeb, 0x61, 0x4c, 0xa5, 0xe4, 0x13, 0x40, 0x1c, 0xee, 0x36, 0x66,
  0x04, 0xb3, 0x48, 0xe7, 0x75, 0xa9, 0x2c, 0x10, 0xb3, 0xb4, 0x26, 0xf6,
  0x49, 0xa4, 0x41, 0xce, 0xaa, 0x52, 0x45, 0xbb, 0x35, 0x5a, 0xc2, 0x83,
  0x37, 0xbb, 0x6e, 0xc5, 0x0d, 0x3a, 0x73, 0xe8, 0xb1, 0x8a, 0x01, 0x84,
  0x4c, 0xb1, 0xcd, 0xc8, 0x2a, 0x74, 0x87, 0xad, 0xfe, 0x1d, 0xf0, 0xe9,
  0xc4, 0xc5, 0x68, 0x2f, 0x66, 0xec, 0x14, 0x5c, 0xc4, 0x17, 0x7d, 0x47,
  0x84, 0xc4, 0x0e, 0x4f, 0xd5, 0x7d, 0x33, 0x52, 0x78, 0x73, 0x26, 0x04,
  0x1f, 0x4e, 0xb8, 0x72, 0x9e, 0xa3, 0xf2, 0x00, 0x59, 0xe3, 0x09, 0xa1,
  0x82, 0x29, 0x17, 0x30, 0x3b, 0x2e, 0x4f, 0x25, 0xdc, 0x92, 0xb2, 0x42,
  0xfc, 0x94, 0x45, 0xa2, 0xd4, 0x31, 0x3d, 0x72, 0xeb, 0x1d, 0xe1, 0xfe,
  0x34, 0x83, 0x99, 0xd9, 0xea, 0xab, 0xaf, 0xcf, 0x92, 0xd4, 0x52, 0xfd,
  0xff, 0xbf, 0x35, 0xdb, 0xb2, 0x91, 0x51, 0xb3, 0xe6, 0x5c, 0x48, 0xc4,
  0x6b, 0x77, 0x33, 0x62, 0xf9, 0x2f, 0x39, 0x6e, 0xe8, 0x11, 0x11, 0x8a,
  0x65, 0x44, 0x38, 0x5a, 0x95, 0x01, 0x68, 0xb0, 0x61, 0xe1, 0x02, 0x6e,
  0xe8, 0x79, 0x10, 0x60, 0x09, 0x0b, 0xc1, 0x88, 0xdd, 0xbb, 0x32, 0x76,
  0xe0, 0xa2, 0xd0, 0xba, 0x69, 0xd8, 0x0c, 0x0f, 0xb7, 0x15, 0x1c, 0xec,
  0x5c, 0x6e, 0xf1, 0x51, 0x37, 0x04, 0xfb, 0xd6, 0x1a, 0x00, 0x64, 0x3f,
  0xea, 0x8b, 0x97, 0xc5, 0xf4, 0x75, 0xfa, 0x6a, 0x72, 0xdb, 0xa4, 0x8e,
  0x09, 0xcb, 0x9f, 0x3c, 0x9d, 0xbb, 0x04, 0xca, 0x20, 0x18, 0x1f, 0xa5,
  0xc5, 0x9d, 0x81, 0xba, 0x25, 0x39, 0xa1, 0x55, 0x8c, 0x0d, 0x86, 0x42,
  0xa9, 0x96, 0x1a, 0x8c, 0x07, 0xb5, 0x68, 0xe1, 0x34, 0x2f, 0x96, 0x73,
  0x77, 0xe7, 0x4f, 0x79, 0xc6, 0x27, 0x2a, 0x3c, 0x47, 0x5f, 0x13, 0x47,
  0x3c, 0x27, 0x3b, 0xca, 0xd6, 0x2e, 0x7c, 0xd1, 0x1d, 0xe4, 0x75, 0xd9,
  0xb9, 0xcd, 0xd4, 0x49, 0x0e, 0x2d, 0x16, 0xe4, 0xd2, 0x5c, 0x30, 0x2b,
  0x47, 0xb6, 0x63, 0xe5, 0x33, 0xfb, 0x76, 0x63, 0xa5, 0x63, 0x13, 0xba,
  0xc4, 0xcc, 0x73, 0xb6, 0xd9, 0x84, 0xfa, 0x61, 0xde, 0x22, 0xd3, 0xdf,
  0x9c, 0x01, 0xde, 0x01, 0xc4, 0xf7, 0x57, 0x05, 0xb9, 0xe7, 0x62, 0x42,
  0xae, 0x97, 0xa6, 0xb2, 0xb5, 0x42, 0xd8, 0x9d, 0x6c, 0x6a, 0xf7, 0xbf,
  0x16, 0x86, 0x40, 0x96, 0x35, 0x91, 0x02, 0x73, 0xda, 0x71, 0xc0, 0x88,
  0x8a, 0x44, 0x88, 0xea, 0xcd, 0xe4, 0x4d, 0x69, 0xa6, 0xbd, 0x36, 0x0d,
  0xc0, 0x9a, 0x18, 0xba, 0x8f, 0x4f, 0xd2, 0xff, 0x6e, 0xd0, 0x13, 0xa4,
  0xcb, 0xd2, 0xa9, 0x31, 0x8c, 0xf0, 0xbb, 0xe2, 0x08, 0xb5, 0xcf, 0xb9,
  0x59, 0xfe, 0xec, 0x89, 0xcf, 0x46, 0x9b, 0xa3, 0xa0, 0xa1, 0x69, 0xfd,
  0xed, 0x8c, 0xd5, 0x04, 0x7d, 0x70, 0x61, 0xd9, 0xb8, 0xf5, 0x2d, 0x3b,
  0x06, 0xdd, 0x0e, 0x79, 0xa5, 0xce, 0x00, 0xd6, 0x4a, 0xed, 0x9c, 0xa0,
  0x35, 0x29, 0xf8, 0x61, 0xc0, 0x33, 0x70, 0xac, 0xd0, 0x7b, 0x76, 0xce,
  0x15, 0x2a, 0xbf, 0xbd, 0x66, 0x9f, 0xcb, 0x1f, 0x4b, 0x2f, 0xb4, 0x8b,
  0xe4, 0x5a, 0xf6, 0x9b, 0xd1, 0x3f, 0x98, 0x1c, 0xbc, 0x39, 0x39, 0x05,
  0x2f, 0x78, 0xb6, 0x87, 0xc9, 0xa4, 0xe4, 0xe8, 0xa3, 0x7a, 0x14, 0x46,
  0xe6, 0xfd, 0x87, 0x70, 0xec, 0x13, 0x08, 0xf9, 0x43, 0xbf, 0xac, 0x83,
  0x49, 0xf3, 0x15, 0xbc, 0x38, 0x02, 0x12, 0x14, 0xd4, 0xc8, 0x8c, 0x41,
  0x7f, 0xd6, 0x43, 0x13, 0x11, 0x0d, 0x83, 0x6c, 0xdc, 0x99, 0x68, 0x9b,
  0xd2, 0x1b, 0x35, 0x49, 0xe5, 0x7d, 0xed, 0x38, 0x4d, 0xb5, 0x24, 0x17,
  0xb1, 0xb2, 0x4b, 0xa6, 0x0c, 0x29, 0x2c, 0x58, 0x29, 0xb6, 0xa4, 0x8a,
  0xad, 0xc9, 0x55, 0x87, 0xde, 0xd7, 0xb6, 0xb6, 0xd1, 0x85, 0x7c, 0x85,
  0x27, 0x89, 0x23, 0x14, 0xda, 0xbb, 0x33, 0x66, 0x1a, 0xd5, 0x09, 0xc7,
  0x1c, 0xf3, 0x0b, 0x16, 0x3c, 0x6e, 0x17, 0xbf, 0x12, 0xca, 0x3b, 0xeb,
  0x5e, 0x1e, 0x46, 0x97, 0xa3, 0x27, 0x5c, 0x50, 0xff, 0x8e, 0x95, 0xe5,
  0xa1, 0xb7, 0xbd, 0x18, 0x58, 0x0e, 0xe0, 0xd6, 0x22, 0xde, 0xcf, 0x0d,
  0xae, 0xfe, 0xcf, 0x78, 0x55, 0xd9, 0x71, 0xf6, 0x39, 0x13, 0xc4, 0x14,
  0x13, 0xa9, 0xad, 0x2f, 0x7b, 0x42, 0x6f, 0x24, 0xf5, 0x8b, 0xc8, 0x2c,
  0x37, 0xa9, 0x44, 0xfe, 0x5e, 0xe7, 0x56, 0x0c, 0x39, 0x16, 0x23, 0xe4,
  0x9b, 0x0a, 0x17, 0x05, 0x3a, 0x60, 0x21, 0x53, 0x67, 0xf1, 0x2b, 0x73,
  0xc5, 0x5a, 0xd8, 0x96, 0xb6, 0x6a, 0x66, 0x29, 0x71, 0xdc, 0x22, 0xf1,
  0xad, 0x31, 0xb4, 0x40, 0xad, 0xa1, 0x86, 0x08, 0xdf, 0xaa, 0x73, 0xa5,
  0xee, 0x51, 0x6d, 0x26, 0x2e, 0x7c, 0x41, 0xd4, 0x1a, 0xf7, 0xf8, 0x1b,
  0xe5, 0x38, 0x7e, 0xd0, 0x2f, 0xe5, 0x64, 0x4f, 0x68, 0x42, 0xd3, 0xaf,
  0xbc, 0x22, 0x16, 0xf8, 0xd4, 0xe7, 0xa8, 0xed, 0x8c, 0x4a, 0xdd, 0x61,
  0x25, 0xb1, 0x6a, 0x6a, 0x37, 0x41, 0x39, 0x64, 0x3a, 0xff, 0xeb, 0x76,
  0x55, 0x31, 0x56, 0x0c, 0x20, 0xbb, 0xe8, 0x93, 0x7e, 0x44, 0x35, 0x21,
  0xf0, 0xfe, 0x83, 0x5e, 0x2e, 0x44, 0x35, 0x4d, 0x48, 0x29, 0x26, 0x91,
  0x5b, 0xc5, 0x8b, 0xe5, 0x82, 0x79, 0x3d, 0x47, 0x2a, 0x90, 0xd7, 0xc0,
  0x54, 0xf9, 0xf5, 0xdc, 0x5b, 0xfa, 0xeb, 0xc8, 0xf5, 0x07, 0x58, 0x2a,
  0xe0, 0x85, 0xa5, 0x0d, 0x55, 0xfc, 0x4b, 0x42, 0xd3, 0x16, 0xd0, 0x07,
  0xe1, 0x19, 0x4b, 0x22, 0xf7, 0x77, 0xd6, 0x25, 0x72, 0x27, 0x79, 0xc8,
  0xa3, 0x56, 0xa6, 0x14, 0xac, 0xef, 0x25, 0x6c, 0x64, 0x49, 0xf4, 0x91,
  0x5e, 0x7d, 0x02, 0x93, 0x55, 0xd5, 0xe4, 0xa9, 0xe9, 0x10, 0x0f, 0x54,
  0xd3, 0xf7, 0xc6, 0x62, 0x07, 0x8d, 0x95, 0x2a, 0x4f, 0x16, 0x47, 0x14,
  0xb4, 0x15, 0x59, 0xf6, 0x8d, 0xa1, 0x8f, 0x46, 0x7d, 0x8d, 0x76, 0xb8,
  0xaa, 0x58, 0xaf, 0x85, 0x67, 0x54, 0x2c, 0xe7, 0xe3, 0x82, 0xd7, 0x7e,
  0x06, 0x02, 0xe7, 0x4a, 0xdf, 0xa4, 0x0d, 0xc6, 0xcc, 0xdc, 0x75, 0xfd,
  0x8e, 0x9d, 0xca, 0x73, 0x28, 0x5d, 0x1b, 0xde, 0xcf, 0x6c, 0x24, 0x17,
  0xb9, 0x24, 0x8a, 0x15, 0x85, 0x14, 0x4f, 0x08, 0x1f, 0x0c, 0xb5, 0x36,
  0x77, 0xed, 0xad, 0xf6, 0x02, 0x20, 0xce, 0x8e, 0xfc, 0x1a, 0xee, 0x87,
  0xf4, 0x84, 0x61, 0x7b, 0x00, 0x62, 0x91, 0x58, 0x8b, 0xb5, 0xc2, 0x00,
  0x86, 0x9b, 0x3c, 0xc6, 0x2e, 0xef, 0xfe, 0x1c, 0x7e, 0x10, 0xea, 0x06,
  0xe7, 0x48, 0x13, 0x5e, 0x39, 0xc8, 0x14, 0xdb, 0xd3, 0x15, 0x2b, 0x3c,
  0x39, 0x8b, 0xf9, 0x4c, 0xad, 0x09, 0x95, 0xc5, 0xae, 0xb6, 0xe5, 0x3b,
  0x35, 0xa1, 0x50, 0xc3, 0xe3, 0x77, 0x15, 0xc4, 0xa1, 0x34, 0x4e, 0x09,
  0x6f, 0xfa, 0xe6, 0x31, 0xde, 0x12, 0x4b, 0xc5, 0x5d, 0x90, 0x63, 0x29,
  0xf5, 0x34, 0x1d, 0xa8, 0x44, 0xe9, 0xaa, 0x93, 0xc0, 0xa2, 0x97, 0xd7,
  0xef, 0x00, 0x1e, 0x32, 0x5e, 0x02, 0x34, 0x04, 0x14, 0xaf, 0x1a, 0xed,
  0x07, 0xd7, 0xf1, 0x35, 0x44, 0x52, 0x40, 0xfa, 0x8c, 0x39, 0x72, 0xb0,
  0xf9, 0xcd, 0xf3, 0x8e, 0x63, 0xf1, 0x69, 0x61, 0xb9, 0x50, 0x58, 0xf3,
  0x52, 0x27, 0xcf, 0x3b, 0xe7, 0xd7, 0xab, 0xb8, 0x58, 0x1e, 0xc6, 0x36,
  0x30, 0x24, 0x3b, 0x2a, 0x64, 0x11, 0x93, 0xe5, 0x59, 0x9d, 0x4b, 0xf7,
  0x8a, 0x3e, 0x6d, 0xb8, 0xa6, 0x09, 0x93, 0x30, 0x55, 0xce, 0x9e, 0x19,
  0xe7, 0xeb, 0x1c, 0xb9, 0xc3, 0xd3, 0xaf, 0x0d, 0x6f, 0xc8, 0xda, 0x70,
  0xf5, 0x07, 0xfa, 0x6f, 0x8e, 0xef, 0x51, 0xe9, 0xcc, 0x18, 0xc0, 0x07,
  0xaf, 0x5b, 0xe8, 0xf8, 0xc6, 0x9d, 0x5e, 0xbe, 0xb3, 0x45, 0x4a, 0xb0,
  0xa7, 0x4f, 0x11, 0x1a, 0x06, 0x74, 0x69, 0xbf, 0x7e, 0xd9, 0x1f, 0x9e,
  0x29, 0x18, 0xd7, 0x9f, 0x3a, 0x21, 0x76, 0xb6, 0x0b, 0x17, 0x85, 0x6c,
  0x66, 0x3b, 0x2c, 0x1e, 0x59, 0x98, 0xfd, 0xa9, 0x93, 0xc4, 0x87, 0x0b,
  0x18, 0xfa, 0x6a, 0xf9, 0x24, 0x00, 0x19, 0xc2, 0xcd, 0x13, 0x95, 0x12,
  0x2f, 0xb7, 0x48, 0x03, 0xa6, 0xa4, 0x9c, 0xbe, 0x97, 0x03, 0xb9, 0xac,
  0x0f, 0x93, 0x2d, 0xb1, 0x26, 0xb1, 0x39, 0xf4, 0x2a, 0xdc, 0x7c, 0xed,
  0x5a, 0x25, 0xf7, 0xec, 0x4f, 0xe7, 0xb8, 0x36, 0x19, 0x65, 0x2d, 0xb7,
  0x2c, 0x0b, 0x65, 0xf4, 0xb5, 0xad, 0x33, 0x58, 0xf2, 0x97, 0xb6, 0x9e,
  0x57, 0x5c, 0x27, 0x04, 0x4e, 0x45, 0x70, 0x0f, 0xee, 0x9e, 0x87, 0x35,
  0xe5, 0xbd, 0xe7, 0x19, 0x18, 0xef, 0x38, 0x42, 0xea, 0x01, 0x44, 0xbe,
  0x45, 0xf1, 0x3e, 0x71, 0xcc, 0xf5, 0x46, 0x30, 0xbd, 0xd5, 0xac, 0x59,
  0x94, 0x3a, 0x35, 0x90, 0xa4, 0xea, 0xf5, 0xcc, 0xb0, 0x6b, 0x72, 0x79,
  0x4b, 0x63, 0xee, 0x88, 0x32, 0xb0, 0x70, 0x35, 0x2a, 0x7d, 0x65, 0x87,
  0x8d, 0x42, 0x63, 0xe8, 0x03, 0xf1, 0xb3, 0x74, 0x51, 0x73, 0x39, 0xfc,
  0xc1, 0x0e, 0x28, 0x2a, 0x7a, 0x7e, 0xad, 0xcb, 0x15, 0x08, 0xca, 0xbe,
  0xf7, 0x5d, 0xa9, 0x74, 0xdb, 0x8e, 0x36, 0x30, 0x9e, 0xd1, 0x25, 0xc2,
  0x8c, 0x97, 0x5e, 0x02, 0xdf, 0x73, 0x46, 0x32, 0x23, 0x90, 0x04, 0xc7,
  0xd6, 0xae, 0xdd, 0xf8, 0xe7, 0x85, 0xec, 0x2b, 0x20, 0xf5, 0xe5, 0xd3,
  0x14, 0xd9, 0xcf, 0x1f, 0x86, 0xc0, 0x02, 0xfc, 0x3a, 0xe6, 0xda, 0xb4,
  0x44, 0xcd, 0xe8, 0xa5, 0x81, 0x8d, 0xa9, 0x48, 0xfb, 0x78, 0xca, 0x47,
  0xf5, 0x98, 0xf0, 0x1b, 0x63, 0x22, 0x86, 0x85, 0xe1, 0x50, 0xa7, 0x47,
  0x0e, 0x93, 0x85, 0xcc, 0xec, 0x94, 0xc3, 0x8c, 0x53, 0x63, 0x63, 0xd9,
  0x7a, 0x78, 0xce, 0x91, 0x82, 0x9f, 0x70, 0xf0, 0xe6, 0x03, 0xd0, 0x16,
  0x33, 0x9c, 0x7b, 0x83, 0xb3, 0x1b, 0x21, 0xd4, 0x5e, 0xac, 0x5b, 0xcf,
  0xa1, 0x90, 0x17, 0xea, 0xb5, 0x8f, 0x05, 0x9d, 0x3f, 0x67, 0x57, 0x26,
  0x0a, 0x7f, 0x7d, 0x22, 0xdb, 0x9e, 0x9e, 0x73, 0xcd, 0xd9, 0x3b, 0xfc,
  0x05, 0xe6, 0x75, 0x01, 0x28, 0x60, 0x91, 0xe7, 0xc3, 0x9a, 0x86, 0x92,
  0x1c, 0x1a, 0xe3, 0x5b, 0x5a, 0x7a, 0x0d, 0xdc, 0x41, 0xfc, 0xe9, 0xc5,
  0x93, 0x77, 0xbf, 0x92, 0x82, 0x74, 0x28, 0x0b, 0x38, 0xe8, 0x1a, 0xe7,
  0x4d, 0xb1, 0x10, 0x6a, 0x27, 0xb5, 0x0f, 0x33, 0x54, 0x8c, 0xf5, 0x88,
  0x42, 0xc8, 0x25, 0x48, 0x83, 0x08, 0x0a, 0xd9, 0xd3, 0xa8, 0x45, 0xba,
  0x49, 0xa4, 0x1c, 0x99, 0x91, 0xe8, 0x9f, 0xd5, 0x3e, 0x5e, 0x3f, 0x2e,
  0xce, 0x0f, 0xb5, 0xd8, 0x73, 0x87, 0x3b, 0x0c, 0x77, 0xf3, 0x04, 0x4c,
  0x26, 0xf8, 0xd6, 0x83, 0x19, 0x40, 0x40, 0x39, 0xbb, 0x9a, 0xa9, 0xb3,
  0x1e, 0x13, 0x86, 0xa4, 0x2a, 0xce, 0xa8, 0x98, 0x96, 0x3d, 0x5c, 0x5d,
  0xd9, 0x94, 0xdf, 0x6a, 0x6f, 0x35, 0xa6, 0x92, 0x47, 0xdc, 0xef, 0x00,
  0x70, 0x0e, 0x7b, 0x54, 0xbe, 0xfa, 0x47, 0xae, 0x42, 0x55, 0xb8, 0x30,
  0x22, 0xec, 0x8a, 0x91, 0xb5, 0x70, 0xd5, 0xde, 0x6f, 0xb7, 0xb1, 0x8d,
  0x17, 0x83, 0xb2, 0x0d, 0x5a, 0xf2, 0xaf, 0x3f, 0x2f, 0x33, 0xe8, 0xb2,
  0xe9, 0xc3, 0xc1, 0x21, 0xd0, 0xdd, 0x22, 0x1a, 0x97, 0xf7, 0x8e, 0x0f,
  0xea, 0xe7, 0xcd, 0x27, 0xd6, 0xb1, 0x12, 0xf3, 0x4a, 0xcf, 0x6d, 0x29,
  0xe1, 0xdc, 0x50, 0xa5, 0x35, 0x3f, 0x42, 0x63, 0x08, 0xb6, 0x9a, 0xcc,
  0xba, 0x48, 0x2d, 0xe5, 0xc4, 0x15, 0xd1, 0xd0, 0xeb, 0x55, 0x5d, 0x28,
  0xbf, 0x5f, 0x29, 0xe0, 0x99, 0x4c, 0x51, 0x0c, 0xc6, 0xe3, 0x0c, 0x22,
  0x8d, 0x99, 0xcc, 0x53, 0x03, 0x45, 0x0c, 0x96, 0xdc, 0x15, 0x2a, 0xff,
  0x44, 0x42, 0x8c, 0x5c, 0x17, 0x45, 0x56, 0x3e, 0xbb, 0xaa, 0x54, 0xe6,
  0x90, 0x67, 0x87, 0x3e, 0xd9, 0xa2, 0x97, 0xc4, 0x74, 0x49, 0x2d, 0xc3,
  0xda, 0x76, 0xca, 0xbf, 0x14, 0x42, 0x9f, 0xe2, 0x0c, 0x10, 0x09, 0xe5,
  0x94, 0xea, 0x70, 0xc5, 0x49, 0x28, 0x9b, 0x8a, 0xcf, 0x7e, 0xab, 0x68,
  0x36, 0xf8, 0x98, 0x59, 0x16, 0xff, 0xff, 0xff, 0x04, 0x00, 0x00, 0x00,
  0x08, 0x00, 0x00, 0x00, 0xff, 0xff, 0xff, 0xff, 0x40, 0x00, 0x00, 0x00,
  0x2a, 0xff, 0xff, 0xff, 0x04, 0x00, 0x00, 0x00, 0x20, 0x00, 0x00, 0x00,
  0xff, 0xff, 0xff, 0xff, 0x00, 0x00, 0x00, 0x00, 0x00, 0x00, 0x00, 0x00,
  0x00, 0x00, 0x00, 0x00, 0x00, 0x00, 0x00, 0x00, 0x00, 0x00, 0x00, 0x00,
  0xff, 0xff, 0xff, 0xff, 0xff, 0xff, 0xff, 0xff, 0x56, 0xff, 0xff, 0xff,
  0x04, 0x00, 0x00, 0x00, 0x10, 0x00, 0x00, 0x00, 0xff, 0xff, 0xff, 0xff,
  0xff, 0xff, 0xff, 0xff, 0xff, 0xff, 0xff, 0xff, 0xff, 0xff, 0xff, 0xff,
  0x72, 0xff, 0xff, 0xff, 0x04, 0x00, 0x00, 0x00, 0x80, 0x00, 0x00, 0x00,
  0x00, 0x00, 0x00, 0x00, 0xff, 0xff, 0xff, 0xff, 0x00, 0x00, 0x00, 0x00,
  0x00, 0x00, 0x00, 0x00, 0x01, 0x00, 0x00, 0x00, 0xff, 0xff, 0xff, 0xff,
  0x00, 0x00, 0x00, 0x00, 0xff, 0xff, 0xff, 0xff, 0xff, 0xff, 0xff, 0xff,
  0xff, 0xff, 0xff, 0xff, 0x00, 0x00, 0x00, 0x00, 0x00, 0x00, 0x00, 0x00,
  0x00, 0x00, 0x00, 0x00, 0x00, 0x00, 0x00, 0x00, 0x00, 0x00, 0x00, 0x00,
  0xff, 0xff, 0xff, 0xff, 0xff, 0xff, 0xff, 0xff, 0xff, 0xff, 0xff, 0xff,
  0xff, 0xff, 0xff, 0xff, 0x00, 0x00, 0x00, 0x00, 0x00, 0x00, 0x00, 0x00,
  0xff, 0xff, 0xff, 0xff, 0x00, 0x00, 0x00, 0x00, 0x00, 0x00, 0x00, 0x00,
  0x01, 0x00, 0x00, 0x00, 0x01, 0x00, 0x00, 0x00, 0x00, 0x00, 0x00, 0x00,
  0x00, 0x00, 0x00, 0x00, 0x00, 0x00, 0x00, 0x00, 0x00, 0x00, 0x00, 0x00,
  0xff, 0xff, 0xff, 0xff, 0x01, 0x00, 0x00, 0x00, 0x00, 0x00, 0x06, 0x00,
  0x08, 0x00, 0x04, 0x00, 0x06, 0x00, 0x00, 0x00, 0x04, 0x00, 0x00, 0x00,
  0x04, 0x00, 0x00, 0x00, 0xff, 0xff, 0xff, 0xff, 0x5c, 0xf4, 0xff, 0xff,
  0x60, 0xf4, 0xff, 0xff, 0x0f, 0x00, 0x00, 0x00, 0x4d, 0x4c, 0x49, 0x52,
  0x20, 0x43, 0x6f, 0x6e, 0x76, 0x65, 0x72, 0x74, 0x65, 0x64, 0x2e, 0x00,
  0x01, 0x00, 0x00, 0x00, 0x14, 0x00, 0x00, 0x00, 0x00, 0x00, 0x0e, 0x00,
  0x18, 0x00, 0x14, 0x00, 0x10, 0x00, 0x0c, 0x00, 0x08, 0x00, 0x04, 0x00,
  0x0e, 0x00, 0x00, 0x00, 0x14, 0x00, 0x00, 0x00, 0x1c, 0x00, 0x00, 0x00,
  0xb4, 0x02, 0x00, 0x00, 0xb8, 0x02, 0x00, 0x00, 0xbc, 0x02, 0x00, 0x00,
  0x04, 0x00, 0x00, 0x00, 0x6d, 0x61, 0x69, 0x6e, 0x00, 0x00, 0x00, 0x00,
  0x0a, 0x00, 0x00, 0x00, 0x4c, 0x02, 0x00, 0x00, 0xfc, 0x01, 0x00, 0x00,
  0xac, 0x01, 0x00, 0x00, 0x5c, 0x01, 0x00, 0x00, 0x18, 0x01, 0x00, 0x00,
  0xd8, 0x00, 0x00, 0x00, 0xb0, 0x00, 0x00, 0x00, 0x60, 0x00, 0x00, 0x00,
  0x28, 0x00, 0x00, 0x00, 0x04, 0x00, 0x00, 0x00, 0x6a, 0xff, 0xff, 0xff,
  0x0c, 0x00, 0x00, 0x00, 0x10, 0x00, 0x00, 0x00, 0x04, 0x00, 0x00, 0x00,
  0x01, 0x00, 0x00, 0x00, 0x13, 0x00, 0x00, 0x00, 0x01, 0x00, 0x00, 0x00,
  0x12, 0x00, 0x00, 0x00, 0xa2, 0xfe, 0xff, 0xff, 0x14, 0x00, 0x00, 0x00,
  0x00, 0x00, 0x00, 0x08, 0x10, 0x00, 0x00, 0x00, 0x14, 0x00, 0x00, 0x00,
  0x03, 0x00, 0x00, 0x00, 0x18, 0xf5, 0xff, 0xff, 0x01, 0x00, 0x00, 0x00,
  0x12, 0x00, 0x00, 0x00, 0x03, 0x00, 0x00, 0x00, 0x11, 0x00, 0x00, 0x00,
  0x07, 0x00, 0x00, 0x00, 0x01, 0x00, 0x00, 0x00, 0xd6, 0xfe, 0xff, 0xff,
  0x1c, 0x00, 0x00, 0x00, 0x00, 0x00, 0x00, 0x08, 0x1c, 0x00, 0x00, 0x00,
  0x20, 0x00, 0x00, 0x00, 0x03, 0x00, 0x00, 0x00, 0x00, 0x00, 0x06, 0x00,
  0x08, 0x00, 0x07, 0x00, 0x06, 0x00, 0x00, 0x00, 0x00, 0x00, 0x00, 0x01,
  0x01, 0x00, 0x00, 0x00, 0x11, 0x00, 0x00, 0x00, 0x03, 0x00, 0x00, 0x00,
  0x10, 0x00, 0x00, 0x00, 0x06, 0x00, 0x00, 0x00, 0x02, 0x00, 0x00, 0x00,
  0x00, 0x00, 0x0a, 0x00, 0x10, 0x00, 0x0c, 0x00, 0x08, 0x00, 0x04, 0x00,
  0x0a, 0x00, 0x00, 0x00, 0x0c, 0x00, 0x00, 0x00, 0x10, 0x00, 0x00, 0x00,
  0x02, 0x00, 0x00, 0x00, 0x01, 0x00, 0x00, 0x00, 0x10, 0x00, 0x00, 0x00,
  0x02, 0x00, 0x00, 0x00, 0x0f, 0x00, 0x00, 0x00, 0x05, 0x00, 0x00, 0x00,
  0xae, 0xfe, 0xff, 0xff, 0x10, 0x00, 0x00, 0x00, 0x00, 0x00, 0x00, 0x05,
  0x20, 0x00, 0x00, 0x00, 0x24, 0x00, 0x00, 0x00, 0x9e, 0xfe, 0xff, 0xff,
  0x02, 0x00, 0x00, 0x00, 0x02, 0x00, 0x00, 0x00, 0x02, 0x00, 0x00, 0x00,
  0x02, 0x00, 0x00, 0x00, 0x00, 0x00, 0x00, 0x01, 0x01, 0x00, 0x00, 0x00,
  0x0f, 0x00, 0x00, 0x00, 0x01, 0x00, 0x00, 0x00, 0x0e, 0x00, 0x00, 0x00,
  0x82, 0xff, 0xff, 0xff, 0x14, 0x00, 0x00, 0x00, 0x00, 0x00, 0x00, 0x01,
  0x1c, 0x00, 0x00, 0x00, 0x20, 0x00, 0x00, 0x00, 0x01, 0x00, 0x00, 0x00,
  0x74, 0xff, 0xff, 0xff, 0x00, 0x00, 0x00, 0x01, 0x02, 0x00, 0x00, 0x00,
  0x02, 0x00, 0x00, 0x00, 0x01, 0x00, 0x00, 0x00, 0x0e, 0x00, 0x00, 0x00,
  0x03, 0x00, 0x00, 0x00, 0x0d, 0x00, 0x00, 0x00, 0x09, 0x00, 0x00, 0x00,
  0x03, 0x00, 0x00, 0x00, 0x2a, 0xff, 0xff, 0xff, 0x10, 0x00, 0x00, 0x00,
  0x00, 0x00, 0x00, 0x05, 0x20, 0x00, 0x00, 0x00, 0x24, 0x00, 0x00, 0x00,
  0x1a, 0xff, 0xff, 0xff, 0x02, 0x00, 0x00, 0x00, 0x02, 0x00, 0x00, 0x00,
  0x02, 0x00, 0x00, 0x00, 0x02, 0x00, 0x00, 0x00, 0x00, 0x00, 0x00, 0x01,
  0x01, 0x00, 0x00, 0x00, 0x0d, 0x00, 0x00, 0x00, 0x01, 0x00, 0x00, 0x00,
  0x0c, 0x00, 0x00, 0x00, 0x00, 0x00, 0x0e, 0x00, 0x18, 0x00, 0x14, 0x00,
  0x10, 0x00, 0x0c, 0x00, 0x0b, 0x00, 0x04, 0x00, 0x0e, 0x00, 0x00, 0x00,
  0x20, 0x00, 0x00, 0x00, 0x00, 0x00, 0x00, 0x01, 0x28, 0x00, 0x00, 0x00,
  0x2c, 0x00, 0x00, 0x00, 0x01, 0x00, 0x00, 0x00, 0x0c, 0x00, 0x10, 0x00,
  0x00, 0x00, 0x0c, 0x00, 0x08, 0x00, 0x07, 0x00, 0x0c, 0x00, 0x00, 0x00,
  0x00, 0x00, 0x00, 0x01, 0x02, 0x00, 0x00, 0x00, 0x02, 0x00, 0x00, 0x00,
  0x01, 0x00, 0x00, 0x00, 0x0c, 0x00, 0x00, 0x00, 0x03, 0x00, 0x00, 0x00,
  0x0b, 0x00, 0x00, 0x00, 0x08, 0x00, 0x00, 0x00, 0x04, 0x00, 0x00, 0x00,
  0xc2, 0xff, 0xff, 0xff, 0x10, 0x00, 0x00, 0x00, 0x00, 0x00, 0x00, 0x05,
  0x20, 0x00, 0x00, 0x00, 0x24, 0x00, 0x00, 0x00, 0xb2, 0xff, 0xff, 0xff,
  0x02, 0x00, 0x00, 0x00, 0x02, 0x00, 0x00, 0x00, 0x02, 0x00, 0x00, 0x00,
  0x02, 0x00, 0x00, 0x00, 0x00, 0x00, 0x00, 0x01, 0x01, 0x00, 0x00, 0x00,
  0x0b, 0x00, 0x00, 0x00, 0x01, 0x00, 0x00, 0x00, 0x0a, 0x00, 0x00, 0x00,
  0x00, 0x00, 0x0e, 0x00, 0x16, 0x00, 0x00, 0x00, 0x10, 0x00, 0x0c, 0x00,
  0x0b, 0x00, 0x04, 0x00, 0x0e, 0x00, 0x00, 0x00, 0x20, 0x00, 0x00, 0x00,
  0x00, 0x00, 0x00, 0x05, 0x30, 0x00, 0x00, 0x00, 0x34, 0x00, 0x00, 0x00,
  0x00, 0x00, 0x0e, 0x00, 0x18, 0x00, 0x17, 0x00, 0x10, 0x00, 0x0c, 0x00,
  0x08, 0x00, 0x04, 0x00, 0x0e, 0x00, 0x00, 0x00, 0x02, 0x00, 0x00, 0x00,
  0x02, 0x00, 0x00, 0x00, 0x02, 0x00, 0x00, 0x00, 0x02, 0x00, 0x00, 0x00,
  0x00, 0x00, 0x00, 0x01, 0x01, 0x00, 0x00, 0x00, 0x0a, 0x00, 0x00, 0x00,
  0x01, 0x00, 0x00, 0x00, 0x00, 0x00, 0x00, 0x00, 0x01, 0x00, 0x00, 0x00,
  0x13, 0x00, 0x00, 0x00, 0x01, 0x00, 0x00, 0x00, 0x00, 0x00, 0x00, 0x00,
  0x14, 0x00, 0x00, 0x00, 0xbc, 0x0a, 0x00, 0x00, 0x40, 0x0a, 0x00, 0x00,
  0xd8, 0x09, 0x00, 0x00, 0x5c, 0x09, 0x00, 0x00, 0xb0, 0x08, 0x00, 0x00,
  0x70, 0x08, 0x00, 0x00, 0xf8, 0x07, 0x00, 0x00, 0x84, 0x07, 0x00, 0x00,
  0x78, 0x06, 0x00, 0x00, 0xbc, 0x05, 0x00, 0x00, 0x28, 0x05, 0x00, 0x00,
  0x8c, 0x04, 0x00, 0x00, 0xf0, 0x03, 0x00, 0x00, 0x54, 0x03, 0x00, 0x00,
  0xb8, 0x02, 0x00, 0x00, 0x1c, 0x02, 0x00, 0x00, 0x98, 0x01, 0x00, 0x00,
  0x0c, 0x01, 0x00, 0x00, 0x80, 0x00, 0x00, 0x00, 0x04, 0x00, 0x00, 0x00,
  0xa8, 0xf5, 0xff, 0xff, 0x18, 0x00, 0x00, 0x00, 0x20, 0x00, 0x00, 0x00,
  0x3c, 0x00, 0x00, 0x00, 0x14, 0x00, 0x00, 0x00, 0x00, 0x00, 0x00, 0x09,
  0x54, 0x00, 0x00, 0x00, 0x02, 0x00, 0x00, 0x00, 0xff, 0xff, 0xff, 0xff,
  0x01, 0x00, 0x00, 0x00, 0x1c, 0xf6, 0xff, 0xff, 0x08, 0x00, 0x00, 0x00,
  0x10, 0x00, 0x00, 0x00, 0x01, 0x00, 0x00, 0x00, 0x80, 0xff, 0xff, 0xff,
  0xff, 0xff, 0xff, 0xff, 0x01, 0x00, 0x00, 0x00, 0x00, 0x00, 0x80, 0x3b,
  0x1e, 0x00, 0x00, 0x00, 0x53, 0x74, 0x61, 0x74, 0x65, 0x66, 0x75, 0x6c,
  0x50, 0x61, 0x72, 0x74, 0x69, 0x74, 0x69, 0x6f, 0x6e, 0x65, 0x64, 0x43,
  0x61, 0x6c, 0x6c, 0x3a, 0x30, 0x5f, 0x69, 0x6e, 0x74, 0x38, 0x00, 0x00,
  0x02, 0x00, 0x00, 0x00, 0x01, 0x00, 0x00, 0x00, 0x01, 0x00, 0x00, 0x00,
  0x20, 0xf6, 0xff, 0xff, 0x18, 0x00, 0x00, 0x00, 0x20, 0x00, 0x00, 0x00,
  0x54, 0x00, 0x00, 0x00, 0x13, 0x00, 0x00, 0x00, 0x00, 0x00, 0x00, 0x09,
  0x64, 0x00, 0x00, 0x00, 0x02, 0x00, 0x00, 0x00, 0xff, 0xff, 0xff, 0xff,
  0x01, 0x00, 0x00, 0x00, 0x04, 0xf6, 0xff, 0xff, 0x10, 0x00, 0x00, 0x00,
  0x18, 0x00, 0x00, 0x00, 0x1c, 0x00, 0x00, 0x00, 0x20, 0x00, 0x00, 0x00,
  0x01, 0x00, 0x00, 0x00, 0x80, 0xff, 0xff, 0xff, 0xff, 0xff, 0xff, 0xff,
  0x01, 0x00, 0x00, 0x00, 0x56, 0x63, 0xb2, 0x3e, 0x01, 0x00, 0x00, 0x00,
  0xf3, 0xb0, 0xb1, 0x42, 0x01, 0x00, 0x00, 0x00, 0x00, 0x00, 0x00, 0x00,
  0x14, 0x00, 0x00, 0x00, 0x74, 0x66, 0x6c, 0x2e, 0x66, 0x75, 0x6c, 0x6c,
  0x79, 0x5f, 0x63, 0x6f, 0x6e, 0x6e, 0x65, 0x63, 0x74, 0x65, 0x64, 0x31,
  0x00, 0x00, 0x00, 0x00, 0x02, 0x00, 0x00, 0x00, 0x01, 0x00, 0x00, 0x00,
  0x01, 0x00, 0x00, 0x00, 0xa8, 0xf6, 0xff, 0xff, 0x18, 0x00, 0x00, 0x00,
  0x20, 0x00, 0x00, 0x00, 0x58, 0x00, 0x00, 0x00, 0x12, 0x00, 0x00, 0x00,
  0x00, 0x00, 0x00, 0x09, 0x64, 0x00, 0x00, 0x00, 0x02, 0x00, 0x00, 0x00,
  0xff, 0xff, 0xff, 0xff, 0x20, 0x00, 0x00, 0x00, 0x8c, 0xf6, 0xff, 0xff,
  0x10, 0x00, 0x00, 0x00, 0x1c, 0x00, 0x00, 0x00, 0x20, 0x00, 0x00, 0x00,
  0x24, 0x00, 0x00, 0x00, 0x01, 0x00, 0x00, 0x00, 0x80, 0xff, 0xff, 0xff,
  0xff, 0xff, 0xff, 0xff, 0x00, 0x00, 0x00, 0x00, 0x01, 0x00, 0x00, 0x00,
  0x56, 0x3d, 0xa8, 0x3e, 0x01, 0x00, 0x00, 0x00, 0x19, 0x95, 0xa7, 0x42,
  0x01, 0x00, 0x00, 0x00, 0x00, 0x00, 0x00, 0x00, 0x13, 0x00, 0x00, 0x00,
  0x74, 0x66, 0x6c, 0x2e, 0x66, 0x75, 0x6c, 0x6c, 0x79, 0x5f, 0x63, 0x6f,
  0x6e, 0x6e, 0x65, 0x63, 0x74, 0x65, 0x64, 0x00, 0x02, 0x00, 0x00, 0x00,
  0x01, 0x00, 0x00, 0x00, 0x20, 0x00, 0x00, 0x00, 0x30, 0xf7, 0xff, 0xff,
  0x18, 0x00, 0x00, 0x00, 0x20, 0x00, 0x00, 0x00, 0x58, 0x00, 0x00, 0x00,
  0x11, 0x00, 0x00, 0x00, 0x00, 0x00, 0x00, 0x09, 0x5c, 0x00, 0x00, 0x00,
  0x02, 0x00, 0x00, 0x00, 0xff, 0xff, 0xff, 0xff, 0x40, 0x00, 0x00, 0x00,
  0x14, 0xf7, 0xff, 0xff, 0x10, 0x00, 0x00, 0x00, 0x1c, 0x00, 0x00, 0x00,
  0x20, 0x00, 0x00, 0x00, 0x24, 0x00, 0x00, 0x00, 0x01, 0x00, 0x00, 0x00,
  0x80, 0xff, 0xff, 0xff, 0xff, 0xff, 0xff, 0xff, 0x00, 0x00, 0x00, 0x00,
  0x01, 0x00, 0x00, 0x00, 0xa6, 0xb5, 0xb9, 0x3e, 0x01, 0x00, 0x00, 0x00,
  0xf0, 0xfb, 0xb8, 0x42, 0x01, 0x00, 0x00, 0x00, 0x00, 0x00, 0x00, 0x00,
  0x0b, 0x00, 0x00, 0x00, 0x74, 0x66, 0x6c, 0x2e, 0x72, 0x65, 0x73, 0x68,
  0x61, 0x70, 0x65, 0x00, 0x02, 0x00, 0x00, 0x00, 0x01, 0x00, 0x00, 0x00,
  0x40, 0x00, 0x00, 0x00, 0xb0, 0xf7, 0xff, 0xff, 0x18, 0x00, 0x00, 0x00,
  0x28, 0x00, 0x00, 0x00, 0x60, 0x00, 0x00, 0x00, 0x10, 0x00, 0x00, 0x00,
  0x00, 0x00, 0x00, 0x09, 0x6c, 0x00, 0x00, 0x00, 0x04, 0x00, 0x00, 0x00,
  0xff, 0xff, 0xff, 0xff, 0x04, 0x00, 0x00, 0x00, 0x04, 0x00, 0x00, 0x00,
  0x04, 0x00, 0x00, 0x00, 0x9c, 0xf7, 0xff, 0xff, 0x10, 0x00, 0x00, 0x00,
  0x1c, 0x00, 0x00, 0x00, 0x20, 0x00, 0x00, 0x00, 0x24, 0x00, 0x00, 0x00,
  0x01, 0x00, 0x00, 0x00, 0x80, 0xff, 0xff, 0xff, 0xff, 0xff, 0xff, 0xff,
  0x00, 0x00, 0x00, 0x00, 0x01, 0x00, 0x00, 0x00, 0xa6, 0xb5, 0xb9, 0x3e,
  0x01, 0x00, 0x00, 0x00, 0xf0, 0xfb, 0xb8, 0x42, 0x01, 0x00, 0x00, 0x00,
  0x00, 0x00, 0x00, 0x00, 0x10, 0x00, 0x00, 0x00, 0x74, 0x66, 0x6c, 0x2e,
  0x6d, 0x61, 0x78, 0x5f, 0x70, 0x6f, 0x6f, 0x6c, 0x5f, 0x32, 0x64, 0x33,
  0x00, 0x00, 0x00, 0x00, 0x04, 0x00, 0x00, 0x00, 0x01, 0x00, 0x00, 0x00,
  0x04, 0x00, 0x00, 0x00, 0x04, 0x00, 0x00, 0x00, 0x04, 0x00, 0x00, 0x00,
  0x48, 0xf8, 0xff, 0xff, 0x18, 0x00, 0x00, 0x00, 0x28, 0x00, 0x00, 0x00,
  0x60, 0x00, 0x00, 0x00, 0x0f, 0x00, 0x00, 0x00, 0x00, 0x00, 0x00, 0x09,
  0x6c, 0x00, 0x00, 0x00, 0x04, 0x00, 0x00, 0x00, 0xff, 0xff, 0xff, 0xff,
  0x08, 0x00, 0x00, 0x00, 0x08, 0x00, 0x00, 0x00, 0x04, 0x00, 0x00, 0x00,
  0x34, 0xf8, 0xff, 0xff, 0x10, 0x00, 0x00, 0x00, 0x1c, 0x00, 0x00, 0x00,
  0x20, 0x00, 0x00, 0x00, 0x24, 0x00, 0x00, 0x00, 0x01, 0x00, 0x00, 0x00,
  0x80, 0xff, 0xff, 0xff, 0xff, 0xff, 0xff, 0xff, 0x00, 0x00, 0x00, 0x00,
  0x01, 0x00, 0x00, 0x00, 0xa6, 0xb5, 0xb9, 0x3e, 0x01, 0x00, 0x00, 0x00,
  0xf0, 0xfb, 0xb8, 0x42, 0x01, 0x00, 0x00, 0x00, 0x00, 0x00, 0x00, 0x00,
  0x10, 0x00, 0x00, 0x00, 0x3b, 0x3b, 0x3b, 0x63, 0x6f, 0x6e, 0x76, 0x32,
  0x64, 0x5f, 0x33, 0x2f, 0x62, 0x69, 0x61, 0x73, 0x00, 0x00, 0x00, 0x00,
  0x04, 0x00, 0x00, 0x00, 0x01, 0x00, 0x00, 0x00, 0x08, 0x00, 0x00, 0x00,
  0x08, 0x00, 0x00, 0x00, 0x04, 0x00, 0x00, 0x00, 0xe0, 0xf8, 0xff, 0xff,
  0x18, 0x00, 0x00, 0x00, 0x28, 0x00, 0x00, 0x00, 0x60, 0x00, 0x00, 0x00,
  0x0e, 0x00, 0x00, 0x00, 0x00, 0x00, 0x00, 0x09, 0x6c, 0x00, 0x00, 0x00,
  0x04, 0x00, 0x00, 0x00, 0xff, 0xff, 0xff, 0xff, 0x10, 0x00, 0x00, 0x00,
  0x10, 0x00, 0x00, 0x00, 0x08, 0x00, 0x00, 0x00, 0xcc, 0xf8, 0xff, 0xff,
  0x10, 0x00, 0x00, 0x00, 0x1c, 0x00, 0x00, 0x00, 0x20, 0x00, 0x00, 0x00,
  0x24, 0x00, 0x00, 0x00, 0x01, 0x00, 0x00, 0x00, 0x80, 0xff, 0xff, 0xff,
  0xff, 0xff, 0xff, 0xff, 0x00, 0x00, 0x00, 0x00, 0x01, 0x00, 0x00, 0x00,
  0x1a, 0xef, 0xcd, 0x3e, 0x01, 0x00, 0x00, 0x00, 0x2b, 0x21, 0xcd, 0x42,
  0x01, 0x00, 0x00, 0x00, 0x00, 0x00, 0x00, 0x00, 0x10, 0x00, 0x00, 0x00,
  0x74, 0x66, 0x6c, 0x2e, 0x6d, 0x61, 0x78, 0x5f, 0x70, 0x6f, 0x6f, 0x6c,
  0x5f, 0x32, 0x64, 0x32, 0x00, 0x00, 0x00, 0x00, 0x04, 0x00, 0x00, 0x00,
  0x01, 0x00, 0x00, 0x00, 0x10, 0x00, 0x00, 0x00, 0x10, 0x00, 0x00, 0x00,
  0x08, 0x00, 0x00, 0x00, 0x78, 0xf9, 0xff, 0xff, 0x18, 0x00, 0x00, 0x00,
  0x28, 0x00, 0x00, 0x00, 0x60, 0x00, 0x00, 0x00, 0x0d, 0x00, 0x00, 0x00,
  0x00, 0x00, 0x00, 0x09, 0x6c, 0x00, 0x00, 0x00, 0x04, 0x00, 0x00, 0x00,
  0xff, 0xff, 0xff, 0xff, 0x20, 0x00, 0x00, 0x00, 0x20, 0x00, 0x00, 0x00,
  0x08, 0x00, 0x00, 0x00, 0x64, 0xf9, 0xff, 0xff, 0x10, 0x00, 0x00, 0x00,
  0x1c, 0x00, 0x00, 0x00, 0x20, 0x00, 0x00, 0x00, 0x24, 0x00, 0x00, 0x00,
  0x01, 0x00, 0x00, 0x00, 0x80, 0xff, 0xff, 0xff, 0xff, 0xff, 0xff, 0xff,
  0x00, 0x00, 0x00, 0x00, 0x01, 0x00, 0x00, 0x00, 0x1a, 0xef, 0xcd, 0x3e,
  0x01, 0x00, 0x00, 0x00, 0x2b, 0x21, 0xcd, 0x42, 0x01, 0x00, 0x00, 0x00,
  0x00, 0x00, 0x00, 0x00, 0x10, 0x00, 0x00, 0x00, 0x3b, 0x3b, 0x3b, 0x63,
  0x6f, 0x6e, 0x76, 0x32, 0x64, 0x5f, 0x32, 0x2f, 0x62, 0x69, 0x61, 0x73,
  0x00, 0x00, 0x00, 0x00, 0x04, 0x00, 0x00, 0x00, 0x01, 0x00, 0x00, 0x00,
  0x20, 0x00, 0x00, 0x00, 0x20, 0x00, 0x00, 0x00, 0x08, 0x00, 0x00, 0x00,
  0x10, 0xfa, 0xff, 0xff, 0x18, 0x00, 0x00, 0x00, 0x28, 0x00, 0x00, 0x00,
  0x60, 0x00, 0x00, 0x00, 0x0c, 0x00, 0x00, 0x00, 0x00, 0x00, 0x00, 0x09,
  0x6c, 0x00, 0x00, 0x00, 0x04, 0x00, 0x00, 0x00, 0xff, 0xff, 0xff, 0xff,
  0x40, 0x00, 0x00, 0x00, 0x40, 0x00, 0x00, 0x00, 0x01, 0x00, 0x00, 0x00,
  0xfc, 0xf9, 0xff, 0xff, 0x10, 0x00, 0x00, 0x00, 0x1c, 0x00, 0x00, 0x00,
  0x20, 0x00, 0x00, 0x00, 0x24, 0x00, 0x00, 0x00, 0x01, 0x00, 0x00, 0x00,
  0x80, 0xff, 0xff, 0xff, 0xff, 0xff, 0xff, 0xff, 0x00, 0x00, 0x00, 0x00,
  0x01, 0x00, 0x00, 0x00, 0x00, 0x00, 0x80, 0x3f, 0x01, 0x00, 0x00, 0x00,
  0x00, 0x00, 0x7f, 0x43, 0x01, 0x00, 0x00, 0x00, 0x00, 0x00, 0x00, 0x00,
  0x10, 0x00, 0x00, 0x00, 0x74, 0x66, 0x6c, 0x2e, 0x6d, 0x61, 0x78, 0x5f,
  0x70, 0x6f, 0x6f, 0x6c, 0x5f, 0x32, 0x64, 0x31, 0x00, 0x00, 0x00, 0x00,
  0x04, 0x00, 0x00, 0x00, 0x01, 0x00, 0x00, 0x00, 0x40, 0x00, 0x00, 0x00,
  0x40, 0x00, 0x00, 0x00, 0x01, 0x00, 0x00, 0x00, 0xa8, 0xfa, 0xff, 0xff,
  0x18, 0x00, 0x00, 0x00, 0x28, 0x00, 0x00, 0x00, 0x5c, 0x00, 0x00, 0x00,
  0x0b, 0x00, 0x00, 0x00, 0x00, 0x00, 0x00, 0x09, 0x64, 0x00, 0x00, 0x00,
  0x04, 0x00, 0x00, 0x00, 0xff, 0xff, 0xff, 0xff, 0x80, 0x00, 0x00, 0x00,
  0x80, 0x00, 0x00, 0x00, 0x01, 0x00, 0x00, 0x00, 0x94, 0xfa, 0xff, 0xff,
  0x10, 0x00, 0x00, 0x00, 0x18, 0x00, 0x00, 0x00, 0x1c, 0x00, 0x00, 0x00,
  0x20, 0x00, 0x00, 0x00, 0x01, 0x00, 0x00, 0x00, 0x80, 0xff, 0xff, 0xff,
  0xff, 0xff, 0xff, 0xff, 0x01, 0x00, 0x00, 0x00, 0x00, 0x00, 0x80, 0x3f,
  0x01, 0x00, 0x00, 0x00, 0x00, 0x00, 0x7f, 0x43, 0x01, 0x00, 0x00, 0x00,
  0x00, 0x00, 0x00, 0x00, 0x0f, 0x00, 0x00, 0x00, 0x74, 0x66, 0x6c, 0x2e,
  0x6d, 0x61, 0x78, 0x5f, 0x70, 0x6f, 0x6f, 0x6c, 0x5f, 0x32, 0x64, 0x00,
  0x04, 0x00, 0x00, 0x00, 0x01, 0x00, 0x00, 0x00, 0x80, 0x00, 0x00, 0x00,
  0x80, 0x00, 0x00, 0x00, 0x01, 0x00, 0x00, 0x00, 0xaa, 0xfb, 0xff, 0xff,
  0x14, 0x00, 0x00, 0x00, 0x88, 0x00, 0x00, 0x00, 0x0a, 0x00, 0x00, 0x00,
  0x00, 0x00, 0x00, 0x09, 0x90, 0x00, 0x00, 0x00, 0x0c, 0xfb, 0xff, 0xff,
  0x10, 0x00, 0x00, 0x00, 0x34, 0x00, 0x00, 0x00, 0x44, 0x00, 0x00, 0x00,
  0x54, 0x00, 0x00, 0x00, 0x04, 0x00, 0x00, 0x00, 0x00, 0x00, 0x00, 0x00,
  0x00, 0x00, 0x00, 0x00, 0x00, 0x00, 0x00, 0x00, 0x00, 0x00, 0x00, 0x00,
  0x00, 0x00, 0x00, 0x00, 0x00, 0x00, 0x00, 0x00, 0x00, 0x00, 0x00, 0x00,
  0x00, 0x00, 0x00, 0x00, 0x00, 0x00, 0x00, 0x00, 0x04, 0x00, 0x00, 0x00,
  0x75, 0x9c, 0xf1, 0x3a, 0x6e, 0x35, 0xf2, 0x3a, 0xca, 0xd9, 0xf3, 0x3a,
  0x12, 0xe7, 0xf3, 0x3a, 0x04, 0x00, 0x00, 0x00, 0x3c, 0xb9, 0x6f, 0x3e,
  0x03, 0x51, 0x70, 0x3e, 0x56, 0xb3, 0x4d, 0x3e, 0x44, 0xff, 0x71, 0x3e,
  0x04, 0x00, 0x00, 0x00, 0x39, 0x81, 0x6f, 0xbe, 0xa7, 0xf9, 0x69, 0xbe,
  0x16, 0xf2, 0x71, 0xbe, 0x09, 0x6b, 0x67, 0xbe, 0x0d, 0x00, 0x00, 0x00,
  0x73, 0x74, 0x64, 0x2e, 0x63, 0x6f, 0x6e, 0x73, 0x74, 0x61, 0x6e, 0x74,
  0x34, 0x00, 0x00, 0x00, 0x04, 0x00, 0x00, 0x00, 0x04, 0x00, 0x00, 0x00,
  0x03, 0x00, 0x00, 0x00, 0x03, 0x00, 0x00, 0x00, 0x08, 0x00, 0x00, 0x00,
  0x62, 0xfc, 0xff, 0xff, 0x14, 0x00, 0x00, 0x00, 0xd8, 0x00, 0x00, 0x00,
  0x09, 0x00, 0x00, 0x00, 0x00, 0x00, 0x00, 0x09, 0xe0, 0x00, 0x00, 0x00,
  0xc4, 0xfb, 0xff, 0xff, 0x10, 0x00, 0x00, 0x00, 0x54, 0x00, 0x00, 0x00,
  0x74, 0x00, 0x00, 0x00, 0x94, 0x00, 0x00, 0x00, 0x08, 0x00, 0x00, 0x00,
  0x00, 0x00, 0x00, 0x00, 0x00, 0x00, 0x00, 0x00, 0x00, 0x00, 0x00, 0x00,
  0x00, 0x00, 0x00, 0x00, 0x00, 0x00, 0x00, 0x00, 0x00, 0x00, 0x00, 0x00,
  0x00, 0x00, 0x00, 0x00, 0x00, 0x00, 0x00, 0x00, 0x00, 0x00, 0x00, 0x00,
  0x00, 0x00, 0x00, 0x00, 0x00, 0x00, 0x00, 0x00, 0x00, 0x00, 0x00, 0x00,
  0x00, 0x00, 0x00, 0x00, 0x00, 0x00, 0x00, 0x00, 0x00, 0x00, 0x00, 0x00,
  0x00, 0x00, 0x00, 0x00, 0x00, 0x00, 0x00, 0x00, 0x08, 0x00, 0x00, 0x00,
  0xe2, 0xc1, 0x8b, 0x3a, 0x33, 0x76, 0x0b, 0x3b, 0x73, 0x7d, 0x08, 0x3b,
  0xfc, 0x4b, 0x0c, 0x3b, 0x42, 0xbb, 0x07, 0x3b, 0x20, 0x3d, 0x09, 0x3b,
  0x96, 0xd3, 0xca, 0x3a, 0xf3, 0x87, 0xdd, 0x3a, 0x08, 0x00, 0x00, 0x00,
  0x85, 0x36, 0x05, 0x3e, 0x47, 0x5f, 0x8a, 0x3e, 0xb3, 0x98, 0x6a, 0x3e,
  0xa3, 0x4e, 0x31, 0x3e, 0x67, 0xa2, 0x7a, 0x3e, 0xc9, 0x9b, 0x75, 0x3e,
  0xbb, 0x7a, 0x10, 0x3e, 0xb7, 0x1f, 0x56, 0x3e, 0x08, 0x00, 0x00, 0x00,
  0x5e, 0xaa, 0x0a, 0xbe, 0x09, 0x0f, 0x4f, 0xbe, 0x78, 0x6c, 0x87, 0xbe,
  0x64, 0x33, 0x8b, 0xbe, 0xcb, 0xab, 0x86, 0xbe, 0xa6, 0x2a, 0x88, 0xbe,
  0xef, 0x3d, 0x49, 0xbe, 0xe3, 0xcc, 0x5b, 0xbe, 0x0d, 0x00, 0x00, 0x00,
  0x73, 0x74, 0x64, 0x2e, 0x63, 0x6f, 0x6e, 0x73, 0x74, 0x61, 0x6e, 0x74,
  0x33, 0x00, 0x00, 0x00, 0x04, 0x00, 0x00, 0x00, 0x08, 0x00, 0x00, 0x00,
  0x03, 0x00, 0x00, 0x00, 0x03, 0x00, 0x00, 0x00, 0x01, 0x00, 0x00, 0x00,
  0x6a, 0xfd, 0xff, 0xff, 0x14, 0x00, 0x00, 0x00, 0x48, 0x00, 0x00, 0x00,
  0x08, 0x00, 0x00, 0x00, 0x00, 0x00, 0x00, 0x09, 0x50, 0x00, 0x00, 0x00,
  0xcc, 0xfc, 0xff, 0xff, 0x10, 0x00, 0x00, 0x00, 0x18, 0x00, 0x00, 0x00,
  0x1c, 0x00, 0x00, 0x00, 0x20, 0x00, 0x00, 0x00, 0x01, 0x00, 0x00, 0x00,
  0x00, 0x00, 0x00, 0x00, 0x00, 0x00, 0x00, 0x00, 0x01, 0x00, 0x00, 0x00,
  0x87, 0x2c, 0x5a, 0x3b, 0x01, 0x00, 0x00, 0x00, 0x2e, 0x78, 0xd8, 0x3e,
  0x01, 0x00, 0x00, 0x00, 0x92, 0x08, 0xc3, 0xbe, 0x0d, 0x00, 0x00, 0x00,
  0x73, 0x74, 0x64, 0x2e, 0x63, 0x6f, 0x6e, 0x73, 0x74, 0x61, 0x6e, 0x74,
  0x32, 0x00, 0x00, 0x00, 0x02, 0x00, 0x00, 0x00, 0x01, 0x00, 0x00, 0x00,
  0x20, 0x00, 0x00, 0x00, 0xda, 0xfd, 0xff, 0xff, 0x14, 0x00, 0x00, 0x00,
  0x4c, 0x00, 0x00, 0x00, 0x07, 0x00, 0x00, 0x00, 0x00, 0x00, 0x00, 0x09,
  0x54, 0x00, 0x00, 0x00, 0x3c, 0xfd, 0xff, 0xff, 0x10, 0x00, 0x00, 0x00,
  0x1c, 0x00, 0x00, 0x00, 0x20, 0x00, 0x00, 0x00, 0x24, 0x00, 0x00, 0x00,
  0x01, 0x00, 0x00, 0x00, 0x00, 0x00, 0x00, 0x00, 0x00, 0x00, 0x00, 0x00,
  0x00, 0x00, 0x00, 0x00, 0x01, 0x00, 0x00, 0x00, 0xef, 0x58, 0x01, 0x3b,
  0x01, 0x00, 0x00, 0x00, 0x20, 0xe1, 0x7f, 0x3e, 0x01, 0x00, 0x00, 0x00,
  0x3d, 0x56, 0x80, 0xbe, 0x0d, 0x00, 0x00, 0x00, 0x73, 0x74, 0x64, 0x2e,
  0x63, 0x6f, 0x6e, 0x73, 0x74, 0x61, 0x6e, 0x74, 0x31, 0x00, 0x00, 0x00,
  0x02, 0x00, 0x00, 0x00, 0x20, 0x00, 0x00, 0x00, 0x40, 0x00, 0x00, 0x00,
  0x4e, 0xfe, 0xff, 0xff, 0x18, 0x00, 0x00, 0x00, 0x18, 0x00, 0x00, 0x00,
  0x06, 0x00, 0x00, 0x00, 0x00, 0x00, 0x00, 0x02, 0x20, 0x00, 0x00, 0x00,
  0x04, 0x00, 0x04, 0x00, 0x04, 0x00, 0x00, 0x00, 0x0c, 0x00, 0x00, 0x00,
  0x73, 0x74, 0x64, 0x2e, 0x63, 0x6f, 0x6e, 0x73, 0x74, 0x61, 0x6e, 0x74,
  0x00, 0x00, 0x00, 0x00, 0x01, 0x00, 0x00, 0x00, 0x02, 0x00, 0x00, 0x00,
  0x8a, 0xfe, 0xff, 0xff, 0x14, 0x00, 0x00, 0x00, 0x84, 0x00, 0x00, 0x00,
  0x05, 0x00, 0x00, 0x00, 0x00, 0x00, 0x00, 0x02, 0x8c, 0x00, 0x00, 0x00,
  0x7c, 0xfe, 0xff, 0xff, 0x08, 0x00, 0x00, 0x00, 0x48, 0x00, 0x00, 0x00,
  0x08, 0x00, 0x00, 0x00, 0x00, 0x00, 0x00, 0x00, 0x00, 0x00, 0x00, 0x00,
  0x00, 0x00, 0x00, 0x00, 0x00, 0x00, 0x00, 0x00, 0x00, 0x00, 0x00, 0x00,
  0x00, 0x00, 0x00, 0x00, 0x00, 0x00, 0x00, 0x00, 0x00, 0x00, 0x00, 0x00,
  0x00, 0x00, 0x00, 0x00, 0x00, 0x00, 0x00, 0x00, 0x00, 0x00, 0x00, 0x00,
  0x00, 0x00, 0x00, 0x00, 0x00, 0x00, 0x00, 0x00, 0x00, 0x00, 0x00, 0x00,
  0x00, 0x00, 0x00, 0x00, 0x00, 0x00, 0x00, 0x00, 0x08, 0x00, 0x00, 0x00,
  0xe2, 0xc1, 0x8b, 0x3a, 0x33, 0x76, 0x0b, 0x3b, 0x73, 0x7d, 0x08, 0x3b,
  0xfc, 0x4b, 0x0c, 0x3b, 0x42, 0xbb, 0x07, 0x3b, 0x20, 0x3d, 0x09, 0x3b,
  0x96, 0xd3, 0xca, 0x3a, 0xf3, 0x87, 0xdd, 0x3a, 0x0d, 0x00, 0x00, 0x00,
  0x63, 0x6f, 0x6e, 0x76, 0x32, 0x64, 0x5f, 0x32, 0x2f, 0x62, 0x69, 0x61,
  0x73, 0x00, 0x00, 0x00, 0x01, 0x00, 0x00, 0x00, 0x08, 0x00, 0x00, 0x00,
  0x32, 0xff, 0xff, 0xff, 0x14, 0x00, 0x00, 0x00, 0x54, 0x00, 0x00, 0x00,
  0x04, 0x00, 0x00, 0x00, 0x00, 0x00, 0x00, 0x02, 0x5c, 0x00, 0x00, 0x00,
  0x24, 0xff, 0xff, 0xff, 0x08, 0x00, 0x00, 0x00, 0x28, 0x00, 0x00, 0x00,
  0x04, 0x00, 0x00, 0x00, 0x00, 0x00, 0x00, 0x00, 0x00, 0x00, 0x00, 0x00,
  0x00, 0x00, 0x00, 0x00, 0x00, 0x00, 0x00, 0x00, 0x00, 0x00, 0x00, 0x00,
  0x00, 0x00, 0x00, 0x00, 0x00, 0x00, 0x00, 0x00, 0x00, 0x00, 0x00, 0x00,
  0x04, 0x00, 0x00, 0x00, 0xf3, 0x5b, 0x42, 0x3a, 0x02, 0xd7, 0x42, 0x3a,
  0x28, 0x29, 0x44, 0x3a, 0xd7, 0x33, 0x44, 0x3a, 0x0d, 0x00, 0x00, 0x00,
  0x63, 0x6f, 0x6e, 0x76, 0x32, 0x64, 0x5f, 0x33, 0x2f, 0x62, 0x69, 0x61,
  0x73, 0x00, 0x00, 0x00, 0x01, 0x00, 0x00, 0x00, 0x04, 0x00, 0x00, 0x00,
  0xaa, 0xff, 0xff, 0xff, 0x14, 0x00, 0x00, 0x00, 0x30, 0x00, 0x00, 0x00,
  0x03, 0x00, 0x00, 0x00, 0x00, 0x00, 0x00, 0x02, 0x38, 0x00, 0x00, 0x00,
  0x9c, 0xff, 0xff, 0xff, 0x08, 0x00, 0x00, 0x00, 0x10, 0x00, 0x00, 0x00,
  0x01, 0x00, 0x00, 0x00, 0x00, 0x00, 0x00, 0x00, 0x00, 0x00, 0x00, 0x00,
  0x01, 0x00, 0x00, 0x00, 0x19, 0xaa, 0x3b, 0x3a, 0x0c, 0x00, 0x00, 0x00,
  0x64, 0x65, 0x6e, 0x73, 0x65, 0x5f, 0x32, 0x2f, 0x62, 0x69, 0x61, 0x73,
  0x00, 0x00, 0x00, 0x00, 0x01, 0x00, 0x00, 0x00, 0x20, 0x00, 0x00, 0x00,
  0x00, 0x00, 0x0e, 0x00, 0x18, 0x00, 0x14, 0x00, 0x13, 0x00, 0x0c, 0x00,
  0x08, 0x00, 0x04, 0x00, 0x0e, 0x00, 0x00, 0x00, 0x20, 0x00, 0x00, 0x00,
  0x40, 0x00, 0x00, 0x00, 0x02, 0x00, 0x00, 0x00, 0x00, 0x00, 0x00, 0x02,
  0x48, 0x00, 0x00, 0x00, 0x0c, 0x00, 0x0c, 0x00, 0x00, 0x00, 0x00, 0x00,
  0x08, 0x00, 0x04, 0x00, 0x0c, 0x00, 0x00, 0x00, 0x08, 0x00, 0x00, 0x00,
  0x14, 0x00, 0x00, 0x00, 0x01, 0x00, 0x00, 0x00, 0x00, 0x00, 0x00, 0x00,
  0x00, 0x00, 0x00, 0x00, 0x00, 0x00, 0x00, 0x00, 0x01, 0x00, 0x00, 0x00,
  0x7e, 0x61, 0x8f, 0x3a, 0x0c, 0x00, 0x00, 0x00, 0x64, 0x65, 0x6e, 0x73,
  0x65, 0x5f, 0x33, 0x2f, 0x62, 0x69, 0x61, 0x73, 0x00, 0x00, 0x00, 0x00,
  0x01, 0x00, 0x00, 0x00, 0x01, 0x00, 0x00, 0x00, 0x14, 0x00, 0x1c, 0x00,
  0x18, 0x00, 0x17, 0x00, 0x10, 0x00, 0x0c, 0x00, 0x08, 0x00, 0x00, 0x00,
  0x00, 0x00, 0x04, 0x00, 0x14, 0x00, 0x00, 0x00, 0x18, 0x00, 0x00, 0x00,
  0x34, 0x00, 0x00, 0x00, 0x68, 0x00, 0x00, 0x00, 0x01, 0x00, 0x00, 0x00,
  0x00, 0x00, 0x00, 0x09, 0x90, 0x00, 0x00, 0x00, 0x04, 0x00, 0x00, 0x00,
  0xff, 0xff, 0xff, 0xff, 0x00, 0x01, 0x00, 0x00, 0x00, 0x01, 0x00, 0x00,
  0x01, 0x00, 0x00, 0x00, 0x0c, 0x00, 0x14, 0x00, 0x10, 0x00, 0x0c, 0x00,
  0x08, 0x00, 0x04, 0x00, 0x0c, 0x00, 0x00, 0x00, 0x10, 0x00, 0x00, 0x00,
  0x18, 0x00, 0x00, 0x00, 0x1c, 0x00, 0x00, 0x00, 0x20, 0x00, 0x00, 0x00,
  0x01, 0x00, 0x00, 0x00, 0x80, 0xff, 0xff, 0xff, 0xff, 0xff, 0xff, 0xff,
  0x01, 0x00, 0x00, 0x00, 0x00, 0x00, 0x80, 0x3f, 0x01, 0x00, 0x00, 0x00,
  0x00, 0x00, 0x7f, 0x43, 0x01, 0x00, 0x00, 0x00, 0x00, 0x00, 0x00, 0x00,
  0x2c, 0x00, 0x00, 0x00, 0x73, 0x65, 0x72, 0x76, 0x69, 0x6e, 0x67, 0x5f,
  0x64, 0x65, 0x66, 0x61, 0x75, 0x6c, 0x74, 0x5f, 0x6d, 0x61, 0x78, 0x5f,
  0x70, 0x6f, 0x6f, 0x6c, 0x69, 0x6e, 0x67, 0x32, 0x64, 0x5f, 0x34, 0x5f,
  0x69, 0x6e, 0x70, 0x75, 0x74, 0x3a, 0x30, 0x5f, 0x69, 0x6e, 0x74, 0x38,
  0x00, 0x00, 0x00, 0x00, 0x04, 0x00, 0x00, 0x00, 0x01, 0x00, 0x00, 0x00,
  0x00, 0x01, 0x00, 0x00, 0x00, 0x01, 0x00, 0x00, 0x01, 0x00, 0x00, 0x00,
  0x07, 0x00, 0x00, 0x00, 0x8c, 0x00, 0x00, 0x00, 0x6c, 0x00, 0x00, 0x00,
  0x5c, 0x00, 0x00, 0x00, 0x3c, 0x00, 0x00, 0x00, 0x28, 0x00, 0x00, 0x00,
  0x18, 0x00, 0x00, 0x00, 0x04, 0x00, 0x00, 0x00, 0x9c, 0xff, 0xff, 0xff,
  0x06, 0x00, 0x00, 0x00, 0x02, 0x00, 0x00, 0x00, 0x00, 0x00, 0x00, 0x06,
  0xd4, 0xff, 0xff, 0xff, 0x72, 0x00, 0x00, 0x00, 0x00, 0x00, 0x00, 0x72,
  0xb8, 0xff, 0xff, 0xff, 0x0e, 0x00, 0x00, 0x00, 0x02, 0x00, 0x00, 0x00,
  0x00, 0x00, 0x00, 0x0e, 0xc8, 0xff, 0xff, 0xff, 0x09, 0x00, 0x00, 0x00,
  0x04, 0x00, 0x00, 0x00, 0x00, 0x00, 0x00, 0x09, 0x0c, 0x00, 0x0c, 0x00,
  0x0b, 0x00, 0x00, 0x00, 0x00, 0x00, 0x04, 0x00, 0x0c, 0x00, 0x00, 0x00,
  0x16, 0x00, 0x00, 0x00, 0x00, 0x00, 0x00, 0x16, 0xf0, 0xff, 0xff, 0xff,
  0x03, 0x00, 0x00, 0x00, 0x03, 0x00, 0x00, 0x00, 0x00, 0x00, 0x00, 0x03,
  0x0c, 0x00, 0x10, 0x00, 0x0f, 0x00, 0x00, 0x00, 0x08, 0x00, 0x04, 0x00,
  0x0c, 0x00, 0x00, 0x00, 0x11, 0x00, 0x00, 0x00, 0x02, 0x00, 0x00, 0x00,
  0x00, 0x00, 0x00, 0x11
};



const int g_person_detect_model_data_len = 7024;
